<unk>	0
<s>	0
</s>	0
▁,	-3.63694
s	-3.87701
▁.	-3.90261
▁de	-4.03191
▁the	-4.19004
▁a	-4.25373
'	-4.34785
,	-4.45157
.	-4.51386
▁la	-4.56794
̱	-4.65858
▁que	-4.70581
▁of	-4.82225
▁to	-4.83144
▁en	-4.97447
▁y	-4.99978
a	-5.03548
▁and	-5.05415
▁in	-5.10887
▁el	-5.10989
+	-5.12277
▁los	-5.35809
n	-5.45653
▁	-5.53207
▁that	-5.5722
’	-5.62229
▁se	-5.62814
▁is	-5.63217
▁'	-5.70256
i	-5.76892
▁no	-5.81397
ed	-5.81842
▁’	-5.86588
▁I	-5.86912
▁las	-5.87616
e	-5.90441
▁un	-5.90615
▁del	-5.93798
ing	-5.96715
▁para	-5.98641
▁for	-6.02848
▁be	-6.03552
:	-6.04757
▁ra	-6.05133
▁una	-6.08224
▁on	-6.08852
▁ha	-6.09099
d	-6.10106
▁con	-6.10377
▁es	-6.1115
o	-6.12013
t	-6.13365
▁por	-6.16488
▁e	-6.16717
▁we	-6.17972
pa	-6.20575
r	-6.22155
▁“	-6.23897
▁it	-6.3188
ly	-6.3255
▁ya	-6.35707
▁:	-6.3744
▁”	-6.3775
y	-6.38594
-	-6.39175
▁are	-6.41588
▁?	-6.41636
▁this	-6.43191
▁with	-6.43349
▁ne	-6.44383
▁su	-6.44434
▁¿	-6.44498
▁(	-6.45382
ta	-6.45486
▁o	-6.47298
▁not	-6.49921
es	-6.51305
▁have	-6.51568
u	-6.52661
k	-6.54417
̠	-6.5475
▁al	-6.5642
▁ma	-6.59409
▁The	-6.59445
▁lo	-6.59829
▁m	-6.61357
▁as	-6.63893
▁-	-6.65639
▁s	-6.66204
ka	-6.67097
ra	-6.70166
▁da	-6.71663
▁A	-6.72565
ni	-6.73671
▁ja	-6.75327
te	-6.75512
▁by	-6.76708
▁me	-6.77198
▁más	-6.7726
ki	-6.80397
▁will	-6.81475
▁como	-6.84078
▁bi	-6.85467
▁pa	-6.86229
▁"	-6.86543
▁mi	-6.87717
na	-6.88075
▁i	-6.88299
▁)	-6.90099
▁was	-6.90825
▁tö	-6.94119
▁which	-6.94359
ti	-6.94982
la	-6.96116
ma	-6.96747
▁you	-6.9709
se	-6.98252
m	-6.98896
▁ta	-7.00579
▁an	-7.00914
▁has	-7.01951
mi	-7.02174
▁he	-7.02581
▁La	-7.03595
ri	-7.06053
?	-7.06632
▁from	-7.07236
▁iki	-7.07749
▁at	-7.11061
ó	-7.11516
me	-7.119
▁sobre	-7.12408
̀	-7.12719
mos	-7.13514
▁|	-7.13663
ne	-7.14545
mente	-7.14817
wa	-7.15208
▁El	-7.16878
▁esta	-7.1748
▁European	-7.18244
▁este	-7.18768
▁all	-7.19143
ca	-7.21169
▁—	-7.22118
▁En	-7.22265
▁can	-7.23202
re	-7.25715
▁or	-7.25836
▁ie	-7.26251
pe	-7.26448
▁wa	-7.26516
do	-7.26757
▁ka	-7.27928
▁their	-7.28409
▁te	-7.31091
▁sus	-7.31126
▁would	-7.31378
▁t	-7.31793
▁si	-7.32174
▁ni	-7.32441
▁they	-7.32574
▁In	-7.33197
li	-7.35077
▁pe	-7.36587
▁our	-7.36716
▁ko	-7.37238
▁;	-7.37363
▁but	-7.38005
▁alué	-7.39998
ya	-7.40783
▁do	-7.41074
▁also	-7.42483
we	-7.4352
▁No	-7.44608
▁ye	-7.45222
▁his	-7.45234
h	-7.45481
▁Dios	-7.4632
▁one	-7.46334
á	-7.4663
▁who	-7.47466
▁re	-7.48007
▁We	-7.49142
)	-7.50566
▁Por	-7.51212
▁It	-7.51554
pi	-7.52056
▁di	-7.52464
▁been	-7.52482
▁E	-7.52664
▁napu	-7.5304
▁también	-7.53334
▁nu	-7.53395
▁Comisión	-7.534
▁more	-7.5383
ʉ	-7.54147
in	-7.55269
▁nú	-7.55289
c	-7.55543
▁so	-7.55555
ke	-7.55689
x	-7.55863
▁should	-7.56965
l	-7.58193
on	-7.58682
▁what	-7.59088
an	-7.60253
j	-7.6032
▁about	-7.61046
▁son	-7.61065
▁han	-7.61272
bo	-7.61816
▁Mr	-7.62597
▁people	-7.62694
▁there	-7.62719
▁ke	-7.62943
to	-7.63594
le	-7.64624
▁pero	-7.64677
;	-7.6535
▁Jesús	-7.65913
p	-7.66489
di	-7.68393
▁‘	-7.68846
▁like	-7.68883
qui	-7.69806
▁Y	-7.71171
▁must	-7.7128
▁Commission	-7.71593
ba	-7.71612
▁were	-7.72894
▁us	-7.73225
▁ser	-7.73334
▁p	-7.73587
▁my	-7.73791
ción	-7.75259
▁its	-7.76123
▁huan	-7.77496
▁ki	-7.77798
́	-7.78803
▁na	-7.8006
ro	-7.80965
▁está	-7.81544
▁yn	-7.81725
chi	-7.82065
▁time	-7.82112
▁President	-7.83533
va	-7.83749
sa	-7.84365
w	-7.8459
▁them	-7.84605
▁This	-7.85145
▁out	-7.85159
▁these	-7.85236
que	-7.85438
▁entre	-7.86702
▁up	-7.86722
▁God	-7.86757
▁le	-7.86784
▁other	-7.86844
▁go	-7.87939
▁had	-7.89311
▁puede	-7.89607
er	-7.90002
▁kë	-7.90308
▁when	-7.90309
▁todo	-7.90416
▁De	-7.90859
da	-7.91103
▁Estados	-7.91255
▁Unión	-7.91357
ha	-7.91596
▁dör	-7.91693
▁muy	-7.91819
lige	-7.9342
bi	-7.94013
▁sin	-7.94188
▁Jehová	-7.94443
▁O	-7.95688
▁some	-7.95801
▁gue	-7.95848
▁if	-7.96049
▁–	-7.96381
ndo	-7.96934
lo	-7.9745
▁ju	-7.97485
en	-7.97856
é	-7.97858
▁nos	-7.97996
▁T	-7.98628
▁Pero	-7.98971
co	-7.99812
▁todos	-7.99847
yo	-7.99858
▁how	-8.00014
ar	-8.01334
▁Jehovah	-8.017
mo	-8.0174
ku	-8.01875
▁ri	-8.02246
▁mo	-8.02726
▁Union	-8.02764
▁tlen	-8.02813
man	-8.02944
▁cuando	-8.03077
▁ge	-8.03105
▁new	-8.03245
▁xa	-8.0331
ña	-8.03332
▁!	-8.0338
▁Es	-8.03457
▁Se	-8.03837
▁tiempo	-8.03854
▁Presidente	-8.039
ru	-8.04114
qa	-8.0422
▁ipan	-8.04353
▁Europea	-8.04399
▁rá	-8.04429
▁xi	-8.04888
▁Parlamento	-8.05477
▁sa	-8.05615
▁only	-8.05979
ë	-8.06503
▁ts	-8.06895
▁ga	-8.06974
▁because	-8.0729
▁into	-8.07878
▁report	-8.07924
▁your	-8.08052
▁nopa	-8.08919
▁países	-8.09034
▁Parliament	-8.09393
▁Los	-8.09824
▁such	-8.10413
▁contra	-8.10607
▁hay	-8.10633
▁años	-8.11248
▁ti	-8.11264
ga	-8.1147
▁ba	-8.11968
▁And	-8.12037
▁parte	-8.12285
▁those	-8.12427
▁hacer	-8.12547
▁than	-8.1263
▁may	-8.12995
▁States	-8.13013
▁1	-8.13457
▁take	-8.13534
▁ralámuli	-8.13633
▁Si	-8.14157
í	-8.14404
▁need	-8.14568
▁personas	-8.15073
▁¡	-8.15382
no	-8.15658
▁way	-8.15959
▁qué	-8.16103
▁Señor	-8.16799
▁miembros	-8.17046
▁many	-8.17157
▁now	-8.17175
▁tso	-8.17276
▁jan	-8.17387
tsi	-8.17732
▁ver	-8.17897
▁Member	-8.17997
▁ngu	-8.18559
ve	-8.18738
▁tiene	-8.19149
▁particular	-8.19699
▁countries	-8.19759
▁tanto	-8.19789
▁He	-8.1979
▁Ha	-8.19841
▁informe	-8.19987
▁vez	-8.20052
▁make	-8.20237
▁But	-8.20267
▁Europe	-8.20611
z	-8.20815
▁uno	-8.20855
▁política	-8.21277
▁Consejo	-8.21396
▁k	-8.21612
▁hecho	-8.2165
▁work	-8.22506
ever	-8.2293
▁Europa	-8.24182
▁Council	-8.24751
▁Onorúgame	-8.24852
▁mä	-8.25932
rá	-8.26345
▁social	-8.26436
▁Skëköl	-8.26488
▁Huan	-8.26746
▁Ma	-8.26967
ch	-8.27034
▁ese	-8.27658
al	-8.27813
▁porque	-8.27834
▁world	-8.28113
▁―	-8.28683
he	-8.29682
ts	-8.30131
▁EU	-8.30537
ko	-8.30545
tsa	-8.30882
▁How	-8.31216
▁esto	-8.31275
▁están	-8.31386
▁first	-8.31632
▁lugar	-8.31681
▁important	-8.31833
▁co	-8.31866
▁%	-8.31924
ja	-8.31988
▁just	-8.3243
▁support	-8.32606
▁want	-8.32842
very	-8.32977
▁being	-8.3302
cha	-8.33057
▁even	-8.33257
▁amo	-8.33343
▁mundo	-8.3377
ani	-8.33831
ye	-8.33879
▁eso	-8.34064
▁made	-8.34206
▁S	-8.34323
▁over	-8.34425
▁ku	-8.34841
▁ica	-8.35041
▁him	-8.35139
▁vida	-8.35309
▁2	-8.35582
▁bo	-8.35701
▁debate	-8.35734
▁debe	-8.35965
▁hasta	-8.36357
▁said	-8.3692
!	-8.37046
▁am	-8.37179
▁could	-8.37249
▁any	-8.382
▁yo	-8.38315
▁pi	-8.38328
▁ca	-8.38545
▁Ajua	-8.38683
▁n	-8.38739
rigá	-8.3877
▁había	-8.38828
sti	-8.39054
q	-8.39367
).	-8.39884
▁/	-8.39939
de	-8.40525
▁fue	-8.40999
▁importante	-8.4105
▁years	-8.41108
▁her	-8.41568
▁most	-8.41912
▁As	-8.42207
▁así	-8.4239
▁Toteco	-8.42541
at	-8.4279
▁Sin	-8.43113
▁mana	-8.43369
▁tu	-8.43583
▁otros	-8.4381
▁So	-8.44454
▁know	-8.4468
▁x	-8.44702
▁M	-8.44946
▁say	-8.45296
▁embargo	-8.45412
▁jato	-8.45814
po	-8.46183
▁qui	-8.46519
▁u	-8.46914
▁dos	-8.46927
▁good	-8.47532
▁where	-8.47651
▁aisati	-8.47675
▁Israel	-8.48267
▁gran	-8.48546
▁bien	-8.48554
wi	-8.48988
▁b	-8.49565
▁two	-8.49681
ía	-8.49763
▁between	-8.49978
▁18	-8.50395
▁What	-8.50435
▁mismo	-8.50494
▁3	-8.50514
▁--	-8.50718
▁tla	-8.51664
▁Jesus	-8.51727
ana	-8.51891
▁forma	-8.51959
▁tabilé	-8.52039
tu	-8.52073
ce	-8.52142
▁see	-8.52405
▁era	-8.5262
▁desde	-8.52769
▁Al	-8.52911
hʉ	-8.52926
▁solo	-8.53327
▁trabajo	-8.53357
▁policy	-8.53433
▁nuestra	-8.53518
▁mu	-8.53572
▁estos	-8.54063
xa	-8.54303
▁well	-8.54503
▁much	-8.54919
▁les	-8.55172
▁right	-8.55217
▁Me	-8.55467
▁ká	-8.5547
▁sido	-8.5554
▁non	-8.55649
▁mucho	-8.55659
▁sino	-8.55694
▁ahora	-8.55777
▁UE	-8.56022
ia	-8.5662
be	-8.56871
▁life	-8.56974
hi	-8.57019
▁Europeo	-8.57135
▁against	-8.57251
▁Bible	-8.57373
▁país	-8.57852
▁tan	-8.57922
▁Ie	-8.58368
ther	-8.58622
▁does	-8.58919
▁think	-8.58978
▁did	-8.59371
▁Ja	-8.59384
emi	-8.59502
▁per	-8.5957
▁through	-8.6016
refore	-8.60253
▁mem	-8.60548
▁día	-8.60602
▁decir	-8.60816
▁po	-8.612
▁Nu	-8.61318
▁man	-8.61399
▁ejemplo	-8.61502
▁political	-8.61565
bʉ	-8.61566
▁ch	-8.61608
▁believe	-8.61684
▁human	-8.61845
pan	-8.61849
▁acuerdo	-8.62023
▁mba	-8.62166
▁él	-8.62893
go	-8.63245
ari	-8.6333
▁cada	-8.63344
▁hace	-8.63452
▁part	-8.63786
▁fact	-8.63961
▁señor	-8.64449
ciones	-8.64543
▁sea	-8.64643
nga	-8.64658
▁Te	-8.64708
▁own	-8.64752
▁mayor	-8.64946
xihuitl	-8.65117
ado	-8.65123
▁year	-8.65481
▁5	-8.65961
▁año	-8.66052
▁15	-8.66228
pu	-8.66378
▁pueden	-8.66565
tsie	-8.66674
▁yá	-8.6679
▁For	-8.66876
▁nuestro	-8.66948
ẽ	-8.67267
ä	-8.67527
▁cha	-8.67771
▁come	-8.68117
vo	-8.6861
▁tienen	-8.6866
tion	-8.68906
▁same	-8.68908
▁country	-8.68988
▁uka	-8.69055
▁pegua	-8.69056
g	-8.69123
▁gatho	-8.6924
▁Pe	-8.69334
▁...	-8.69389
os	-8.69395
chu	-8.69467
▁tai	-8.69878
▁Ra	-8.70109
▁crisis	-8.70359
▁economic	-8.70387
▁cati	-8.70438
▁10	-8.70467
▁use	-8.70803
▁public	-8.70804
▁catli	-8.71031
▁That	-8.7127
▁If	-8.71315
▁great	-8.71515
▁here	-8.71556
▁Cristo	-8.71817
lá	-8.71906
▁They	-8.71931
▁sector	-8.71944
nte	-8.72113
ir	-8.72313
▁4	-8.72453
▁C	-8.72466
▁gui	-8.72604
▁derechos	-8.72633
▁help	-8.7271
▁kue	-8.72842
▁Ne	-8.72902
▁To	-8.73011
▁alé	-8.73783
▁muchos	-8.74269
▁under	-8.74312
▁buaë	-8.74334
▁[	-8.74341
A	-8.74374
hu	-8.74576
ane	-8.74593
▁durante	-8.74997
▁general	-8.75026
▁́	-8.75114
▁today	-8.75288
▁algunos	-8.75298
▁situación	-8.75595
▁nochi	-8.75737
▁There	-8.75749
mpi	-8.75823
▁manera	-8.7597
▁hemos	-8.76012
▁tener	-8.76016
▁va	-8.7633
gua	-8.76351
dos	-8.76635
▁things	-8.76637
ñe	-8.76783
▁desarrollo	-8.77294
▁Esta	-8.77615
▁cosas	-8.77642
▁caso	-8.77727
▁hoy	-8.77915
▁government	-8.77961
▁fin	-8.77964
lla	-8.7815
b	-8.78525
▁example	-8.78566
▁yu	-8.78581
▁meta	-8.7859
ahʉ	-8.78614
▁menos	-8.78731
nta	-8.78876
+.	-8.79021
▁Pablo	-8.79256
▁todas	-8.79458
gui	-8.79462
ká	-8.7948
▁échi	-8.79513
▁sasa	-8.7957
▁dí	-8.79842
▁algo	-8.80471
+,	-8.80674
▁Ya	-8.80737
▁Con	-8.80753
▁before	-8.8077
▁ellos	-8.80778
nara	-8.8086
yari	-8.80901
▁rights	-8.80939
▁umi	-8.8094
▁Ye	-8.81152
▁Biblia	-8.81398
ie	-8.81567
▁still	-8.81653
▁respecto	-8.81726
▁modo	-8.81842
▁control	-8.81888
▁seguridad	-8.81997
ci	-8.82269
án	-8.82431
ers	-8.82647
▁tsa	-8.82674
je	-8.82743
▁she	-8.8293
tho	-8.8302
▁order	-8.83072
chí	-8.8331
emos	-8.83339
▁propuesta	-8.83371
▁ké	-8.83407
▁Las	-8.83484
ron	-8.83488
▁uca	-8.83589
ity	-8.83618
pas	-8.83672
▁mejor	-8.83803
▁antes	-8.84055
▁ì	-8.84288
▁Esto	-8.84304
▁especial	-8.84413
▁Na	-8.84497
▁point	-8.845
▁◄	-8.84615
▁place	-8.8467
▁regard	-8.84848
das	-8.85057
▁cuenta	-8.85074
▁►	-8.85278
▁pampa	-8.85322
▁nosotros	-8.85612
▁cómo	-8.86229
ary	-8.86278
▁6	-8.86326
▁put	-8.86332
▁long	-8.86404
▁toda	-8.86418
▁12	-8.86507
▁too	-8.86693
▁cu	-8.86742
▁after	-8.86842
les	-8.8685
▁cuestión	-8.87469
▁c	-8.87618
▁ciudadanos	-8.8773
nos	-8.87786
▁rió	-8.87844
ã	-8.87934
▁]	-8.88
▁podría	-8.88089
▁China	-8.88204
▁day	-8.88343
▁question	-8.88974
ll	-8.8919
manta	-8.89374
▁usted	-8.89608
▁después	-8.89681
▁future	-8.89713
▁nuevo	-8.89812
▁otro	-8.89833
▁Lo	-8.89929
▁issue	-8.90018
▁get	-8.90091
▁base	-8.90114
▁ello	-8.90129
▁P	-8.90137
▁otras	-8.9015
ax	-8.90297
ua	-8.906
▁medio	-8.90832
▁Ko	-8.91022
▁ayuda	-8.91248
▁sistema	-8.91436
hua	-8.91547
▁favor	-8.91647
▁Jesucristo	-8.91698
▁tenemos	-8.91717
▁punto	-8.91857
mu	-8.91991
▁posible	-8.92138
▁chi	-8.92361
▁niman	-8.92427
▁tal	-8.92471
▁both	-8.92593
▁ngue	-8.9282
▁market	-8.92871
▁jawen	-8.93006
wé	-8.93007
res	-8.9302
ame	-8.93146
▁On	-8.93205
ui	-8.93318
▁course	-8.93352
wan	-8.93487
▁otra	-8.93505
▁che	-8.93568
▁nda	-8.93622
▁itan	-8.93653
▁Tasorentsi	-8.93706
▁Qué	-8.93761
▁Mi	-8.93809
ies	-8.93844
▁cannot	-8.93952
▁system	-8.93982
mp	-8.94001
lí	-8.94047
▁wé	-8.94408
▁nuestros	-8.94557
▁mapu	-8.94631
▁gente	-8.94811
it	-8.94832
▁real	-8.95218
▁number	-8.95305
▁debería	-8.95562
▁8	-8.95578
▁min	-8.95625
▁view	-8.95836
▁mercado	-8.95909
▁why	-8.96002
▁millones	-8.96301
▁measure	-8.96388
▁situation	-8.96612
ré	-8.96704
▁7	-8.9682
▁mieme	-8.96888
ji	-8.96895
za	-8.97058
ban	-8.9706
th	-8.97266
▁17	-8.97489
▁become	-8.97599
▁give	-8.97765
▁dar	-8.97854
▁último	-8.97883
▁medidas	-8.97922
▁problema	-8.98057
▁possible	-8.98141
▁children	-8.98179
▁Pi	-8.98251
▁za	-8.98634
▁sólo	-8.98719
▁hope	-8.98729
gi	-8.99137
▁ea	-8.99513
▁development	-8.9957
▁jach	-8.99588
▁quin	-8.99668
▁Commissioner	-8.99755
▁donde	-8.99795
▁Ka	-8.99864
▁ña	-8.99892
ata	-8.99909
ting	-8.99982
nin	-8.99999
ita	-9.00158
yu	-9.00262
▁You	-9.00439
xi	-9.01021
▁16	-9.01088
▁Jesu	-9.01197
▁without	-9.01329
▁problemas	-9.01345
▁futuro	-9.01546
▁20	-9.01649
▁present	-9.01689
▁Para	-9.01698
▁dijo	-9.01748
▁Pa	-9.0198
▁San	-9.01992
▁11	-9.02112
▁moa	-9.02127
▁podemos	-9.02287
▁primer	-9.02636
▁last	-9.02682
▁national	-9.02875
rí	-9.0303
▁sí	-9.03101
▁Un	-9.03108
▁every	-9.03184
jja	-9.03273
▁14	-9.03465
cho	-9.03555
▁down	-9.03566
▁able	-9.03587
▁level	-9.03638
▁trata	-9.03702
▁debemos	-9.03844
▁peteĩ	-9.03863
hui	-9.03877
▁then	-9.04037
onda	-9.041
▁men	-9.04197
▁Sr	-9.04217
té	-9.04243
▁end	-9.04408
rse	-9.04546
▁dice	-9.04571
▁proposal	-9.04584
▁back	-9.04743
▁Juan	-9.04849
▁already	-9.04867
▁financial	-9.04897
▁Su	-9.05012
▁poder	-9.05056
▁cho	-9.05217
▁īpan	-9.05288
▁nombre	-9.05314
eni	-9.05369
▁momento	-9.05459
▁means	-9.05503
▁janiw	-9.05526
▁show	-9.05529
fi	-9.05593
▁hnini	-9.05818
▁mik	-9.06172
▁ñe	-9.06176
▁idea	-9.06258
iri	-9.06417
▁Unidos	-9.06485
ge	-9.06575
▁far	-9.06705
▁global	-9.06714
▁case	-9.06962
▁deben	-9.07145
▁really	-9.07146
▁result	-9.07279
able	-9.07335
▁esa	-9.07383
less	-9.07425
▁huk	-9.07683
ho	-9.07878
C	-9.07894
I	-9.07897
▁ante	-9.08074
né	-9.08114
Lige	-9.08392
▁humanos	-9.0847
▁san	-9.08526
ría	-9.08543
▁another	-9.08549
▁going	-9.08588
▁problem	-9.08595
st	-9.08702
▁Este	-9.08809
▁h	-9.08934
▁clear	-9.09006
▁citizens	-9.09013
▁xihuitl	-9.09102
▁common	-9.09333
shi	-9.09355
▁acerca	-9.09421
▁Mācuīlpōhual	-9.09449
▁haber	-9.09457
▁G	-9.09553
▁law	-9.0959
kin	-9.09856
ry	-9.10177
▁ima	-9.10192
▁Be	-9.10312
▁When	-9.10358
ando	-9.10415
el	-9.10577
▁Pedro	-9.10804
ú	-9.10812
▁13	-9.10969
ambién	-9.10991
teri	-9.11279
▁process	-9.11345
▁je	-9.11427
▁pro	-9.11521
yá	-9.1176
▁tipo	-9.11793
▁adopt	-9.11852
ng	-9.11934
▁iká	-9.12021
▁look	-9.1216
vi	-9.12357
▁women	-9.12363
▁pues	-9.12372
▁aquí	-9.12406
▁Como	-9.12428
idad	-9.1244
▁international	-9.12653
▁taken	-9.12661
▁cual	-9.12726
kai	-9.12745
tan	-9.12753
ness	-9.12885
kana	-9.12916
jj	-9.13036
▁B	-9.13058
▁plan	-9.13269
mpa	-9.13447
▁bilé	-9.13453
▁poco	-9.13548
aka	-9.13597
▁respect	-9.13764
▁tres	-9.13819
▁mato	-9.13833
▁proceso	-9.13836
▁consider	-9.1424
▁9	-9.14324
▁siempre	-9.14376
▁información	-9.14408
▁muchas	-9.14412
▁parece	-9.1442
▁state	-9.1445
▁term	-9.1451
ten	-9.14538
▁nza	-9.1457
▁estamos	-9.14671
▁Committee	-9.14807
▁three	-9.14827
▁«	-9.14828
can	-9.1487
E	-9.14989
tla	-9.15273
▁Esusi	-9.15417
ñ	-9.1551
▁estar	-9.15601
▁haya	-9.15728
▁problems	-9.15895
▁few	-9.15939
▁ary	-9.15975
S	-9.16117
▁iro	-9.16133
▁fe	-9.16411
xon	-9.16888
▁ask	-9.16965
▁Ni	-9.17367
▁find	-9.17457
ment	-9.17521
▁different	-9.17542
▁apoyo	-9.17589
▁será	-9.17637
▁something	-9.17745
est	-9.17766
kuna	-9.17781
▁nispa	-9.17979
▁ttè	-9.17998
▁estaba	-9.17999
lli	-9.18043
▁given	-9.1821
▁Mo	-9.18244
▁fundamental	-9.183
▁United	-9.18445
▁relación	-9.18451
▁vista	-9.18558
▁europea	-9.18583
▁Re	-9.18663
▁David	-9.18741
ai	-9.18863
▁mujeres	-9.18872
▁legal	-9.18905
▁used	-9.19102
eri	-9.19115
▁maaroni	-9.1914
▁since	-9.19286
▁Lige	-9.19341
▁quema	-9.19416
"	-9.19451
▁icha	-9.19594
▁yoia	-9.19657
▁gobierno	-9.19678
ada	-9.1971
▁Ca	-9.19786
ted	-9.198
or	-9.19981
▁eta	-9.2
▁primera	-9.20133
▁At	-9.20154
▁Así	-9.20267
▁information	-9.20288
▁ena	-9.20384
▁better	-9.20412
efi	-9.20421
ty	-9.2057
▁akin	-9.20623
▁again	-9.20639
▁•	-9.20827
ación	-9.20909
▁tsi	-9.20913
▁Sa	-9.20955
▁allow	-9.20956
Cuando	-9.2102
▁ho	-9.21192
▁dicho	-9.21337
▁health	-9.21416
▁kaka	-9.21435
▁call	-9.21472
▁start	-9.21479
am	-9.21555
▁suyu	-9.22288
▁Ari	-9.22362
▁Erë	-9.22472
ite	-9.22692
▁nt	-9.22736
▁creo	-9.22767
ran	-9.22777
▁might	-9.22814
▁casa	-9.2286
▁tema	-9.23047
▁hand	-9.23104
▁metá	-9.23114
nu	-9.23159
▁final	-9.2338
▁K	-9.23391
▁hombre	-9.24041
wö	-9.24364
▁L	-9.24508
▁estado	-9.24652
▁agreement	-9.24753
▁nuya	-9.24764
akin	-9.249
▁vote	-9.2507
▁change	-9.25182
▁bring	-9.25202
▁Yo	-9.25238
iya	-9.25283
ná	-9.25329
▁others	-9.25445
▁increase	-9.25566
▁kay	-9.25799
▁familia	-9.25816
▁du	-9.25923
▁Estado	-9.26089
2	-9.2624
▁matter	-9.26248
▁set	-9.26273
▁chay	-9.26523
▁Ta	-9.26549
▁pasado	-9.26649
▁eiro	-9.26719
▁hu	-9.26755
▁común	-9.26803
▁xqui	-9.26838
▁whe	-9.26933
▁mayoría	-9.27126
ation	-9.27168
▁energy	-9.27209
▁sentido	-9.27481
▁Una	-9.27511
▁ama	-9.27526
▁yora	-9.27551
▁ixon	-9.27554
▁ten	-9.27568
▁ley	-9.27608
▁derecho	-9.27693
▁mí	-9.27693
▁continue	-9.2783
▁love	-9.27946
▁hina	-9.27968
▁jisk	-9.28022
▁while	-9.28154
▁power	-9.28158
▁avei	-9.28196
▁U	-9.28315
che	-9.28405
aix	-9.28579
uka	-9.28731
▁provide	-9.28928
▁done	-9.29002
▁Comisario	-9.29086
▁nehe	-9.29103
▁hño	-9.29146
▁gu	-9.29391
▁actual	-9.29509
▁shall	-9.29594
▁cualquier	-9.29604
▁pre	-9.29692
▁ë	-9.29835
▁»	-9.29994
▁incluso	-9.30014
▁algunas	-9.30176
▁next	-9.30256
▁quiero	-9.30261
▁anta	-9.30728
cu	-9.3094
▁cuanto	-9.30943
▁Tom	-9.30957
▁pan	-9.31044
v	-9.31076
▁earth	-9.31144
f	-9.31268
il	-9.31314
ik	-9.31472
▁marka	-9.3152
▁má	-9.31622
tzin	-9.3164
▁don	-9.31667
▁Diospa	-9.31893
▁mis	-9.32036
▁ru	-9.32106
▁é	-9.32112
▁ensure	-9.32152
▁remain	-9.32191
ribi	-9.32241
▁hacia	-9.32471
▁cambio	-9.32519
▁empresas	-9.32578
▁ella	-9.32866
ton	-9.33175
▁seem	-9.33451
▁action	-9.33507
▁Además	-9.33554
ón	-9.33559
▁personal	-9.33632
▁necesario	-9.33668
▁N	-9.33973
▁high	-9.34066
▁tenía	-9.341
▁war	-9.34289
jo	-9.34341
▁q	-9.34406
▁suma	-9.34605
▁programa	-9.34637
▁veces	-9.35005
▁found	-9.35013
▁serious	-9.35024
▁aunque	-9.35156
▁yejhuan	-9.35299
▁zi	-9.35404
▁atención	-9.35425
▁tita	-9.35628
▁One	-9.35737
▁words	-9.3575
▁políticas	-9.35794
▁hik	-9.35931
▁family	-9.3605
▁toward	-9.36121
▁opinión	-9.3624
ria	-9.36283
▁nja	-9.36333
▁esepa	-9.36465
▁young	-9.36486
taq	-9.36607
▁often	-9.36713
▁realidad	-9.36749
▁allin	-9.3677
▁among	-9.36771
▁together	-9.36815
ut	-9.36966
ay	-9.37006
▁wish	-9.37051
▁nada	-9.37087
▁ro	-9.37319
ju	-9.3735
▁security	-9.37456
bu	-9.37504
▁realmente	-9.37577
▁ce	-9.37582
▁natural	-9.37617
▁aún	-9.37801
▁libertad	-9.37823
▁cooperation	-9.38001
▁area	-9.38016
▁cooperación	-9.38133
▁nivel	-9.38255
gue	-9.38304
▁concern	-9.38398
▁Do	-9.38422
▁accept	-9.38458
▁riki	-9.3865
▁rey	-9.39011
▁Cómo	-9.39106
▁never	-9.39147
▁account	-9.39178
▁local	-9.39223
▁protección	-9.39227
nt	-9.39503
▁objetivo	-9.39555
▁name	-9.39559
▁entonces	-9.39565
▁joni	-9.39608
▁principio	-9.39717
▁verdad	-9.3973
▁wali	-9.39769
▁certain	-9.40048
ama	-9.40103
▁large	-9.40116
▁F	-9.4012
▁position	-9.40242
▁reason	-9.40279
▁interest	-9.40287
▁marco	-9.40392
▁ex	-9.40542
▁ñ	-9.40543
▁sería	-9.40619
▁palabras	-9.40754
ero	-9.40771
▁Grupo	-9.40811
▁Community	-9.40867
us	-9.40941
▁true	-9.4105
▁open	-9.41058
▁second	-9.41155
▁Christian	-9.41159
▁little	-9.41169
▁nueva	-9.41247
▁called	-9.41325
tiri	-9.41333
ic	-9.41474
ados	-9.41478
▁Di	-9.41603
▁group	-9.41632
▁razón	-9.41667
▁grandes	-9.41669
▁mientra	-9.41759
▁guí	-9.41852
▁says	-9.41954
▁nuestras	-9.41977
uh	-9.42173
▁further	-9.42192
▁30	-9.42243
▁kind	-9.4229
▁ax	-9.42292
aqa	-9.42352
▁aka	-9.42945
▁decision	-9.42994
▁mia	-9.43032
▁pregunta	-9.4304
▁role	-9.43169
sh	-9.43208
),	-9.43241
▁main	-9.43242
▁home	-9.43305
round	-9.43406
▁joi	-9.43476
▁small	-9.43663
▁necessary	-9.43696
▁pay	-9.43845
▁misma	-9.43934
▁food	-9.43975
▁Commons	-9.43989
▁ati	-9.44076
▁bu	-9.44085
▁nile	-9.44266
▁condiciones	-9.44371
▁bajo	-9.44372
▁europeos	-9.44478
▁importancia	-9.44513
▁ika	-9.44631
▁nuevas	-9.44652
▁internacional	-9.44676
▁obstante	-9.44705
▁ir	-9.44708
▁papel	-9.44755
▁pueblo	-9.44795
▁protection	-9.44834
rke	-9.44857
▁njabʉ	-9.44989
ruw	-9.45056
nti	-9.45137
▁xe	-9.45155
▁total	-9.45167
awe	-9.45232
▁always	-9.45444
▁campa	-9.45465
▁servicios	-9.45474
rán	-9.45494
▁try	-9.45553
iendo	-9.45781
ot	-9.45818
▁directive	-9.45836
▁hijos	-9.46084
▁ponente	-9.46101
▁europeo	-9.46316
▁areas	-9.46359
uta	-9.4639
▁persona	-9.46556
▁ámbito	-9.46579
▁making	-9.46636
▁salud	-9.46657
the	-9.4682
▁energía	-9.46917
amos	-9.46942
▁simi	-9.46963
▁These	-9.47042
▁normas	-9.47059
▁whole	-9.47126
▁issues	-9.47203
▁budget	-9.47243
sqa	-9.47247
▁let	-9.473
ach	-9.4733
▁todavía	-9.47593
▁días	-9.47845
tic	-9.47915
▁necesidad	-9.47959
▁money	-9.48021
▁Christ	-9.48268
baon	-9.48329
▁An	-9.48335
▁media	-9.48372
▁á	-9.48487
▁gracias	-9.48517
ter	-9.48633
▁artículo	-9.48779
▁quite	-9.48849
ive	-9.48962
▁Le	-9.48972
▁include	-9.49136
etsi	-9.49211
▁reform	-9.4932
▁million	-9.49444
▁feel	-9.49458
▁oñe	-9.4947
▁D	-9.49613
▁answer	-9.49644
▁noa	-9.49652
▁respuesta	-9.49816
▁número	-9.49892
▁jä	-9.50025
▁Witnesses	-9.50033
tam	-9.50054
▁niños	-9.50142
tejj	-9.50192
jque	-9.50326
▁uan	-9.50363
▁responsabilidad	-9.50374
▁Ahora	-9.50404
men	-9.50519
äna	-9.50541
los	-9.50577
▁water	-9.5067
▁yoyo	-9.50842
▁including	-9.50991
▁free	-9.51053
▁trade	-9.51081
nak	-9.51106
▁propia	-9.51128
▁nep	-9.51565
▁seguir	-9.51609
yuga	-9.51661
▁Hay	-9.51669
▁resultado	-9.519
▁guerra	-9.51974
▁Jerusalén	-9.51982
▁especialmente	-9.52034
▁exist	-9.52047
".	-9.52096
O	-9.52132
▁approach	-9.52148
▁dinero	-9.52202
▁falta	-9.52267
▁cierto	-9.52362
fa	-9.52416
T	-9.52513
▁dentro	-9.52518
xe	-9.5269
▁thing	-9.52791
▁cē	-9.52812
las	-9.52832
▁working	-9.52835
▁rapporteur	-9.52886
▁historia	-9.52911
▁needs	-9.53167
ck	-9.53353
▁House	-9.53424
▁person	-9.53545
▁create	-9.53616
▁cantaincha	-9.53681
▁oje	-9.53743
▁live	-9.53855
P	-9.54069
▁old	-9.54072
▁fuera	-9.54142
▁thank	-9.54194
kuéra	-9.54204
▁mention	-9.54313
▁largo	-9.54325
▁hombres	-9.5435
deed	-9.54372
mana	-9.54446
▁Po	-9.54455
▁nura	-9.54627
▁duda	-9.54739
▁Paul	-9.54744
▁euro	-9.54837
▁dö	-9.54915
▁señora	-9.55084
▁paz	-9.55102
▁materia	-9.55139
lu	-9.55231
▁Reino	-9.55257
▁Mrs	-9.55257
axa	-9.55293
du	-9.55328
▁My	-9.55342
▁maton	-9.55384
▁aid	-9.55447
py	-9.55454
▁opinion	-9.5553
▁Ba	-9.5555
▁actually	-9.55562
tzi	-9.55616
▁lucha	-9.55715
icha	-9.55733
▁Señorías	-9.55948
▁Gobierno	-9.55985
▁bua	-9.55999
▁once	-9.56011
▁económica	-9.56074
▁best	-9.56193
▁hablar	-9.56347
▁25	-9.56483
▁significa	-9.565
▁medida	-9.56511
iki	-9.56562
▁vi	-9.56614
▁xá	-9.56616
▁gustaría	-9.56635
▁Tratado	-9.56705
▁themselves	-9.56725
U	-9.56833
kunata	-9.56889
▁iché	-9.56999
▁yet	-9.57072
▁llegar	-9.57127
▁upe	-9.57138
▁death	-9.57352
wá	-9.57413
▁express	-9.57457
▁full	-9.57465
▁gentlemen	-9.57478
mba	-9.5748
▁claro	-9.57506
▁haguã	-9.5752
tá	-9.5757
▁orden	-9.57645
▁peace	-9.57662
▁decisión	-9.57761
▁ari	-9.57806
gá	-9.5792
ant	-9.57944
▁empleo	-9.57979
▁With	-9.58165
▁lur	-9.58393
tix	-9.58397
má	-9.58467
▁@	-9.58505
uti	-9.58581
▁doing	-9.58614
▁resolución	-9.58617
▁though	-9.58757
zo	-9.58796
et	-9.58939
▁pesar	-9.59054
▁Wa	-9.59094
▁came	-9.59108
▁nacionales	-9.5912
▁jo	-9.59173
▁Creo	-9.59181
▁garantizar	-9.59245
nca	-9.59252
▁grupo	-9.59262
▁muerte	-9.59418
▁jóvenes	-9.5948
▁través	-9.5956
▁ramué	-9.59625
▁cuestiones	-9.59673
ism	-9.59817
▁objective	-9.59835
▁keep	-9.59836
▁cristianos	-9.5989
▁basis	-9.59897
▁times	-9.60061
dor	-9.60122
▁economía	-9.60151
iti	-9.6016
▁matsi	-9.6018
▁off	-9.60358
▁agree	-9.60378
▁civil	-9.60396
fe	-9.60472
▁cuali	-9.60541
▁wö	-9.60561
▁close	-9.60663
▁ynic	-9.60688
▁New	-9.60722
▁Nepʉ	-9.60772
▁turn	-9.60774
▁upon	-9.60874
▁capital	-9.60939
▁hizo	-9.6099
▁asunto	-9.6101
ró	-9.61086
▁R	-9.61086
wí	-9.61144
▁less	-9.61212
tima	-9.61237
ara	-9.61264
▁testigos	-9.61313
▁itself	-9.61327
▁político	-9.61443
▁interés	-9.61491
▁subject	-9.61496
▁medios	-9.61507
▁ome	-9.61513
▁hinda	-9.61731
ista	-9.61752
▁fueron	-9.61754
▁follow	-9.61875
miento	-9.61883
▁ago	-9.62012
▁understand	-9.62072
out	-9.62073
▁mundial	-9.62138
▁mara	-9.62211
▁mué	-9.62419
▁least	-9.62463
▁US	-9.62476
▁mama	-9.62483
▁hora	-9.62715
▁progress	-9.62759
▁Co	-9.62782
▁quien	-9.62868
▁nunca	-9.62928
▁nuevos	-9.62952
▁uso	-9.62961
▁betan	-9.62998
mediante	-9.63052
▁mar	-9.63068
▁Madam	-9.63076
▁services	-9.63115
▁require	-9.6329
▁masehualme	-9.63332
▁segundo	-9.63442
▁omo	-9.63644
tsita	-9.63709
▁buena	-9.63737
▁resolution	-9.63784
▁She	-9.63835
▁heart	-9.63838
▁xo	-9.63866
▁aim	-9.63969
▁enmiendas	-9.64014
▁watakuna	-9.64066
▁agua	-9.64074
▁casi	-9.64103
▁warmi	-9.64168
▁Presidencia	-9.64179
ï	-9.64184
▁aplicación	-9.64208
▁proyecto	-9.64259
▁crecimiento	-9.64314
▁nuclear	-9.64467
▁propuestas	-9.64477
▁nisqaqa	-9.64496
paye	-9.64511
▁difícil	-9.6453
▁puesto	-9.64662
▁Bo	-9.64694
▁Ro	-9.64701
▁posición	-9.64711
B	-9.64812
dies	-9.64868
▁libro	-9.64954
▁Treaty	-9.64973
aya	-9.65038
▁study	-9.65057
▁Presidenta	-9.65161
▁difficult	-9.65181
▁debido	-9.65354
▁strong	-9.65356
▁post	-9.65465
▁Señora	-9.65503
▁growth	-9.65544
▁hard	-9.65556
▁quienes	-9.65676
tl	-9.65731
ur	-9.6574
▁estoy	-9.65827
▁hingu	-9.65829
▁All	-9.65836
▁tras	-9.65847
▁away	-9.65912
▁current	-9.65936
cua	-9.66069
▁past	-9.66189
▁achieve	-9.66214
▁quisiera	-9.66219
during	-9.66269
▁Hu	-9.66302
▁ītōcā	-9.66339
▁rules	-9.66362
▁taking	-9.66398
llo	-9.66431
▁talk	-9.66454
▁sociedad	-9.66477
▁Now	-9.66483
yta	-9.66494
▁dá	-9.66554
▁mbo	-9.66557
▁productos	-9.66579
ngún	-9.66774
kan	-9.66826
nku	-9.66914
▁act	-9.67072
▁tomar	-9.67092
▁cause	-9.67192
▁opportunity	-9.67224
▁tell	-9.6728
naca	-9.67283
▁ani	-9.67298
▁discuss	-9.67325
▁ñiqin	-9.67393
ismo	-9.67492
▁anti	-9.67503
▁ve	-9.67505
▁recursos	-9.67558
▁Da	-9.67564
▁welcome	-9.67631
▁hinaspa	-9.67639
▁forward	-9.6764
▁existe	-9.67645
mala	-9.67654
▁deal	-9.67674
▁spirit	-9.67789
▁políticos	-9.67931
▁hi	-9.68022
▁Vi	-9.68149
▁padres	-9.68159
▁attention	-9.68212
yaya	-9.68229
▁efecto	-9.68273
▁Tla	-9.68301
rak	-9.68323
▁investigación	-9.68357
▁texto	-9.68396
▁Chay	-9.68428
▁greater	-9.68541
▁espíritu	-9.68546
lia	-9.68548
▁jake	-9.68556
▁chupe	-9.68607
▁pu	-9.68618
▁oportunidad	-9.68761
ido	-9.68816
up	-9.68881
G	-9.68939
ˈ	-9.68995
▁State	-9.69075
▁ndunthi	-9.69093
▁xem	-9.69122
▁jonibo	-9.69176
▁ayudar	-9.69186
▁cabo	-9.69231
▁uñj	-9.69245
▁days	-9.69281
▁2000	-9.69283
▁Jesoshi	-9.69287
▁ustedes	-9.6931
yøt	-9.69367
▁yuri	-9.69397
ina	-9.69422
ü	-9.69495
rika	-9.69624
▁Auh	-9.69653
▁Tierra	-9.69677
▁objetivos	-9.6969
ala	-9.69768
▁pueda	-9.69826
ati	-9.69868
unque	-9.70074
▁experience	-9.70106
▁read	-9.70306
▁importantes	-9.70327
▁sat	-9.70349
▁valor	-9.70356
▁Je	-9.70384
▁institutions	-9.70448
▁autoridades	-9.70461
▁Global	-9.70476
era	-9.70513
añ	-9.70569
▁ciudad	-9.70589
▁crear	-9.70595
half	-9.70641
▁noya	-9.70646
bé	-9.70656
▁car	-9.70672
▁period	-9.70703
▁ora	-9.70717
▁economy	-9.70731
▁form	-9.70857
way	-9.70904
cia	-9.70929
▁mind	-9.71069
▁shu	-9.71112
▁ñies	-9.7113
▁lado	-9.71146
▁concerned	-9.71254
▁poner	-9.71256
▁oqui	-9.71291
▁programme	-9.71296
▁inin	-9.7131
▁instituciones	-9.71311
▁van	-9.71318
gu	-9.71365
ampi	-9.71406
▁produce	-9.71522
▁erë	-9.71532
▁society	-9.71687
▁auh	-9.71698
▁Group	-9.71779
ñembabi	-9.71786
sen	-9.71918
M	-9.72167
▁major	-9.72214
▁favour	-9.72257
▁Egipto	-9.72342
adas	-9.72375
haps	-9.72443
▁diferentes	-9.72633
nki	-9.72641
▁supuesto	-9.72667
▁dado	-9.72704
▁Kingdom	-9.72708
ían	-9.72773
▁living	-9.72785
▁nem	-9.72827
▁ninguna	-9.72836
ní	-9.72926
▁conditions	-9.72945
▁third	-9.72949
▁thuhu	-9.73007
▁jaré	-9.73111
▁nija	-9.73153
ena	-9.73167
▁plazo	-9.73167
den	-9.7328
▁siendo	-9.73357
▁bake	-9.73476
▁José	-9.73555
▁saber	-9.73558
▁nacional	-9.73567
ver	-9.73666
▁Internet	-9.73666
▁price	-9.7376
▁público	-9.7398
▁presupuesto	-9.74082
▁Alué	-9.74101
tari	-9.74173
nqa	-9.74263
▁causa	-9.74344
ote	-9.74411
▁alguna	-9.74491
con	-9.74533
▁amendments	-9.74539
▁recent	-9.74559
iyari	-9.74775
▁India	-9.74826
▁H	-9.74945
▁X	-9.74953
▁iti	-9.7503
um	-9.75042
ble	-9.75209
▁implement	-9.75232
▁transport	-9.75301
▁pë	-9.75338
▁sociales	-9.75389
each	-9.75432
▁sure	-9.75469
ak	-9.75473
▁presente	-9.75632
▁initiative	-9.75683
▁pɛ	-9.75858
endo	-9.7589
▁jakon	-9.75896
íchali	-9.75908
▁llaqtapi	-9.75958
D	-9.76007
▁demás	-9.76105
▁Mik	-9.76118
▁authorities	-9.76176
▁Bi	-9.76275
kame	-9.76298
rin	-9.76329
▁población	-9.76403
▁effective	-9.76419
▁left	-9.76455
▁sub	-9.76455
iwa	-9.7648
▁né	-9.76491
▁único	-9.76556
▁proposals	-9.76579
▁región	-9.7665
▁regional	-9.76653
▁Some	-9.76702
▁practice	-9.76775
tor	-9.76854
▁Eta	-9.77133
▁protect	-9.77146
▁#	-9.77149
éva	-9.77234
ek	-9.77269
▁oyérame	-9.77328
▁uché	-9.77529
▁lead	-9.77589
▁mal	-9.77601
▁individual	-9.77607
▁decisiones	-9.77633
▁similar	-9.7766
▁dega	-9.77723
▁según	-9.77743
oqui	-9.77773
▁took	-9.77887
▁framework	-9.77916
▁Why	-9.77956
▁acción	-9.77987
F	-9.77999
▁freedom	-9.78005
cal	-9.78057
▁transporte	-9.78114
▁following	-9.78218
▁Ku	-9.78342
▁Iro	-9.78465
▁represent	-9.78473
non	-9.78571
▁heta	-9.78575
▁short	-9.78689
▁nato	-9.78724
▁resources	-9.78767
tia	-9.78852
▁50	-9.78863
▁calidad	-9.78952
ima	-9.79086
▁wi	-9.79113
▁tech	-9.79177
mati	-9.79292
▁siguiente	-9.79312
▁principle	-9.79312
▁research	-9.7932
▁care	-9.79336
ihʉ	-9.794
ap	-9.79407
▁necesita	-9.79454
▁normal	-9.79524
▁demasiado	-9.7957
▁face	-9.79586
▁Moisés	-9.79602
▁competencia	-9.79633
▁amor	-9.79748
▁sulu	-9.79864
nik	-9.79899
▁share	-9.799
▁éxito	-9.79944
▁regá	-9.80022
▁thoki	-9.80077
▁jaskara	-9.80103
▁enough	-9.80161
▁relaciones	-9.8024
▁simply	-9.80319
▁tierra	-9.8034
▁Huajca	-9.80398
▁single	-9.80431
▁kuéra	-9.80451
▁democracia	-9.80466
▁partes	-9.8051
▁obra	-9.80518
▁hoki	-9.80647
▁Final	-9.80755
▁central	-9.80794
▁mantener	-9.80798
aba	-9.80814
▁aca	-9.80847
▁meses	-9.8099
▁legislation	-9.81013
▁mep	-9.81047
▁members	-9.81054
▁19	-9.81074
▁Let	-9.81176
▁needed	-9.81248
▁truth	-9.81279
▁creación	-9.81353
▁mean	-9.81364
▁move	-9.81366
▁ambiente	-9.81492
▁mejorar	-9.81509
▁camino	-9.81519
▁legislación	-9.81552
▁prevent	-9.81596
▁palabra	-9.81654
▁clearly	-9.81662
▁Chi	-9.81676
ance	-9.81686
naka	-9.81694
▁ketsutsi	-9.81715
▁gá	-9.81734
▁igual	-9.81738
N	-9.8174
▁involved	-9.81768
▁verdadera	-9.81783
▁esas	-9.81869
lé	-9.81906
▁llevar	-9.81946
▁V	-9.81988
tra	-9.81992
tos	-9.82051
à	-9.82079
▁inter	-9.8217
▁rehe	-9.82179
▁World	-9.82194
tke	-9.82317
▁ever	-9.82321
tero	-9.8235
ven	-9.82378
▁efforts	-9.82428
▁sean	-9.82481
kaku	-9.82506
▁estrategia	-9.82659
▁access	-9.82669
Paita	-9.82685
▁evitar	-9.82723
▁Li	-9.82756
▁animal	-9.82798
▁II	-9.82911
pá	-9.82921
î	-9.82959
▁paso	-9.83028
▁Ga	-9.83051
▁various	-9.83064
▁jatian	-9.83091
▁jain	-9.83096
com	-9.8316
▁Mar	-9.83162
▁essential	-9.83227
ix	-9.83276
▁policies	-9.8339
▁light	-9.83396
▁Rusia	-9.83456
▁además	-9.83471
▁play	-9.83604
▁compromiso	-9.83661
▁jaton	-9.83797
▁saying	-9.83825
▁Cámara	-9.83942
▁until	-9.83992
▁21	-9.84005
▁Christians	-9.84022
rë	-9.84079
▁mp	-9.84079
▁dejar	-9.84087
▁r	-9.84101
ion	-9.84168
pee	-9.84194
▁special	-9.8422
▁responsibility	-9.84229
▁service	-9.84231
▁trabajadores	-9.84329
▁house	-9.84398
▁ia	-9.84426
▁states	-9.84552
nko	-9.84563
▁principios	-9.84568
▁económico	-9.84582
▁asked	-9.84588
▁rate	-9.84644
▁ára	-9.84663
▁ihuan	-9.84664
tó	-9.84745
▁importance	-9.84769
▁kiè	-9.8478
▁Aisati	-9.84807
▁impoiji	-9.84828
▁cantidad	-9.84958
▁nuna	-9.84989
ttsa	-9.85106
▁Derecho	-9.85179
▁uqhamarac	-9.85223
▁simple	-9.85225
qu	-9.85253
▁visit	-9.85276
▁enmienda	-9.85321
▁uru	-9.85439
▁opa	-9.85478
ful	-9.85505
▁conseguir	-9.85533
▁Russia	-9.85563
▁aquello	-9.85639
▁Voices	-9.85699
▁hueyi	-9.85715
▁faith	-9.85754
▁caari	-9.85802
▁jatíbi	-9.85806
▁Ju	-9.85814
▁corazón	-9.85846
▁casos	-9.85859
▁sigue	-9.85885
▁Members	-9.85889
▁shinan	-9.85929
▁luego	-9.85929
▁parents	-9.85944
▁address	-9.85971
sia	-9.86023
▁oca	-9.86234
▁servicio	-9.86282
▁diputados	-9.86345
▁region	-9.86358
▁specific	-9.86361
▁factor	-9.86394
came	-9.86408
▁kani	-9.86414
▁tenido	-9.8651
▁blog	-9.86523
asi	-9.86563
▁nothing	-9.86565
▁text	-9.86612
▁serve	-9.86691
ule	-9.86767
tuvo	-9.86795
▁aká	-9.86824
▁nts	-9.86831
ini	-9.86866
▁encontrar	-9.86983
▁months	-9.87019
▁guarantee	-9.87086
lula	-9.87104
▁force	-9.87184
▁propio	-9.87207
▁speak	-9.87273
▁”,	-9.87447
▁land	-9.87548
rit	-9.87558
▁d	-9.87813
itö	-9.87825
▁risk	-9.87936
▁eköl	-9.87978
ɛdi	-9.88021
kuri	-9.88141
▁discussion	-9.88168
▁questions	-9.88175
tin	-9.88192
▁datos	-9.88215
▁libre	-9.88298
rio	-9.88298
▁presidente	-9.88341
▁última	-9.88342
▁return	-9.88342
▁material	-9.88379
ö	-9.88404
▁tax	-9.8843
▁vital	-9.88437
▁taqi	-9.88447
▁After	-9.88493
▁íyi	-9.88563
▁industry	-9.88578
▁More	-9.88614
▁li	-9.88647
ndi	-9.88683
▁Jatian	-9.88698
▁Xi	-9.88719
▁nápi	-9.88759
kait	-9.88778
▁bá	-9.88836
▁told	-9.88894
▁hing	-9.88901
▁principal	-9.88932
kastilla	-9.88978
▁solución	-9.89057
▁acceso	-9.89073
▁rupi	-9.8921
▁000	-9.89246
▁capacidad	-9.89262
▁positive	-9.89375
▁jakonma	-9.89467
▁frente	-9.89468
▁práctica	-9.89489
bá	-9.89503
▁22	-9.89592
ño	-9.89594
▁Jo	-9.89607
utbi	-9.89634
▁industria	-9.8965
▁grow	-9.89661
ida	-9.89682
▁four	-9.89715
▁democracy	-9.89722
▁wetsa	-9.89724
▁book	-9.8974
▁extreme	-9.89744
▁Africa	-9.89764
▁ulà	-9.89791
aca	-9.89826
tse	-9.89856
▁oĩ	-9.89897
ekue	-9.89903
▁tukuy	-9.8993
è	-9.89932
uni	-9.90019
lú	-9.90021
pari	-9.90028
gó	-9.90049
tri	-9.90088
ì	-9.90154
ber	-9.90169
▁J	-9.90179
▁`	-9.90429
▁resultados	-9.90467
▁tenga	-9.90479
▁employment	-9.90524
tso	-9.90537
▁24	-9.90592
ij	-9.90641
▁safety	-9.90666
▁habʉ	-9.90671
▁environment	-9.90717
▁miembro	-9.9077
▁key	-9.90877
▁interests	-9.9098
▁miyac	-9.91035
▁tlacatl	-9.9105
▁fall	-9.91113
▁semana	-9.91113
▁Asia	-9.91159
ous	-9.91211
▁sense	-9.91225
▁directiva	-9.91229
▁mañana	-9.91232
▁hikuái	-9.91364
pin	-9.91381
▁aumento	-9.91413
tani	-9.91485
ist	-9.91532
▁Abraham	-9.91541
asa	-9.91587
▁cuatro	-9.91653
▁puedo	-9.91653
▁miles	-9.91666
▁tlacame	-9.91681
nda	-9.91694
▁along	-9.91699
▁ira	-9.91707
▁products	-9.91731
▁resulta	-9.91788
ving	-9.91801
yku	-9.9188
ff	-9.92029
▁got	-9.9203
▁escrito	-9.92076
▁city	-9.92101
▁quiere	-9.92154
▁lograr	-9.92297
▁comercio	-9.92342
▁workers	-9.92503
▁esfuerzos	-9.92542
▁tendrá	-9.92562
▁podía	-9.92641
▁queremos	-9.92778
▁thought	-9.92803
▁muestra	-9.92833
▁ji	-9.92929
▁aní	-9.92964
▁strengthen	-9.92981
▁María	-9.93018
▁buen	-9.93068
äwi	-9.93104
▁demand	-9.93109
having	-9.93128
▁hacerlo	-9.93159
wame	-9.93163
▁lot	-9.93213
tica	-9.9325
▁40	-9.93257
▁Ti	-9.93276
rica	-9.93347
▁comunicación	-9.93352
▁longer	-9.9347
▁cuerpo	-9.93574
▁soon	-9.93627
▁strategy	-9.93665
▁later	-9.93749
ine	-9.93916
istas	-9.94108
▁zona	-9.94189
▁certainly	-9.94221
▁hepa	-9.94221
▁negociaciones	-9.9437
▁jaqi	-9.94407
rnos	-9.94425
▁hmända	-9.94438
▁eran	-9.94456
kama	-9.94512
▁yoi	-9.94573
jeita	-9.94641
▁ua	-9.94656
▁ashaninka	-9.94713
▁cost	-9.94816
▁alto	-9.94864
▁elecciones	-9.94893
nan	-9.94937
K	-9.94996
▁population	-9.95006
▁dige	-9.95029
▁cultural	-9.95039
▁varia	-9.95055
▁committee	-9.9517
▁comment	-9.9517
▁oiko	-9.95243
▁yhuan	-9.95333
▁sar	-9.95401
▁Our	-9.95407
▁alguien	-9.9542
▁seek	-9.95426
▁marca	-9.9546
▁Tu	-9.95521
▁nzaya	-9.95533
▁lives	-9.95533
▁line	-9.9567
tal	-9.95673
▁estudio	-9.95682
▁entire	-9.9569
▁several	-9.95716
▁ska	-9.95768
▁watapi	-9.95797
▁school	-9.95807
▁ruwa	-9.95836
▁2010	-9.95888
▁pública	-9.95903
Y	-9.95935
▁dur	-9.9594
niri	-9.95963
▁ven	-9.96065
eron	-9.9608
▁tarde	-9.96127
▁Ri	-9.96175
chá	-9.96278
▁step	-9.96323
mí	-9.96328
▁education	-9.9635
▁mensaje	-9.96372
▁child	-9.96461
▁suwábaga	-9.96468
ntonces	-9.96471
▁allí	-9.96743
▁Hangu	-9.96749
iva	-9.96877
▁John	-9.96902
ntes	-9.9691
▁bri	-9.96915
▁May	-9.96953
▁Cha	-9.96965
▁word	-9.96992
▁justicia	-9.97042
▁lack	-9.97044
▁environmental	-9.97054
▁puedan	-9.97059
▁reñói	-9.97135
▁fight	-9.97207
▁ideas	-9.97235
aye	-9.97375
mar	-9.97413
bora	-9.9743
▁regiones	-9.97448
▁respond	-9.97503
▁ndo	-9.97536
▁período	-9.97604
▁aru	-9.97622
▁intereses	-9.97652
tar	-9.97697
▁companies	-9.97769
mat	-9.97797
▁cosa	-9.9784
▁ndä	-9.9784
▁regulation	-9.98081
▁hacen	-9.98136
▁probable	-9.98178
▁haciendo	-9.98199
▁iriori	-9.98213
▁varios	-9.98319
rro	-9.98361
▁øt	-9.98396
iro	-9.98444
▁went	-9.98446
▁fondos	-9.98483
▁clase	-9.9854
▁queja	-9.98654
▁tó	-9.98754
▁democratic	-9.98759
▁benefit	-9.98819
▁body	-9.98891
mé	-9.98895
▁apoyar	-9.98914
aku	-9.98951
▁pensar	-9.98995
▁edad	-9.98999
▁oncan	-9.99045
▁fa	-9.99063
aron	-9.99071
▁fear	-9.99132
ê	-9.992
▁niuki	-9.99353
▁kametsa	-9.99354
▁algún	-9.99406
dores	-9.99427
▁pé	-9.99481
tua	-9.99485
▁sacerdote	-9.99517
paq	-9.99569
spués	-9.99597
▁business	-9.99614
▁muna	-9.99644
ally	-9.99695
▁anele	-9.99829
▁producción	-9.99864
▁York	-9.9987
▁ellas	-9.9992
▁fully	-9.99921
rqan	-9.99924
kua	-9.9995
▁riesgo	-9.99994
▁learn	-10.0001
▁due	-10.0001
gar	-10.0002
▁First	-10.0005
▁deseo	-10.0006
▁comes	-10.0013
▁ompa	-10.0016
▁groups	-10.0016
▁iniciativa	-10.0016
▁negotiations	-10.0018
▁ché	-10.0019
▁American	-10.0021
▁sexual	-10.0022
tapas	-10.0028
▁nokon	-10.003
▁confianza	-10.0034
▁original	-10.0036
▁Ho	-10.0039
▁wà	-10.0049
`	-10.005
▁article	-10.0051
▁ucatsti	-10.0053
mbo	-10.0058
▁estaban	-10.0058
▁Directiva	-10.0061
▁enter	-10.0078
▁koshi	-10.0083
▁focus	-10.0085
▁heaven	-10.0088
▁100	-10.0089
▁táva	-10.0096
◄	-10.0097
▁meeting	-10.0101
►	-10.0104
toc	-10.0105
nuk	-10.0109
nto	-10.0117
oni	-10.0119
▁field	-10.0127
kanwe	-10.0128
▁violencia	-10.0129
▁Can	-10.0134
▁himself	-10.0139
▁brought	-10.0141
▁pasa	-10.0143
kue	-10.0145
▁atiri	-10.0149
ncia	-10.0159
▁poor	-10.0168
im	-10.0171
▁esperanza	-10.0171
▁chacha	-10.0171
▁voted	-10.0176
▁2008	-10.0181
over	-10.0184
▁makes	-10.0204
▁asuntos	-10.0216
▁conflict	-10.0219
▁using	-10.022
▁sapa	-10.0224
yayaj	-10.0225
▁interior	-10.0236
4	-10.024
ofo	-10.0241
▁red	-10.0243
▁impact	-10.0245
▁aspectos	-10.0251
▁2009	-10.026
▁educación	-10.026
▁news	-10.0262
mpo	-10.0269
▁refiere	-10.0271
▁five	-10.0281
rqa	-10.0288
▁aspect	-10.029
ling	-10.0297
ika	-10.0297
▁investment	-10.0298
▁religious	-10.0301
▁Él	-10.0302
▁Tupã	-10.0311
▁wawa	-10.0312
▁Sra	-10.0314
mbi	-10.0315
squej	-10.0317
ió	-10.0319
▁Son	-10.032
▁points	-10.0323
▁menudo	-10.0324
▁available	-10.0324
▁job	-10.0331
▁Central	-10.0331
▁Presidency	-10.0336
▁reducir	-10.0339
▁meni	-10.0341
▁grupos	-10.0343
▁majority	-10.035
▁quality	-10.0354
▁posibilidad	-10.0368
▁Of	-10.038
ized	-10.0382
▁basic	-10.0394
▁tem	-10.0402
▁echi	-10.0406
▁Ru	-10.0412
̃	-10.0413
▁Per	-10.0414
bires	-10.0423
▁katu	-10.0428
▁buenas	-10.0428
▁xep	-10.0429
▁cinco	-10.0429
aj	-10.0435
▁programas	-10.0436
▁Asunto	-10.0436
▁By	-10.0438
▁contain	-10.044
▁internal	-10.0442
▁cerca	-10.0443
▁visto	-10.0444
▁please	-10.045
▁tté	-10.0457
▁age	-10.0463
▁tratar	-10.0469
▁coming	-10.0471
▁foreign	-10.0472
▁effect	-10.0477
▁tetã	-10.0482
▁Many	-10.0485
▁nuni	-10.0486
▁huel	-10.0488
▁respeto	-10.0489
▁rest	-10.0493
▁congregation	-10.0496
▁commitment	-10.0497
cen	-10.0498
▁standards	-10.0501
L	-10.0503
▁actividades	-10.051
▁explica	-10.0513
▁2011	-10.0515
▁·	-10.0515
▁hoga	-10.052
▁Debe	-10.0527
sion	-10.0528
▁known	-10.0537
sí	-10.0538
▁solution	-10.0545
▁experiencia	-10.0545
▁trabajar	-10.055
ct	-10.0558
ent	-10.0559
nchik	-10.0561
▁according	-10.0561
▁Ki	-10.0565
▁mācuīlpōhual	-10.0565
▁moral	-10.0572
▁fiscal	-10.0576
▁blood	-10.0578
▁Desde	-10.0583
kari	-10.059
▁acciones	-10.0597
▁side	-10.0598
▁W	-10.0598
▁Diossen	-10.0601
▁significant	-10.0609
ete	-10.0612
ante	-10.0612
▁aceptar	-10.0616
▁escala	-10.0616
▁apply	-10.0618
▁encourage	-10.062
▁results	-10.0629
remos	-10.063
1	-10.0632
▁Ke	-10.0637
▁voluntad	-10.0639
▁klö	-10.0644
▁mujer	-10.0652
▁cierta	-10.0657
▁adoptar	-10.0658
▁votación	-10.0658
▁moment	-10.0672
▁única	-10.0673
▁congregación	-10.0673
▁í	-10.0679
tya	-10.068
▁contrario	-10.0681
▁profeta	-10.0691
▁Lu	-10.0691
▁Naciones	-10.0695
▁knowledge	-10.0696
▁data	-10.0698
▁dio	-10.0698
xo	-10.0701
▁gestión	-10.0701
▁2001	-10.0702
kanti	-10.0703
▁military	-10.0703
▁precios	-10.0707
sun	-10.0727
▁Nda	-10.0728
▁Man	-10.073
ue	-10.0738
▁km	-10.0739
ul	-10.0744
▁developing	-10.0745
par	-10.0749
▁thousand	-10.075
▁pudiera	-10.075
▁decisions	-10.0751
▁chur	-10.0752
▁violence	-10.0755
▁history	-10.0758
▁xeik	-10.0759
tiro	-10.0759
▁fuerza	-10.0762
▁procedimiento	-10.0765
▁Go	-10.0769
▁Piruw	-10.0774
mpe	-10.0782
taca	-10.0795
huan	-10.0796
▁inic	-10.0798
rú	-10.0798
▁yö	-10.0803
▁ñì	-10.0816
udi	-10.0818
▁America	-10.082
tí	-10.0821
ké	-10.0822
▁mismos	-10.0824
▁akai	-10.0826
▁creat	-10.0831
▁regions	-10.0834
▁yopa	-10.0835
▁uñt	-10.0836
ngue	-10.084
▁week	-10.0841
▁above	-10.085
llan	-10.0851
▁almost	-10.0853
▁perspectiva	-10.0857
▁General	-10.0863
▁noche	-10.0867
ira	-10.0868
▁preguntas	-10.0873
▁Tribunal	-10.0878
▁cases	-10.0886
ual	-10.0886
▁2007	-10.0889
▁labor	-10.0893
▁rehegua	-10.0893
aki	-10.0893
▁Nacional	-10.0897
min	-10.0897
▁request	-10.0899
▁community	-10.0904
▁Uka	-10.0905
▁reach	-10.0906
aq	-10.0913
nac	-10.0917
▁esté	-10.0924
▁ic	-10.093
▁conjunto	-10.0931
▁mother	-10.0932
▁habría	-10.0934
rusti	-10.0935
▁ist	-10.0938
verything	-10.0938
▁hñu	-10.094
▁padre	-10.0942
kó	-10.0945
simismo	-10.0947
▁23	-10.0947
▁father	-10.0949
▁consumidores	-10.095
▁deberían	-10.0953
▁message	-10.0955
▁considerable	-10.0956
kate	-10.096
▁animales	-10.0965
ivo	-10.0968
ñu	-10.0978
▁ampliación	-10.0979
▁offer	-10.0984
▁Government	-10.0992
▁spiritual	-10.0993
▁necesitamos	-10.0995
▁merik	-10.1002
▁serie	-10.1006
▁junto	-10.1007
giving	-10.101
ise	-10.1013
▁principles	-10.1019
▁wrong	-10.1021
net	-10.1024
▁Even	-10.1025
▁thus	-10.103
▁mil	-10.1031
▁Ar	-10.1037
▁saw	-10.1052
▁g	-10.1052
tak	-10.1054
mon	-10.1058
▁yaya	-10.1064
▁27	-10.1075
chihua	-10.1077
▁Amo	-10.1078
▁hña	-10.1079
▁tengo	-10.1081
yö	-10.1082
▁DE	-10.1087
▁climate	-10.1095
▁enjoy	-10.1098
▁crucial	-10.1101
▁reasons	-10.1101
▁Eso	-10.1114
▁amount	-10.1125
▁propos	-10.1128
▁whom	-10.113
bira	-10.1134
nankupaq	-10.1142
▁yi	-10.115
tequi	-10.1152
H	-10.1153
▁yati	-10.1156
wala	-10.116
▁reforma	-10.1164
▁hubiera	-10.1167
/	-10.1173
▁im	-10.1175
ah	-10.1189
▁nojquiya	-10.119
▁colleague	-10.119
▁Ñi	-10.1195
pacha	-10.12
▁luz	-10.1201
▁gra	-10.1203
▁avoid	-10.1204
▁project	-10.121
▁guasu	-10.1211
▁karqan	-10.1215
▁esposa	-10.1218
▁hijo	-10.1219
▁matters	-10.122
▁pacha	-10.1222
▁writing	-10.1226
▁sent	-10.1227
coming	-10.1229
▁funds	-10.1231
▁dicha	-10.1237
▁limit	-10.1237
▁claim	-10.1238
▁raise	-10.125
▁value	-10.1254
▁representa	-10.1256
abo	-10.1257
▁explain	-10.126
eya	-10.1262
▁uk	-10.1264
▁reports	-10.1264
▁tee	-10.1266
kit	-10.1266
▁cuna	-10.1269
▁relations	-10.1271
▁vivir	-10.1272
shaman	-10.1288
▁quick	-10.129
hápe	-10.1292
▁nila	-10.1296
▁grande	-10.1297
▁multi	-10.1298
▁ejercicio	-10.1302
▁content	-10.1303
bó	-10.1304
▁heard	-10.1305
▁affect	-10.1308
▁2006	-10.1308
▁Niman	-10.1309
▁pasar	-10.131
▁rule	-10.1317
ate	-10.1319
▁began	-10.1326
▁improve	-10.1328
▁aware	-10.1333
turu	-10.134
▁razones	-10.1343
▁kename	-10.1345
▁appropriate	-10.1346
▁ourselves	-10.1346
▁segunda	-10.1346
▁quizás	-10.1346
▁puntos	-10.135
▁xeime	-10.1351
sis	-10.1351
ised	-10.1353
▁oshequi	-10.1354
▁manan	-10.1356
stead	-10.1361
rõ	-10.1362
car	-10.1367
▁everyone	-10.1369
▁record	-10.1371
aw	-10.1374
cer	-10.1374
▁alcanzar	-10.1377
▁gotho	-10.1381
▁ikai	-10.139
▁yoiai	-10.1393
▁mano	-10.1396
per	-10.1398
▁bak	-10.1402
▁stá	-10.1407
▁yanapa	-10.141
sha	-10.1411
▁simplemente	-10.1412
▁ones	-10.1414
▁establish	-10.1415
▁response	-10.1415
▁consecuencias	-10.1417
▁objeto	-10.1421
▁ee	-10.1421
ait	-10.1423
▁responsibl	-10.1423
▁competition	-10.1437
▁early	-10.1438
▁production	-10.1439
▁tij	-10.1444
kiri	-10.1445
▁colegas	-10.1447
▁agenda	-10.1449
▁primero	-10.1454
▁implementation	-10.1456
io	-10.146
cama	-10.1465
▁júkuru	-10.1465
▁Unidas	-10.1466
▁Cor	-10.1467
nanpaq	-10.1467
ces	-10.1468
un	-10.1478
▁Tatitun	-10.1479
▁ichè	-10.148
▁self	-10.1488
▁yacha	-10.1489
▁nadie	-10.1496
▁Then	-10.1497
▁fuerte	-10.1501
▁meet	-10.1501
▁claramente	-10.1505
▁jave	-10.1508
▁2004	-10.1511
▁Roma	-10.1511
▁stop	-10.1514
▁ukatsti	-10.1516
uye	-10.1528
▁santo	-10.1532
▁establecer	-10.1534
▁financiera	-10.1543
tli	-10.1543
she	-10.1543
held	-10.1546
▁2005	-10.1549
▁concerns	-10.155
▁suficiente	-10.1552
▁hermanos	-10.1558
▁relativa	-10.1566
▁totalmente	-10.1568
▁implica	-10.1571
▁success	-10.158
▁ipa	-10.1582
ipa	-10.1582
cion	-10.1584
▁kamachi	-10.1584
▁osheki	-10.1589
▁anile	-10.1601
rã	-10.1607
▁utj	-10.1608
▁aplicar	-10.161
▁comunidad	-10.1618
▁europeas	-10.162
▁pass	-10.1623
▁esencial	-10.1628
▁seguro	-10.1629
erie	-10.163
▁principales	-10.1643
▁thandi	-10.1646
▁promote	-10.165
yi	-10.1663
mai	-10.1663
▁Ex	-10.1673
atä	-10.1674
▁nete	-10.1674
▁bastante	-10.1683
rus	-10.1683
▁proteger	-10.1685
shire	-10.1687
▁presentar	-10.1691
rea	-10.1697
▁Pu	-10.1702
▁conocimiento	-10.1705
▁Turkey	-10.1705
▁pressure	-10.1705
▁Asamblea	-10.1713
▁gave	-10.1714
▁nech	-10.1715
▁considera	-10.1719
▁movement	-10.172
nce	-10.1722
▁Nú	-10.1726
aro	-10.1727
▁grave	-10.1737
tiva	-10.1742
kuq	-10.1744
▁ŕa	-10.1767
▁ttö	-10.1771
▁1999	-10.1774
▁conduct	-10.1776
ñena	-10.1776
▁jobs	-10.1779
▁police	-10.1789
▁ukat	-10.1791
▁purpose	-10.1798
▁oguereko	-10.1801
▁consecuencia	-10.1801
▁zo	-10.1802
▁activities	-10.1802
▁language	-10.1816
pon	-10.182
▁billion	-10.182
▁context	-10.1824
▁fácil	-10.1826
▁extend	-10.1828
▁procedure	-10.183
lti	-10.1831
ones	-10.1839
▁bad	-10.184
▁mun	-10.1845
▁yë	-10.1856
by	-10.1881
▁half	-10.1885
▁runakuna	-10.1888
▁apo	-10.189
▁xki	-10.1892
▁militar	-10.1894
▁ways	-10.1895
▁dios	-10.1901
▁mercados	-10.1905
▁nga	-10.1908
lthough	-10.1912
▁Fa	-10.1921
▁tewi	-10.1925
▁diálogo	-10.1933
▁across	-10.1933
kanai	-10.1938
kö	-10.194
▁sé	-10.1941
tjja	-10.1945
▁entender	-10.1945
taki	-10.1946
▁Reglamento	-10.1948
▁South	-10.1948
▁fellow	-10.1948
▁list	-10.1951
nakax	-10.1959
ntin	-10.196
bai	-10.1965
bitu	-10.1969
▁reunión	-10.1971
aje	-10.1972
▁campo	-10.1977
â	-10.1978
▁ulitane	-10.1981
▁hueli	-10.1982
▁gas	-10.1984
▁UN	-10.1988
▁reduce	-10.1988
land	-10.1992
▁balance	-10.1993
▁iba	-10.1993
▁régimen	-10.1997
▁madre	-10.2004
ías	-10.2006
▁Quier	-10.2008
▁sébali	-10.2009
▁mira	-10.2018
."	-10.2019
▁horas	-10.202
▁hai	-10.2021
▁niko	-10.2024
rootaque	-10.2027
▁euros	-10.2027
mb	-10.203
▁Court	-10.203
▁nations	-10.2035
bʉi	-10.2036
▁necesaria	-10.2036
▁hold	-10.2037
▁gain	-10.2048
cor	-10.2051
▁Pro	-10.2053
änwa	-10.2053
▁dä	-10.2064
▁naciones	-10.2076
▁jena	-10.2077
▁motivo	-10.2078
▁2002	-10.2084
▁Turquía	-10.2089
▁oc	-10.2092
▁received	-10.2092
▁met	-10.2093
age	-10.2094
cio	-10.2095
▁carrie	-10.2099
ac	-10.2101
fo	-10.2102
▁Or	-10.2115
▁thogi	-10.2122
▁dra	-10.2124
▁describe	-10.2125
▁Según	-10.2131
▁tho	-10.2132
▁Qui	-10.2135
raë	-10.2136
▁excelente	-10.2137
▁criterio	-10.214
ización	-10.2161
▁indica	-10.2166
aña	-10.2172
▁África	-10.2172
▁wrote	-10.2175
ché	-10.2177
mʉi	-10.2184
pro	-10.2189
▁gi	-10.2189
▁hñä	-10.2192
▁votado	-10.2195
▁ramo	-10.2195
▁air	-10.2196
▁alarigá	-10.2198
▁auto	-10.22
▁nor	-10.2201
▁Diosta	-10.2203
▁línea	-10.2206
ntho	-10.2215
ster	-10.2218
▁internacionales	-10.2224
▁quién	-10.2225
▁yvy	-10.2228
▁either	-10.223
▁quej	-10.2232
▁simipi	-10.2242
▁anything	-10.2244
▁religion	-10.2249
▁omano	-10.2251
▁woman	-10.2252
▁Jaskara	-10.2253
▁jak	-10.2255
▁propósito	-10.2259
▁vino	-10.2261
▁Tho	-10.2261
▁Estoy	-10.2264
▁contexto	-10.227
▁porã	-10.2274
▁cumplir	-10.2274
▁2003	-10.2275
▁reading	-10.2279
▁Iraq	-10.2279
▁eficaz	-10.2281
miki	-10.2283
▁Kë	-10.2286
▁westíora	-10.2287
▁runa	-10.2291
▁mé	-10.2292
▁draft	-10.2292
▁War	-10.2296
▁table	-10.2297
▁listen	-10.2306
▁moki	-10.2314
▁huelis	-10.2317
ashi	-10.232
▁ndive	-10.232
▁regular	-10.2321
▁tú	-10.2322
▁cuales	-10.2326
▁outside	-10.2326
▁valores	-10.2328
▁ban	-10.2333
▁(19	-10.2338
▁meeca	-10.2342
▁utilizar	-10.2344
▁iu	-10.2354
▁zonas	-10.2356
listli	-10.2358
▁Zidada	-10.2361
ieron	-10.2363
▁currently	-10.2367
▁Tal	-10.2371
▁ap	-10.2376
ec	-10.2377
▁prueba	-10.2377
▁changes	-10.2377
▁head	-10.2378
rie	-10.238
▁kaq	-10.2386
▁chu	-10.2386
▁Judá	-10.2387
▁applie	-10.2389
▁jú	-10.2389
kunaqa	-10.2389
▁decided	-10.2392
▁solamente	-10.2393
▁meka	-10.24
▁recently	-10.2401
▁Che	-10.2402
rentsi	-10.2404
▁considerar	-10.2405
▁percent	-10.2413
▁Puede	-10.2413
fu	-10.2423
▁organización	-10.2434
▁remember	-10.2436
▁doubt	-10.2437
▁big	-10.2439
▁comisión	-10.244
▁trans	-10.2446
▁juicio	-10.2447
▁Affairs	-10.2448
▁acuerdos	-10.245
▁ciento	-10.2451
▁Todos	-10.2454
▁potential	-10.2454
▁policía	-10.2455
▁Pre	-10.2455
▁six	-10.2461
niki	-10.2468
▁señal	-10.2469
▁popular	-10.2472
▁Ariorica	-10.2475
▁proyectos	-10.248
tro	-10.2482
▁mfeni	-10.2483
nchis	-10.2483
rra	-10.2491
jtoc	-10.2493
▁fundamentales	-10.2499
▁Yet	-10.25
▁Since	-10.2501
▁fo	-10.2503
▁oil	-10.2506
▁espacio	-10.2509
ù	-10.2511
tz	-10.2514
▁f	-10.2519
▁parties	-10.252
▁joven	-10.2524
tini	-10.2528
▁sound	-10.2532
▁yësyësë	-10.2544
▁combat	-10.2545
hni	-10.2548
▁kopí	-10.2552
▁dirección	-10.2557
▁leave	-10.2559
▁gamfri	-10.257
▁miti	-10.2571
▁Jan	-10.2572
▁par	-10.2572
▁agricultural	-10.2582
▁cambiar	-10.2583
▁gotyo	-10.2593
▁mete	-10.2593
led	-10.2597
▁realizado	-10.2597
▁criminal	-10.2597
▁60	-10.2604
▁mayni	-10.2605
▁método	-10.261
▁industrial	-10.2614
wak	-10.2623
▁financiación	-10.2626
▁enfoque	-10.2628
▁amplia	-10.2629
▁nin	-10.2631
▁goal	-10.2637
▁ombo	-10.2638
▁resolver	-10.2648
▁Lisboa	-10.265
tza	-10.2651
▁ijch	-10.2657
▁reflect	-10.2661
der	-10.2665
▁systems	-10.2665
▁judiowak	-10.2666
quiera	-10.2668
▁document	-10.2668
00	-10.267
▁guive	-10.2675
▁permitir	-10.2675
",	-10.2676
▁Francia	-10.2679
▁contribution	-10.2679
▁jawéki	-10.268
▁Fondo	-10.2686
▁llegado	-10.2689
napaq	-10.269
▁uma	-10.269
▁join	-10.2692
▁ichaqa	-10.2694
▁chachan	-10.2695
▁provid	-10.2699
▁killapi	-10.2703
▁France	-10.2704
▁kua	-10.2719
▁develop	-10.2726
▁Dr	-10.2726
▁sta	-10.2727
gen	-10.2737
▁resto	-10.2738
ren	-10.2741
ner	-10.2749
▁requirement	-10.2751
▁sign	-10.2756
▁wakpa	-10.2761
▁itoca	-10.2767
▁sangre	-10.2771
▁iri	-10.2776
▁His	-10.2782
▁peligro	-10.2786
▁kawsa	-10.2786
anta	-10.2786
▁Ama	-10.2796
ez	-10.2801
▁Nos	-10.2801
▁lleva	-10.2805
▁persons	-10.2806
▁maroni	-10.2808
term	-10.281
ated	-10.2811
▁mere	-10.2813
riya	-10.2819
▁wák	-10.282
▁pashini	-10.2823
J	-10.2824
▁effort	-10.2826
▁Twitter	-10.2827
▁28	-10.2828
▁leaders	-10.2828
ayumieme	-10.283
▁difference	-10.2833
▁participación	-10.2836
kani	-10.2838
▁ximhai	-10.284
▁markets	-10.2841
▁quen	-10.2857
▁chura	-10.2859
ario	-10.2869
▁Because	-10.2869
▁actualmente	-10.2874
▁ukuö	-10.2875
▁sh	-10.2875
20	-10.2876
▁hawa	-10.2877
▁run	-10.2886
▁Neka	-10.2888
oma	-10.2894
▁usar	-10.2895
nú	-10.2897
▁enorme	-10.2898
▁Bar	-10.2904
▁consiguiente	-10.2904
▁costs	-10.291
▁katt	-10.2917
body	-10.2918
▁dialogue	-10.2927
▁maintain	-10.2929
ura	-10.2931
▁wife	-10.2934
▁continu	-10.2936
▁uñnaqa	-10.2937
▁llamado	-10.294
raqui	-10.2942
▁behind	-10.2943
▁speech	-10.2946
▁kepa	-10.2951
▁EUR	-10.2955
mia	-10.2956
▁volver	-10.2957
▁model	-10.2958
lin	-10.2958
▁While	-10.2958
▁intend	-10.2959
ze	-10.296
ica	-10.2965
▁sistemas	-10.2966
▁Uca	-10.2978
▁Mundial	-10.2979
▁diferencia	-10.298
▁jene	-10.2981
▁stand	-10.2981
lime	-10.2989
▁térã	-10.2989
▁existen	-10.2991
▁expresar	-10.2994
▁acaba	-10.3002
▁receive	-10.3008
V	-10.3017
▁compromise	-10.3018
gan	-10.302
lle	-10.3024
▁Amendment	-10.3024
▁Skëkëpa	-10.3024
▁já	-10.303
ol	-10.3031
▁French	-10.3034
yol	-10.3041
ā	-10.3045
▁sabemos	-10.3052
▁lista	-10.3056
ip	-10.3059
▁apóstol	-10.3061
nder	-10.3065
▁cristiano	-10.3066
▁siglo	-10.3069
▁cal	-10.3071
▁humanidad	-10.3073
▁términos	-10.3076
hma	-10.3082
▁sabe	-10.3084
▁suggest	-10.3084
▁Lisbon	-10.3086
▁happy	-10.309
▁referencia	-10.309
▁Hoy	-10.3096
▁tep	-10.31
mina	-10.3103
▁tukari	-10.3108
▁yunait	-10.3113
take	-10.3114
▁Que	-10.3117
▁aña	-10.3118
▁amenaza	-10.312
▁oi	-10.3121
▁cambios	-10.3122
▁creation	-10.3125
▁low	-10.3126
▁hear	-10.3127
▁expect	-10.3127
▁jawékibo	-10.3128
pt	-10.3134
▁spend	-10.3135
▁Alemania	-10.3135
▁addition	-10.3136
xeiya	-10.3136
▁recordar	-10.3138
▁presentado	-10.314
▁víctimas	-10.3148
▁Article	-10.3149
▁culture	-10.3149
▁organizaciones	-10.3149
▁carga	-10.3151
▁alà	-10.3152
▁attempt	-10.3152
▁People	-10.3155
▁pem	-10.316
▁xobo	-10.316
▁majua	-10.3161
▁miki	-10.3162
▁meran	-10.3164
kat	-10.3164
▁draw	-10.3166
quej	-10.3171
▁fund	-10.3186
▁pin	-10.3191
▁bakebo	-10.3194
▁israelita	-10.3198
▁Today	-10.32
▁Diosan	-10.32
▁realizar	-10.3208
▁itech	-10.3212
R	-10.3212
▁ikanta	-10.3213
▁seis	-10.3213
▁ú	-10.3214
▁República	-10.3215
▁xewit	-10.3219
▁declaración	-10.3219
▁diossen	-10.3219
▁humana	-10.3221
▁someone	-10.3226
▁amendment	-10.3228
apo	-10.3229
▁mayores	-10.323
▁East	-10.3232
▁pronto	-10.3233
▁Minister	-10.3234
▁2012	-10.3235
▁fair	-10.3242
▁hospital	-10.3243
▁Mary	-10.3244
▁tlamantli	-10.3245
▁Napu	-10.3251
ín	-10.3251
▁pure	-10.3253
▁thinking	-10.3254
▁road	-10.3263
▁private	-10.327
wè	-10.3274
▁beneficios	-10.3283
▁send	-10.3287
aco	-10.329
felt	-10.3296
ō	-10.33
▁progreso	-10.3301
▁Esukristo	-10.3312
uwa	-10.3314
▁yejhua	-10.3315
catl	-10.3315
hual	-10.3321
met	-10.3329
▁kikin	-10.3329
▁agreements	-10.3337
▁complete	-10.3348
▁propose	-10.335
▁fuerzas	-10.3356
▁nature	-10.3358
▁suffer	-10.3362
▁Tatitu	-10.3364
▁Más	-10.3372
arie	-10.3375
▁programmes	-10.3381
▁events	-10.3382
▁According	-10.3382
ori	-10.3385
▁mahtlācxihuitl	-10.3386
▁xeme	-10.3386
▁siné	-10.3387
▁pobreza	-10.3393
izar	-10.3396
▁sum	-10.34
▁26	-10.3401
▁happened	-10.3406
▁former	-10.3411
▁quipiya	-10.3416
▁yatiy	-10.3426
▁obvious	-10.3427
▁sonqo	-10.3428
▁peteî	-10.3433
▁art	-10.3433
▁Paraguay	-10.3437
▁enlargement	-10.3437
▁Word	-10.344
▁*	-10.3457
▁modern	-10.3459
▁Ch	-10.3461
▁Cu	-10.3463
▁propios	-10.3465
▁piensa	-10.3471
▁management	-10.3473
▁constituye	-10.3475
▁ipo	-10.3477
▁poverty	-10.3477
▁relationship	-10.3483
amp	-10.3484
cent	-10.3488
▁alta	-10.349
▁cuál	-10.3492
▁dead	-10.3492
▁Diosqa	-10.3493
▁Durante	-10.3495
▁aquel	-10.3501
lía	-10.3502
pat	-10.3503
▁stage	-10.3504
uku	-10.3507
▁Santa	-10.3507
▁building	-10.3512
rux	-10.3519
▁yc	-10.3519
▁empezar	-10.3522
▁relat	-10.3525
achi	-10.3531
▁element	-10.3538
▁Kosovo	-10.3539
▁exterior	-10.3544
▁konge	-10.3549
▁espiritual	-10.3552
,000	-10.3555
▁esfuerzo	-10.3556
kuni	-10.3565
▁Partido	-10.3573
▁ejati	-10.3575
▁karqa	-10.3576
▁ypan	-10.3579
▁appear	-10.358
▁suyupi	-10.3582
▁kuna	-10.3586
▁escribió	-10.3591
▁Car	-10.3592
▁papa	-10.3592
▁tsu	-10.3593
▁Comunidad	-10.3599
▁somos	-10.3603
▁Tene	-10.3606
newa	-10.3608
▁obtener	-10.3609
▁habla	-10.3611
▁anqui	-10.3615
▁armas	-10.3616
▁talking	-10.3618
▁Impoiji	-10.3625
▁aumentar	-10.3626
time	-10.363
nman	-10.3632
▁publish	-10.3637
sano	-10.3637
▁nepa	-10.3639
▁hinte	-10.3641
▁elections	-10.3641
ughter	-10.3641
▁uta	-10.3644
▁participar	-10.3645
gr	-10.3646
▁Alguno	-10.3653
▁adhesión	-10.3656
▁dificultades	-10.3657
▁Germany	-10.366
tö	-10.3662
▁nican	-10.3662
▁asegurar	-10.3671
▁vaekue	-10.3672
nic	-10.3673
▁habrá	-10.3677
▁Bu	-10.3677
▁religión	-10.368
▁kí	-10.3681
▁gobiernos	-10.3684
▁necesidades	-10.3687
▁bueno	-10.3689
▁reglamento	-10.3701
▁desarrollar	-10.3701
▁actions	-10.3702
▁reject	-10.3705
▁inqui	-10.3711
tur	-10.3718
▁iña	-10.372
▁jainoax	-10.372
▁reino	-10.3728
niwa	-10.3728
▁Nehe	-10.3734
bɛh	-10.3734
yamai	-10.3735
yan	-10.3738
▁jäi	-10.3741
▁espero	-10.3741
köl	-10.3744
llu	-10.3748
▁page	-10.3749
▁Palabra	-10.375
pó	-10.375
▁j	-10.3754
▁esperar	-10.3757
▁Although	-10.3761
▁prove	-10.3761
▁build	-10.3763
▁jero	-10.3763
▁monequi	-10.3768
▁alone	-10.3774
▁sal	-10.3775
▁direction	-10.3783
▁aspecto	-10.3785
▁night	-10.3786
yaj	-10.3789
▁modelo	-10.379
arse	-10.3795
▁toma	-10.3798
ple	-10.3799
▁values	-10.3801
via	-10.3802
▁oro	-10.3805
▁onan	-10.3808
▁projects	-10.3809
▁Second	-10.3813
▁African	-10.382
imos	-10.382
▁actitud	-10.3823
▁suluë	-10.3826
▁marcha	-10.3828
▁puri	-10.3829
▁imayna	-10.3829
▁trust	-10.3835
mic	-10.3835
▁intervención	-10.3835
▁fi	-10.3836
▁actividad	-10.3837
▁friends	-10.3838
ándose	-10.3843
▁efectos	-10.3844
▁Hemos	-10.3845
▁reducción	-10.3852
▁naime	-10.3852
zar	-10.3852
ilhui	-10.3853
▁From	-10.3856
▁evidence	-10.3859
ñøhø	-10.3863
liz	-10.3865
▁shows	-10.3867
Ma	-10.3868
▁sort	-10.3872
nakan	-10.3874
▁aprobación	-10.3874
▁manam	-10.3877
▁reko	-10.388
ex	-10.3883
▁$	-10.3884
▁escuela	-10.3884
▁Comisaria	-10.3884
▁influence	-10.3889
▁rawé	-10.389
▁España	-10.3891
▁Nueva	-10.3892
▁worship	-10.3892
▁ocasión	-10.3895
▁cuyo	-10.391
▁ä	-10.3914
wit	-10.3918
▁tercer	-10.3919
▁Chaymi	-10.392
▁treatment	-10.3922
▁chí	-10.3924
▁training	-10.3927
▁kepaukua	-10.3937
Ja	-10.3938
▁dë	-10.3944
▁exact	-10.3947
▁presión	-10.3949
▁looking	-10.395
rqanku	-10.395
▁jainxon	-10.3951
úva	-10.3954
▁color	-10.3958
nacajj	-10.3959
kunapi	-10.3961
▁Ji	-10.3968
▁servir	-10.3984
▁29	-10.3984
▁regime	-10.3984
10	-10.3992
▁tru	-10.3992
sco	-10.3993
ral	-10.3996
tatsiri	-10.4
▁campaña	-10.4005
▁amigos	-10.4008
▁recibir	-10.4014
▁statement	-10.4019
▁bö	-10.4021
▁consumers	-10.4022
▁absolute	-10.4023
tuabi	-10.4026
▁okanta	-10.4027
kay	-10.4027
▁verdadero	-10.4029
mej	-10.403
▁consequences	-10.4034
▁Mu	-10.4036
▁office	-10.404
cy	-10.4045
▁increasing	-10.4047
tian	-10.4049
ibo	-10.4055
▁enable	-10.4057
▁Eiro	-10.4057
▁nxadi	-10.4062
▁ikaxbi	-10.4063
kaya	-10.4066
▁Hi	-10.407
▁contribute	-10.4072
pero	-10.4073
▁jac	-10.4076
▁hanja	-10.4077
▁nge	-10.4085
▁technology	-10.4085
▁ikax	-10.4089
▁beginning	-10.4089
▁rise	-10.4089
raq	-10.409
vis	-10.4099
▁Sal	-10.4111
▁Ge	-10.4118
▁manos	-10.4122
▁communication	-10.4123
▁fire	-10.4127
▁attitude	-10.4132
▁ikatu	-10.4134
W	-10.4136
▁ija	-10.4136
xcá	-10.4136
ajj	-10.4139
▁té	-10.4147
tawa	-10.4148
▁70	-10.4149
▁Esper	-10.4151
▁Ministro	-10.4156
kuö	-10.4159
xie	-10.4162
▁justice	-10.4166
mela	-10.4172
anik	-10.4173
▁paita	-10.4179
▁direct	-10.419
nata	-10.4193
▁kame	-10.4194
mate	-10.4201
▁igualdad	-10.4205
eapohára	-10.4206
▁jut	-10.4206
head	-10.4216
▁allá	-10.4219
▁teipa	-10.422
▁ŕe	-10.4221
▁aprender	-10.4223
nyone	-10.4223
eve	-10.4223
▁permite	-10.4224
jquej	-10.4225
▁stress	-10.4225
cta	-10.4229
▁Facebook	-10.4231
▁Rights	-10.4239
▁propone	-10.4243
▁iketian	-10.4243
ime	-10.4246
twa	-10.4248
▁pequeñas	-10.4249
já	-10.4251
▁yëkkuö	-10.4256
▁dólares	-10.4257
véva	-10.4257
▁rural	-10.4261
▁web	-10.4262
▁votar	-10.4263
atsi	-10.4264
▁cross	-10.4269
▁sequinoc	-10.4269
▁deliver	-10.427
▁clara	-10.427
▁mucha	-10.4274
▁decide	-10.4274
ñemano	-10.4274
▁threat	-10.4275
ler	-10.4275
▁diferente	-10.4275
▁rä	-10.4279
▁adelante	-10.4282
▁angel	-10.4285
▁queda	-10.4286
▁Tayta	-10.4292
more	-10.4293
▁empresa	-10.4293
eta	-10.4299
▁templo	-10.4301
▁ttsë	-10.4302
▁completo	-10.4305
▁Ucatsti	-10.4305
▁wëm	-10.4312
▁sitio	-10.4315
▁estabilidad	-10.4316
▁tecnología	-10.4317
▁justo	-10.4323
▁application	-10.4323
áva	-10.433
]	-10.4332
▁asta	-10.4333
▁necesitan	-10.4336
▁structure	-10.4338
▁grado	-10.4339
▁katli	-10.434
▁quiijto	-10.4342
▁crime	-10.4343
▁tawari	-10.4349
▁brothers	-10.4352
▁sur	-10.4355
its	-10.4359
▁mahets	-10.4359
▁reality	-10.4359
▁allinta	-10.4364
▁humano	-10.4365
val	-10.4366
▁centro	-10.4374
▁alimentos	-10.4376
▁visita	-10.4379
▁Tempa	-10.4385
▁hayan	-10.4387
hek	-10.4388
▁ö	-10.4389
aitame	-10.4389
nts	-10.4391
▁Babilonia	-10.4394
▁integración	-10.4394
▁qo	-10.4395
▁mochi	-10.4396
sqan	-10.4397
▁llama	-10.4397
▁fondo	-10.4403
▁mejores	-10.4403
▁extra	-10.4404
▁xodyo	-10.4405
▁Mexico	-10.4413
▁irosati	-10.4413
▁agreed	-10.4416
▁completely	-10.4417
sión	-10.4419
▁relativo	-10.4424
ile	-10.4424
▁pesca	-10.4434
▁actuar	-10.4434
▁excellent	-10.4435
▁defend	-10.4435
ñhʉ	-10.4438
▁Mientra	-10.4439
▁Mekiku	-10.4439
▁hmunts	-10.4439
▁diez	-10.444
▁century	-10.4441
▁Are	-10.4444
▁transparencia	-10.445
sö	-10.4453
▁cultura	-10.446
▁temas	-10.4463
▁finally	-10.4464
▁ground	-10.4467
▁dé	-10.4471
▁piko	-10.4479
30	-10.4481
▁aquella	-10.4484
▁Argentina	-10.4485
▁Ngue	-10.4486
▁happen	-10.4489
nde	-10.4489
▁correct	-10.4491
▁rire	-10.4494
▁pena	-10.4494
noxon	-10.4495
▁haga	-10.4497
▁sostenible	-10.4506
▁error	-10.4506
▁olo	-10.4507
▁practical	-10.4508
apxäna	-10.4509
▁super	-10.4509
jó	-10.4512
▁peru	-10.4512
▁tuku	-10.452
▁Sí	-10.4526
▁hundred	-10.4529
▁jaoka	-10.4529
ũ	-10.4531
chari	-10.4532
▁refer	-10.4537
▁80	-10.4539
ketian	-10.4541
▁near	-10.4543
▁huge	-10.4544
▁nixi	-10.4545
▁EE	-10.4546
▁chiqa	-10.4547
▁kasqanta	-10.4547
▁oká	-10.4548
▁funding	-10.4551
▁clean	-10.4552
▁éste	-10.4553
▁Du	-10.4553
▁saben	-10.4563
tac	-10.4564
▁abandon	-10.4565
ward	-10.4566
ngo	-10.4575
▁ambue	-10.4575
▁memi	-10.458
ky	-10.4581
▁profunda	-10.4582
mby	-10.4587
▁goes	-10.459
▁Thus	-10.4591
▁nisqa	-10.4591
▁tsiere	-10.4593
tapa	-10.4595
▁considered	-10.4597
▁challenge	-10.4598
▁celebra	-10.46
▁hma	-10.4601
▁carta	-10.4601
▁medioambiental	-10.4601
▁oka	-10.4604
▁rura	-10.4606
mili	-10.4607
ente	-10.4617
▁nayra	-10.4618
▁Convention	-10.4624
▁alrededor	-10.4628
▁precisamente	-10.4628
▁Fund	-10.4632
▁hag	-10.4636
vy	-10.4638
kí	-10.4639
dó	-10.4639
ken	-10.4641
▁preciso	-10.4643
ities	-10.4644
▁Distrito	-10.4647
▁respecta	-10.4649
▁approve	-10.4651
▁apostle	-10.4652
▁uch	-10.4653
aqueri	-10.4655
cui	-10.4664
cahua	-10.4668
▁responder	-10.4673
▁developed	-10.4674
▁ná	-10.4677
ntsi	-10.4681
▁confidence	-10.4686
stra	-10.4688
▁patient	-10.4689
▁walja	-10.4693
▁defensa	-10.4695
▁nation	-10.4695
biribi	-10.4696
▁led	-10.4696
▁jawe	-10.4696
tivo	-10.4699
▁waste	-10.4701
▁origen	-10.4709
▁siguen	-10.4711
▁mental	-10.4716
▁priority	-10.4721
taqmi	-10.4723
▁construcción	-10.4724
taque	-10.4731
▁ava	-10.4732
▁2013	-10.4736
▁guehni	-10.4744
▁ofrecer	-10.4753
▁jucha	-10.4756
▁0	-10.4758
tatsi	-10.4759
▁altepetl	-10.476
▁quieren	-10.4763
▁Tetãvore	-10.4763
▁referr	-10.4766
ito	-10.4767
ught	-10.4769
uxa	-10.477
▁presencia	-10.477
▁eyes	-10.4776
▁attend	-10.4778
▁firm	-10.478
▁kuti	-10.4781
▁Kay	-10.4785
▁vamos	-10.4789
▁disease	-10.479
▁Brasil	-10.4794
▁chuyma	-10.4795
tions	-10.4797
▁Who	-10.4807
▁tampoco	-10.4808
▁próxima	-10.4809
riri	-10.481
bí	-10.4816
▁equal	-10.4822
▁International	-10.4825
▁video	-10.4826
▁manq	-10.4827
ability	-10.4828
yself	-10.4829
▁mostrar	-10.4832
▁king	-10.4832
yoq	-10.4834
▁enfermedad	-10.4845
▁formación	-10.4847
▁animals	-10.485
yó	-10.486
▁prepared	-10.486
▁preocupación	-10.4864
▁pobres	-10.4864
▁reached	-10.4866
▁contenido	-10.4868
▁anilime	-10.4869
▁cut	-10.4869
▁Not	-10.487
▁conclude	-10.487
kuy	-10.4871
▁reuniones	-10.4872
▁begin	-10.4874
▁plenamente	-10.4876
▁lugares	-10.4878
yeta	-10.4879
▁abiena	-10.488
▁clave	-10.4882
40	-10.4885
▁hína	-10.4885
▁technical	-10.4888
▁Maria	-10.4889
oso	-10.4893
...	-10.4893
▁ní	-10.4894
▁Ve	-10.4895
▁opportunit	-10.4896
▁conciencia	-10.4896
▁stability	-10.4898
▁oportunidades	-10.4898
▁remind	-10.4902
ué	-10.4903
▁Russian	-10.4904
▁mejora	-10.4905
fer	-10.4909
▁Ce	-10.4914
▁Testigos	-10.4922
liko	-10.4926
▁function	-10.4927
▁31	-10.4929
eka	-10.493
▁abordar	-10.4941
▁inijuanti	-10.4943
wat	-10.4943
▁conflicto	-10.4945
eti	-10.4945
▁satisfacción	-10.4947
▁diciembre	-10.495
▁Social	-10.4955
▁autoridad	-10.4956
▁leer	-10.4958
▁introduce	-10.4959
asti	-10.496
▁produc	-10.4961
▁husband	-10.4962
▁joint	-10.4968
▁revista	-10.4968
Te	-10.4968
▁Catholic	-10.4982
kwa	-10.4987
▁friend	-10.4988
ros	-10.4995
sati	-10.4997
▁German	-10.4999
▁terrorismo	-10.5
▁xei	-10.5001
▁campaign	-10.5006
ritsitu	-10.5009
▁Tetã	-10.5011
ificación	-10.5013
iza	-10.5014
▁orekóva	-10.5014
▁Francisco	-10.5018
▁financieros	-10.5023
▁attack	-10.5023
có	-10.5028
▁bar	-10.5029
▁cree	-10.5033
▁Joapykuéra	-10.5034
sqanta	-10.5035
▁debates	-10.504
mer	-10.5041
▁sustainable	-10.5041
kiti	-10.5044
side	-10.5046
▁fronteras	-10.5047
▁tic	-10.5064
▁Consider	-10.5065
awa	-10.5066
▁Daniel	-10.5066
▁Greek	-10.5066
▁depend	-10.507
rac	-10.5074
▁fine	-10.5077
▁higher	-10.5078
▁iyo	-10.5078
▁male	-10.5079
▁tkö	-10.5081
▁junio	-10.5082
▁ojapo	-10.5084
▁established	-10.5085
mento	-10.5087
ger	-10.5088
▁hyo	-10.5091
▁kuiepa	-10.5094
▁llaqta	-10.5095
cción	-10.5095
▁Just	-10.5096
▁ican	-10.5097
▁effects	-10.5104
▁Todo	-10.5109
▁review	-10.5111
▁locales	-10.5113
▁Japan	-10.5114
▁debt	-10.5119
▁fecha	-10.5123
▁forces	-10.5125
▁insist	-10.5125
▁precio	-10.5129
▁Satanás	-10.513
▁Japón	-10.5134
▁senen	-10.5136
cul	-10.5139
50	-10.5141
▁ashi	-10.5142
Pi	-10.5145
▁opposition	-10.5146
▁ocasiones	-10.5154
▁despite	-10.5154
▁rete	-10.5157
ction	-10.5157
▁consejo	-10.5162
bin	-10.5162
▁oposición	-10.5164
▁conocer	-10.5165
▁Wi	-10.5182
▁Mucho	-10.5189
▁actualidad	-10.519
▁Col	-10.5192
encia	-10.5192
▁Gran	-10.5193
▁yoho	-10.5197
▁tini	-10.5198
mpiw	-10.5198
▁Ichaqa	-10.5203
▁ojos	-10.5203
▁hours	-10.5206
▁nic	-10.5211
kie	-10.5214
▁beyond	-10.5215
▁mekani	-10.5215
naki	-10.5217
teniendo	-10.5217
▁markan	-10.5218
▁circumstances	-10.5223
▁kanè	-10.5224
▁test	-10.5225
▁jurío	-10.5227
▁active	-10.5227
▁doctor	-10.5228
▁highlight	-10.5235
taqa	-10.5239
▁sänwa	-10.5241
▁room	-10.5244
▁activity	-10.5247
▁inversión	-10.5248
▁Jacob	-10.5254
▁party	-10.5257
huaj	-10.5258
▁sometimes	-10.5259
▁Sur	-10.5261
▁cielo	-10.5261
getting	-10.5262
▁girl	-10.5263
aciones	-10.5264
▁pachakwata	-10.5267
▁ù	-10.5275
▁evidente	-10.5278
ical	-10.5278
▁victims	-10.528
▁zan	-10.5282
cos	-10.5285
▁riká	-10.5287
▁pä	-10.5289
▁caus	-10.529
▁shi	-10.5297
▁llega	-10.5299
▁espera	-10.53
▁irointi	-10.5309
▁enfermedades	-10.5312
liztli	-10.5313
▁authority	-10.5317
▁relative	-10.5317
▁Nato	-10.532
▁prácticas	-10.5321
pit	-10.5321
▁quiilhui	-10.5322
▁joy	-10.5325
kraë	-10.5328
▁Galilea	-10.5329
▁reformas	-10.5329
bility	-10.5332
wo	-10.5332
▁Quisiera	-10.5333
▁instrumento	-10.5333
om	-10.5334
tlan	-10.5337
▁Jerusalem	-10.5337
eme	-10.5339
▁probab	-10.534
▁desire	-10.5344
▁morning	-10.5345
▁sentir	-10.5347
lica	-10.535
ising	-10.5352
▁deuda	-10.5355
▁Ana	-10.5358
▁nde	-10.5362
cur	-10.5363
▁Further	-10.537
cl	-10.5371
▁FR	-10.5372
▁naturaleza	-10.5374
▁terrorism	-10.5376
▁member	-10.5383
0.000	-10.5383
▁cara	-10.5387
neri	-10.5388
yetiri	-10.5391
▁press	-10.5391
▁kuit	-10.5392
õ	-10.5394
▁danger	-10.5396
quin	-10.5396
▁Bank	-10.5398
ora	-10.5405
rían	-10.5405
▁machí	-10.5412
lar	-10.5414
ula	-10.5417
▁tasi	-10.5417
▁pedir	-10.542
▁understanding	-10.5422
pai	-10.5423
▁kkö	-10.5425
▁puestos	-10.5426
▁illegal	-10.5428
▁solidaridad	-10.5428
▁comunitario	-10.5437
▁bit	-10.5437
kunapas	-10.5442
▁assistance	-10.5445
▁Dada	-10.5447
bre	-10.545
ging	-10.5453
▁judicial	-10.5454
▁King	-10.5454
▁stay	-10.5455
▁Santiago	-10.5461
▁nij	-10.5462
▁rápidamente	-10.5466
▁aun	-10.5467
▁rí	-10.5469
▁Wé	-10.547
▁soy	-10.547
60	-10.5473
▁Well	-10.5478
▁entrar	-10.5479
▁kö	-10.5482
tine	-10.5482
▁indicate	-10.5483
yɛ	-10.5485
▁absoluta	-10.549
▁Nations	-10.5492
wiya	-10.5495
▁Aka	-10.5495
▁class	-10.5497
▁keská	-10.5499
rori	-10.5499
▁genuine	-10.5502
tax	-10.5503
▁cuya	-10.5503
▁tengan	-10.5505
▁challenges	-10.5505
▁aparoni	-10.5505
▁perfect	-10.5506
øt	-10.5508
▁teaching	-10.5509
▁Shi	-10.5509
□	-10.5515
hára	-10.5515
awi	-10.5516
▁consumer	-10.5518
▁British	-10.5519
▁masque	-10.5519
▁climático	-10.5523
pú	-10.5525
▁carry	-10.5527
chigo	-10.5528
▁nirqa	-10.553
▁terreno	-10.5532
▁integration	-10.5536
caj	-10.5536
▁próximo	-10.5539
▁wata	-10.554
▁consciente	-10.554
▁katini	-10.554
▁Dur	-10.554
▁estén	-10.5541
▁ikí	-10.5541
▁discurso	-10.5548
▁oñemo	-10.5551
▁xika	-10.5554
▁solidarity	-10.5561
ino	-10.5562
ire	-10.5564
▁pone	-10.5567
▁influencia	-10.557
▁farmers	-10.557
bak	-10.5572
▁informes	-10.5573
▁transparency	-10.5574
▁anterior	-10.5581
▁forth	-10.5581
▁learned	-10.5584
▁Chinese	-10.5586
▁matrimonio	-10.559
▁semanas	-10.5591
▁Medio	-10.5592
▁proper	-10.5593
▁hue	-10.5595
▁nulalí	-10.5598
▁oin	-10.5598
▁mandato	-10.5598
▁ahí	-10.5599
▁kingdom	-10.5599
9	-10.5606
▁congratulate	-10.5607
nqui	-10.561
▁niveles	-10.5611
▁cargo	-10.5616
▁Rey	-10.5617
▁juma	-10.5621
▁month	-10.5622
▁export	-10.5622
▁Risa	-10.5622
▁instrumentos	-10.5627
▁easy	-10.5628
▁expresión	-10.5629
▁tsepa	-10.5629
▁reconocer	-10.563
Jaoka	-10.563
▁ukax	-10.5634
▁speaking	-10.5639
▁imp	-10.5642
▁Peter	-10.5649
▁quinilhui	-10.5651
▁kari	-10.5651
▁axon	-10.5653
▁encuentra	-10.5654
taanan	-10.5655
▁ainbo	-10.5664
▁leyes	-10.5665
zi	-10.5665
ish	-10.5665
▁bear	-10.5666
▁lu	-10.5667
▁Luis	-10.5667
Ima	-10.5681
▁didn	-10.5682
▁partir	-10.5682
▁occasion	-10.5684
▁families	-10.5692
▁wak	-10.5694
▁precise	-10.5701
▁phaxsin	-10.5704
ápe	-10.5707
tle	-10.5709
▁impo	-10.5709
▁partido	-10.5712
kuru	-10.5714
▁consideration	-10.5716
ẽme	-10.5718
▁design	-10.5724
síriga	-10.5731
▁impacto	-10.5735
▁sectores	-10.5738
▁takes	-10.5743
van	-10.5744
▁faithful	-10.5749
tsit	-10.575
▁Party	-10.5753
▁sha	-10.5754
▁beni	-10.5756
ware	-10.5761
▁labour	-10.5765
▁hermano	-10.5765
sposiciones	-10.5767
▁ésta	-10.577
▁iwà	-10.5773
▁benefits	-10.5776
▁origin	-10.5781
yeti	-10.5784
▁tha	-10.5789
▁evaluación	-10.579
▁skéie	-10.5795
▁Qutanaka	-10.5799
uy	-10.58
kota	-10.5807
jqui	-10.5808
▁mai	-10.5811
quen	-10.5813
▁powers	-10.5814
▁conclusion	-10.5814
▁Euro	-10.5815
▁Ben	-10.5816
▁Internacional	-10.5816
pia	-10.5817
▁Am	-10.5817
▁ciudades	-10.5819
▁task	-10.5819
▁argument	-10.582
▁conclusión	-10.582
rima	-10.5825
ure	-10.5836
▁cuidado	-10.5838
▁December	-10.5838
▁autor	-10.5841
▁llegó	-10.5842
▁contar	-10.5842
cue	-10.5845
▁meetings	-10.585
aixia	-10.5851
▁redes	-10.5852
▁Such	-10.5854
▁Ab	-10.5859
wanmi	-10.5859
▁willing	-10.5863
▁laycu	-10.5864
iku	-10.5866
mea	-10.5868
bɛfi	-10.5869
tsu	-10.5869
▁pachpa	-10.5874
▁superior	-10.5874
▁marriage	-10.5877
▁Human	-10.5879
▁amigo	-10.5885
▁III	-10.5886
▁israelitame	-10.5887
▁voice	-10.5889
wöbla	-10.5892
ncha	-10.5895
▁Will	-10.5897
▁Unido	-10.5899
lepa	-10.5902
▁tendría	-10.5906
▁story	-10.5907
▁reveal	-10.5916
▁cabeza	-10.5917
▁económicas	-10.5919
▁mant	-10.5919
▁democrático	-10.5924
▁dada	-10.5925
tili	-10.5925
zque	-10.5935
▁exchange	-10.594
▁económicos	-10.5941
▁Otro	-10.5943
▁director	-10.5952
▁event	-10.5956
▁potencial	-10.5958
▁bojä	-10.596
yqa	-10.596
80	-10.596
▁West	-10.5965
▁Han	-10.5967
▁provisions	-10.5969
shoko	-10.5972
▁Ì	-10.5973
▁charge	-10.5978
▁urge	-10.598
erã	-10.5981
▁manda	-10.5981
apa	-10.5981
▁procedimientos	-10.5982
▁tarea	-10.5987
port	-10.5989
▁connection	-10.599
aque	-10.5991
▁students	-10.5996
▁carne	-10.5997
▁tratamiento	-10.5997
▁Kristo	-10.6003
▁mʉdi	-10.6003
▁nímala	-10.6013
▁voz	-10.6014
+'+	-10.6017
asin	-10.6028
▁Satan	-10.6028
▁pequeño	-10.6034
▁arrest	-10.6034
awix	-10.6038
egi	-10.604
▁Tatitux	-10.6042
▁company	-10.6043
neka	-10.6044
bɛ	-10.6046
▁familiar	-10.6049
gé	-10.6049
tä	-10.6052
▁safe	-10.6053
▁gives	-10.6055
tiwa	-10.606
nacan	-10.606
kati	-10.6061
▁relation	-10.6063
bles	-10.6063
▁Jawiranaka	-10.6069
▁nelía	-10.6073
▁Esa	-10.6076
▁Father	-10.6076
gre	-10.6077
▁legislative	-10.6078
▁universal	-10.6078
jeiti	-10.6086
▁Portugal	-10.6091
▁Pilato	-10.6091
▁gri	-10.6092
▁Páulo	-10.6096
▁mencionado	-10.61
▁broad	-10.6101
tat	-10.6105
▁interesante	-10.6107
▁independent	-10.6109
▁achiev	-10.6109
▁enero	-10.6112
90	-10.6113
▁type	-10.6116
▁aminami	-10.6117
-20	-10.6118
▁1998	-10.6118
▁liberal	-10.6118
▁Min	-10.6119
giti	-10.6122
▁Federal	-10.6122
▁note	-10.6125
▁jiw	-10.6125
▁program	-10.6133
iko	-10.6134
▁pruebas	-10.6136
▁committ	-10.6137
uri	-10.6137
▁exercise	-10.6137
▁written	-10.614
▁financiero	-10.6143
▁mukí	-10.6143
npi	-10.615
▁comerciales	-10.615
▁helped	-10.6151
▁Justicia	-10.6153
▁estudiantes	-10.6159
ian	-10.6163
▁promover	-10.6167
yeri	-10.6169
▁rec	-10.617
▁Uno	-10.6172
isation	-10.6183
▁concepto	-10.6184
iba	-10.6186
▁kan	-10.619
▁tsika	-10.6191
ard	-10.6193
lè	-10.6194
tantyari	-10.6196
▁niwa	-10.6199
▁jatianra	-10.6207
We	-10.6214
▁otaq	-10.6219
wöta	-10.622
▁actuales	-10.6221
▁supone	-10.6221
▁Egypt	-10.6223
▁Republic	-10.6225
▁March	-10.6227
tsata	-10.623
▁timo	-10.6231
ep	-10.6233
▁vigor	-10.6239
▁firme	-10.6239
▁kane	-10.624
▁mía	-10.6241
matsi	-10.6241
▁damage	-10.6248
▁suffering	-10.625
ei	-10.6252
3	-10.6255
▁Tra	-10.6258
▁líderes	-10.6259
▁save	-10.626
▁nayan	-10.6262
▁marzo	-10.6263
oc	-10.6264
▁mochí	-10.6265
▁dónde	-10.6266
mama	-10.6267
▁skà	-10.6268
▁kam	-10.6268
▁comenzar	-10.6269
▁conformidad	-10.627
▁Never	-10.6272
▁space	-10.6275
▁involve	-10.6276
pé	-10.6278
▁Jatianra	-10.6283
▁extent	-10.6283
▁travel	-10.6286
▁wañu	-10.6295
▁advantage	-10.6297
▁diciendo	-10.6298
▁Q	-10.6307
▁expression	-10.6307
▁hands	-10.6307
ence	-10.6311
ben	-10.6318
▁chance	-10.6326
▁Ñe	-10.6328
▁previous	-10.6329
▁grant	-10.6331
▁jupa	-10.6332
▁mfa	-10.6334
▁Ci	-10.6334
▁diché	-10.6337
▁Mana	-10.6338
▁Hace	-10.634
pata	-10.634
▁oficial	-10.6342
▁tonali	-10.6342
▁comunes	-10.6342
▁tiempos	-10.6343
▁90	-10.6344
▁mayo	-10.6348
ship	-10.6352
em	-10.6352
kunamanta	-10.6353
ramo	-10.6354
▁secret	-10.6356
ating	-10.6358
ph	-10.6359
puni	-10.636
▁yä	-10.6362
▁escuchar	-10.6365
▁estudiar	-10.6365
▁iqui	-10.6369
▁president	-10.637
▁supply	-10.6374
▁kaniri	-10.6376
▁afirma	-10.6388
zca	-10.6389
lan	-10.6393
▁Grecia	-10.6397
▁ilhuicac	-10.6398
▁completamente	-10.6398
▁Here	-10.6401
▁convince	-10.6402
▁Iran	-10.6403
▁jane	-10.6404
▁ci	-10.6407
▁formal	-10.6408
▁sola	-10.6408
▁señalar	-10.6409
▁niño	-10.641
▁reciente	-10.6411
▁quimo	-10.6414
▁baja	-10.6416
kuaa	-10.6416
rojj	-10.6417
▁equilibrio	-10.642
▁else	-10.6421
▁tribu	-10.6423
▁voy	-10.6424
kara	-10.6424
anu	-10.6425
izado	-10.6426
▁Tiene	-10.643
▁June	-10.6432
nsa	-10.6433
▁carácter	-10.6433
▁Directive	-10.6433
▁chö	-10.6435
▁cameetsa	-10.6436
▁cheka	-10.644
▁date	-10.6443
▁weeks	-10.6445
▁memite	-10.6448
”	-10.6448
▁income	-10.6449
▁ocho	-10.645
raya	-10.645
▁North	-10.6453
▁kuya	-10.6456
▁sayt	-10.6463
▁www	-10.6464
chan	-10.6464
tika	-10.6472
▁radio	-10.6473
▁frecuencia	-10.6475
▁hmuntsi	-10.6479
▁abé	-10.6486
▁Banco	-10.6495
▁rekó	-10.6497
▁Italia	-10.6499
toca	-10.6504
▁CO	-10.651
▁tojuanti	-10.6511
▁dealing	-10.6518
rqaku	-10.6519
▁viola	-10.652
nátili	-10.6522
▁Apa	-10.6526
ãva	-10.6527
▁desea	-10.6528
▁obligation	-10.653
yë	-10.6533
tï	-10.6535
yøde	-10.6539
▁ariorica	-10.6539
▁prioriti	-10.6543
▁serio	-10.6546
▁reduction	-10.6547
▁circunstancias	-10.6548
oti	-10.6548
▁Roman	-10.6548
▁discípulos	-10.655
tanaka	-10.6552
▁Job	-10.6554
▁earlier	-10.6555
ig	-10.6556
▁ucanaca	-10.656
▁segura	-10.6563
▁suti	-10.6564
▁dalöiëno	-10.6567
▁abuse	-10.6567
▁ofrece	-10.657
gí	-10.657
▁ara	-10.6571
▁external	-10.6571
▁reference	-10.6572
▁preocupa	-10.6572
▁asistencia	-10.6575
tura	-10.658
▁producir	-10.6583
ere	-10.6585
▁mankind	-10.6586
▁pei	-10.6587
▁laws	-10.6593
▁comunitaria	-10.6594
kam	-10.6598
▁motion	-10.6603
▁formas	-10.6603
▁juego	-10.6604
▁gana	-10.6608
▁lectura	-10.6609
▁chaymi	-10.6609
▁pagar	-10.6609
nal	-10.6614
▁Most	-10.6614
bri	-10.6616
▁positivo	-10.6617
▁Lord	-10.662
Office	-10.662
▁instance	-10.6623
▁adapt	-10.6626
íva	-10.6629
▁ijcuac	-10.6632
pä	-10.6632
▁Entre	-10.6633
▁200	-10.6633
▁detail	-10.6634
▁dangerous	-10.6637
▁parts	-10.6644
▁bë	-10.6645
▁sufficient	-10.6646
▁Yes	-10.6649
▁peve	-10.6652
▁cun	-10.6654
▁import	-10.6656
tsika	-10.6657
▁Está	-10.6658
▁hyandi	-10.6665
▁sué	-10.6666
isa	-10.6667
▁Gu	-10.6667
▁declar	-10.6668
▁energética	-10.667
▁worth	-10.6671
pana	-10.6677
xqui	-10.6683
▁union	-10.6685
▁documento	-10.6687
▁hunt	-10.6687
titu	-10.6688
▁pequeña	-10.6694
thi	-10.6694
jca	-10.6696
▁criteria	-10.6698
▁olá	-10.6699
▁rima	-10.67
▁namely	-10.6701
▁ministro	-10.6703
pre	-10.6704
▁pat	-10.6705
▁recientemente	-10.6706
▁familias	-10.6707
pun	-10.671
nó	-10.6711
▁ñane	-10.6713
▁hmä	-10.6715
tã	-10.6715
▁bla	-10.6721
▁oho	-10.6725
▁prioridad	-10.6725
▁ab	-10.6731
takeri	-10.6732
mó	-10.6734
dad	-10.6736
▁contiene	-10.6741
▁ambos	-10.6742
▁kene	-10.6744
▁chayqa	-10.6746
▁tá	-10.6748
▁informa	-10.6749
▁emisiones	-10.675
tati	-10.675
▁dicen	-10.6753
uel	-10.6754
▁runakunata	-10.6755
▁court	-10.6762
hy	-10.6762
akai	-10.6764
pabi	-10.6767
▁fishing	-10.677
ngu	-10.6776
▁acepta	-10.6779
▁comercial	-10.6782
▁tomorrow	-10.6783
saq	-10.6784
▁Jehova	-10.6786
▁iniciativas	-10.679
▁terrible	-10.6792
▁instruments	-10.6792
▁bí	-10.6794
▁Conferencia	-10.6797
▁colega	-10.6801
▁buscar	-10.6802
▁added	-10.6803
▁Sus	-10.6805
▁1997	-10.6807
▁tried	-10.6807
▁procedures	-10.6808
▁señala	-10.6809
▁seven	-10.6809
▁nte	-10.6818
▁Fue	-10.6819
kon	-10.6822
▁nación	-10.6827
▁fish	-10.683
▁jipe	-10.6831
▁interesa	-10.6832
▁successful	-10.6832
ãnga	-10.6834
▁yachachi	-10.6835
tama	-10.6838
cac	-10.6841
▁impuestos	-10.6843
▁ñande	-10.6845
▁pecha	-10.6846
▁empez	-10.6847
▁wë	-10.685
▁larga	-10.6854
▁gä	-10.6856
kata	-10.6857
▁die	-10.6858
▁Bas	-10.6859
▁tase	-10.6862
▁handi	-10.6868
▁quitla	-10.6872
▁mesa	-10.6876
line	-10.6876
▁num	-10.688
ehe	-10.6885
▁consumo	-10.6887
ronki	-10.689
▁knew	-10.6892
▁esposo	-10.6893
▁regionales	-10.6893
▁intla	-10.6895
▁honor	-10.6901
▁ámbitos	-10.6902
tij	-10.6902
▁ob	-10.6908
▁ingresos	-10.6908
kun	-10.6909
▁Fi	-10.6911
▁directamente	-10.6917
▁adecuado	-10.6919
▁incluir	-10.6921
▁Miguel	-10.6926
Jawe	-10.693
▁hogar	-10.6933
▁chica	-10.6936
▁couple	-10.6937
▁aswan	-10.6943
vin	-10.6944
▁movimiento	-10.6947
boki	-10.6952
▁Irán	-10.6952
▁condición	-10.6955
Ha	-10.6956
jtoque	-10.6956
ntari	-10.6958
▁costes	-10.6959
▁mark	-10.696
▁source	-10.6961
▁priest	-10.697
▁felicitar	-10.697
▁hicieron	-10.697
▁thanks	-10.6975
tina	-10.6977
▁Padre	-10.6979
▁cristiana	-10.6981
▁Naya	-10.6987
▁graves	-10.6988
▁jurídica	-10.6989
▁entiende	-10.6989
▁add	-10.6989
▁moneda	-10.6995
ld	-10.7
▁unemployment	-10.7001
▁regulations	-10.701
▁abril	-10.701
lf	-10.7011
▁status	-10.7018
▁motivos	-10.7018
▁unto	-10.7024
▁counsel	-10.7028
▁parl	-10.7028
▁Quirishito	-10.7032
▁mesko	-10.7035
mini	-10.7036
▁ishi	-10.7036
▁agricultura	-10.7037
▁vision	-10.704
xu	-10.704
▁recommendation	-10.7043
aru	-10.7043
▁Carlos	-10.7044
▁territorio	-10.7046
▁contribuir	-10.7046
▁slow	-10.7053
▁Tabilé	-10.706
▁Ukampis	-10.7062
▁sucede	-10.7063
▁función	-10.7064
▁Serbia	-10.7067
▁Bueno	-10.7067
idas	-10.7068
amiento	-10.7069
har	-10.707
La	-10.7071
▁tsinane	-10.7072
▁wonder	-10.7072
▁mochígame	-10.7072
▁predica	-10.7073
▁capacity	-10.7073
▁independiente	-10.7075
▁ekkë	-10.7076
▁official	-10.7077
▁Yu	-10.7077
bʉhʉ	-10.7078
cameetsa	-10.7078
8	-10.7079
kä	-10.7082
tashi	-10.7083
▁alueka	-10.7084
▁improvement	-10.7084
tlaca	-10.7085
▁Pampa	-10.7091
▁lejos	-10.7098
tata	-10.7102
▁wal	-10.7102
▁kopi	-10.7104
▁inmigración	-10.7106
▁recibido	-10.7108
▁juk	-10.711
cat	-10.7111
▁uywa	-10.7113
▁catca	-10.7114
▁instrument	-10.7117
▁highly	-10.7117
▁mank	-10.7121
yeteri	-10.7121
aban	-10.7121
▁pretende	-10.7122
▁primeros	-10.7122
▁xij	-10.7124
▁cameetsatatsi	-10.7124
▁tráfico	-10.7125
▁peor	-10.7126
▁additional	-10.7127
▁resí	-10.7128
▁etc	-10.7129
▁huajca	-10.713
▁top	-10.7131
dio	-10.7136
íri	-10.7137
▁Ella	-10.7137
squía	-10.714
▁limited	-10.714
▁blogger	-10.7141
▁çan	-10.7143
▁alcohol	-10.7144
▁ucasti	-10.7147
▁Fe	-10.7147
▁comenz	-10.715
▁micro	-10.7151
▁tete	-10.7151
pí	-10.7154
▁ayudas	-10.7154
kè	-10.7155
axi	-10.7157
▁reyin	-10.716
▁iyë	-10.7164
▁responsable	-10.7165
nqaku	-10.717
kunawan	-10.7171
nanchis	-10.7173
▁pueblos	-10.7177
▁presenta	-10.718
▁voting	-10.7181
▁quita	-10.7181
▁Ese	-10.7183
▁none	-10.7188
▁com	-10.719
▁crea	-10.719
mari	-10.7193
ako	-10.7193
▁podido	-10.7194
▁hind	-10.7197
▁works	-10.7198
▁false	-10.7199
anti	-10.7199
▁oshi	-10.7204
▁entrada	-10.7205
▁kepai	-10.7205
▁pequeños	-10.7208
▁ñä	-10.7209
▁Another	-10.7209
▁busca	-10.7209
raquiw	-10.7211
▁scientific	-10.7214
▁1990	-10.7215
▁walk	-10.7216
▁Ukatsti	-10.7217
▁preaching	-10.7219
▁honest	-10.7224
▁ī	-10.7225
game	-10.7225
▁election	-10.7226
lor	-10.7227
▁Acuerdo	-10.7229
▁magazine	-10.7229
-19	-10.7231
are	-10.7235
▁continuar	-10.7237
▁recognise	-10.7237
phi	-10.7238
itari	-10.7239
▁cohesión	-10.7239
▁alcance	-10.7239
▁package	-10.7239
▁leading	-10.7246
▁seres	-10.7246
▁yourself	-10.7247
▁jupar	-10.7251
▁demostrar	-10.7251
▁demanda	-10.7254
▁visión	-10.7255
▁riesgos	-10.7256
rieka	-10.7259
▁contact	-10.7265
▁sacrificio	-10.7269
▁machi	-10.727
▁accession	-10.7271
▁qu	-10.7274
▁possibility	-10.7274
▁deep	-10.7277
▁públicos	-10.7279
idos	-10.7279
rusa	-10.728
▁comentarios	-10.7282
▁necesarias	-10.7283
▁Greece	-10.7284
▁September	-10.7284
▁letter	-10.7289
▁quería	-10.7293
▁irinti	-10.7296
▁terceros	-10.7297
aria	-10.7297
▁seyoc	-10.7299
▁asociación	-10.7299
▁revisión	-10.73
▁annual	-10.7304
▁costa	-10.7305
▁changed	-10.7307
▁Isaac	-10.7307
▁prioridades	-10.731
▁científicos	-10.7311
▁cities	-10.7311
nmi	-10.7311
▁ancha	-10.7312
sol	-10.7313
▁Obama	-10.7313
▁tixa	-10.7313
▁funciona	-10.7317
ukiyari	-10.7318
▁35	-10.7322
▁millions	-10.7323
▁tunka	-10.7327
bra	-10.7328
▁Irlanda	-10.7334
▁estudios	-10.7337
▁tlaca	-10.7337
▁sencilla	-10.7339
▁Norte	-10.7341
▁ll	-10.7343
sto	-10.7346
▁Umi	-10.7347
▁hingi	-10.7347
▁ndu	-10.7348
▁agrícola	-10.7348
▁inglés	-10.7349
▁itsipapee	-10.7349
▁cor	-10.735
gg	-10.7354
▁sulitane	-10.7356
nai	-10.7358
▁Jose	-10.7358
ø	-10.7359
sej	-10.736
▁equipo	-10.7365
▁octubre	-10.7369
huatl	-10.737
▁Macedonia	-10.7374
tter	-10.7381
kiro	-10.7382
▁wila	-10.7386
rame	-10.7387
▁alma	-10.7387
echi	-10.7389
▁onanti	-10.739
▁protest	-10.739
▁consulta	-10.7391
▁rich	-10.7393
▁holy	-10.7396
▁ukan	-10.7396
▁alternative	-10.7399
▁ejército	-10.7399
▁wisha	-10.74
▁chátiri	-10.7404
▁Va	-10.7405
▁Ten	-10.7407
▁count	-10.7409
▁estrecha	-10.7409
az	-10.7411
▁financieras	-10.7411
kë	-10.7411
▁Rosa	-10.7414
▁laboral	-10.7414
70	-10.7414
▁failure	-10.7414
▁gusta	-10.7415
▁uqhamaraqui	-10.7419
▁organismo	-10.742
▁Seguridad	-10.7424
▁buy	-10.7425
ỹ	-10.7425
▁joibo	-10.7428
▁amplio	-10.7429
▁finalmente	-10.743
wing	-10.7439
nque	-10.7441
▁jonibaon	-10.7442
taqui	-10.7446
nse	-10.7448
▁qawa	-10.7452
▁poda	-10.7452
▁worked	-10.7452
▁wöbla	-10.7456
▁requiere	-10.7458
una	-10.746
▁hønsɛ	-10.746
▁appeal	-10.7465
tía	-10.7467
▁shke	-10.7474
▁planes	-10.7474
ò	-10.7475
nita	-10.7476
▁mes	-10.7481
▁Ká	-10.7481
No	-10.7485
ene	-10.7485
njja	-10.7486
▁raza	-10.7489
▁nai	-10.7492
▁siete	-10.7495
▁Ucampis	-10.7497
cti	-10.7497
▁Take	-10.7498
▁organization	-10.7499
▁spoke	-10.75
▁shirampari	-10.75
tè	-10.7503
sho	-10.7505
▁yaqha	-10.7505
▁juntos	-10.7508
▁viven	-10.7514
TA	-10.7522
▁mente	-10.7524
loc	-10.7525
▁noviembre	-10.7526
▁January	-10.7526
▁apartado	-10.7527
▁church	-10.7528
pul	-10.753
▁promot	-10.7531
▁cent	-10.754
▁capac	-10.7546
▁Ac	-10.7546
▁griego	-10.7546
mein	-10.7547
▁afecta	-10.7548
▁chaski	-10.7551
▁Ireland	-10.7551
▁Escrituras	-10.7552
▁posibilidades	-10.7557
▁imagen	-10.756
▁reduc	-10.7563
▁businesses	-10.7564
▁viene	-10.7566
▁1996	-10.7572
▁pep	-10.7578
▁provision	-10.7579
▁Sha	-10.7585
▁servi	-10.7587
▁provides	-10.7591
▁salir	-10.7591
▁soldado	-10.7597
▁2020	-10.76
▁front	-10.7604
▁postura	-10.7604
UU	-10.7606
jeitaque	-10.7609
▁Janiw	-10.761
▁places	-10.761
▁paid	-10.7612
▁América	-10.7613
maca	-10.7613
disposición	-10.7614
uki	-10.7617
▁thu	-10.7626
▁cama	-10.7628
▁encuentran	-10.7628
▁judíos	-10.763
▁sister	-10.763
▁memu	-10.7631
▁jila	-10.7634
▁Ts	-10.7636
▁neither	-10.7639
▁choice	-10.764
▁concept	-10.764
▁train	-10.7644
▁quinequi	-10.7644
▁borders	-10.7645
▁Z	-10.7646
▁National	-10.7649
hue	-10.7651
▁defender	-10.7652
▁cumplimiento	-10.7655
▁calli	-10.7655
▁brother	-10.7655
▁principalmente	-10.7658
▁lost	-10.7661
▁complex	-10.7663
▁hatun	-10.7664
▁Bulgaria	-10.7665
▁Chu	-10.7666
▁estructura	-10.767
▁comer	-10.767
0	-10.767
▁mitad	-10.7672
▁atipana	-10.7673
col	-10.7674
▁steps	-10.7674
▁kiane	-10.7683
añataqui	-10.7686
cida	-10.769
▁efficient	-10.7691
▁terminar	-10.7692
▁paper	-10.77
ihu	-10.7705
▁Cuál	-10.7707
▁propuesto	-10.7707
▁Her	-10.7707
▁lower	-10.7708
antsi	-10.7708
▁Desarrollo	-10.7711
▁w	-10.7713
pjja	-10.7716
▁innovation	-10.7717
▁compar	-10.7719
▁norte	-10.7722
▁fail	-10.7725
▁Georgia	-10.7726
ization	-10.7726
▁jani	-10.7727
▁wahetsie	-10.7728
▁maya	-10.773
tui	-10.7732
▁Za	-10.7733
nco	-10.7735
▁eye	-10.7735
▁introduc	-10.7736
▁organisations	-10.7737
▁existencia	-10.7737
▁inform	-10.7737
▁melahuac	-10.7739
▁rama	-10.7746
▁intención	-10.775
nequi	-10.7752
lachi	-10.7755
▁heitserie	-10.7758
▁agricultores	-10.776
▁recibi	-10.7762
bú	-10.7762
▁tendencia	-10.7765
▁julio	-10.7766
▁apostol	-10.7769
éi	-10.7778
▁habu	-10.7778
▁Iglesia	-10.7779
▁ojo	-10.7783
huica	-10.7783
▁500	-10.7784
tel	-10.7786
▁powerful	-10.779
▁assessment	-10.7791
▁Italy	-10.7793
▁interesting	-10.7797
▁cre	-10.7801
rö	-10.7802
riki	-10.7808
jei	-10.7808
▁nulá	-10.7812
kax	-10.7815
▁cohesion	-10.7816
▁calling	-10.7816
▁jaqinaka	-10.7818
▁partners	-10.7819
▁darle	-10.782
▁critical	-10.782
▁neka	-10.7821
▁Ver	-10.7821
▁neraga	-10.7822
▁Development	-10.7827
▁llamar	-10.7828
▁ñoqa	-10.7832
▁&	-10.7836
▁septiembre	-10.7842
▁soluciones	-10.7842
▁manner	-10.7846
▁spent	-10.7848
▁rápido	-10.7848
▁oba	-10.7848
▁orake	-10.7854
▁kati	-10.7854
▁black	-10.7855
▁resolve	-10.7856
imo	-10.7857
tive	-10.7858
▁nígame	-10.7859
▁demostrado	-10.786
▁bloggers	-10.7863
▁puerta	-10.7864
▁reforzar	-10.7867
▁check	-10.7868
▁mera	-10.7869
▁infraestructura	-10.7869
▁televisión	-10.7869
aman	-10.7869
▁launch	-10.7869
▁died	-10.787
▁ehe	-10.7871
▁voto	-10.7873
▁forms	-10.7875
▁servants	-10.7876
▁Tsame	-10.7879
▁medium	-10.788
enda	-10.7882
▁elementos	-10.7884
pim	-10.7886
▁urgente	-10.7887
▁reported	-10.7889
▁funcionamiento	-10.7891
▁individuals	-10.7895
▁vaca	-10.7901
▁mì	-10.7904
ists	-10.7905
▁siwa	-10.7909
ē	-10.791
▁Sea	-10.791
▁directly	-10.7911
▁Jew	-10.7911
▁noja	-10.7912
▁drogas	-10.7915
▁tale	-10.7917
▁uraqi	-10.7918
qo	-10.7922
▁página	-10.7923
▁Like	-10.7926
▁permanente	-10.7927
stro	-10.7927
▁fiesta	-10.7928
▁arte	-10.7928
▁ikana	-10.7929
itsikame	-10.7933
▁financ	-10.7935
▁brain	-10.7936
▁aire	-10.7945
por	-10.7946
▁hará	-10.7947
▁ejperégame	-10.7949
▁curso	-10.7953
▁bancos	-10.7954
▁gastos	-10.7955
▁nait	-10.7956
▁japi	-10.7958
▁pur	-10.7958
▁podrá	-10.7958
▁desempleo	-10.7959
▁monitoring	-10.7959
apjjäna	-10.796
ábamos	-10.7964
hé	-10.7964
▁Tatitojj	-10.7965
▁worse	-10.7965
▁siervos	-10.7967
▁perder	-10.7968
▁Amsterdam	-10.797
ize	-10.7972
▁tempa	-10.7972
erieka	-10.7972
▁Non	-10.7976
abi	-10.798
▁Guerra	-10.7981
▁mani	-10.7988
nchu	-10.799
▁iixpa	-10.799
▁creado	-10.7991
▁pray	-10.7991
▁unfortunate	-10.7991
▁coordinación	-10.7992
▁jaì	-10.7993
riwa	-10.7994
Tsika	-10.7995
̂	-10.7997
▁únicamente	-10.7997
▁uyari	-10.7999
yöki	-10.8
▁tunca	-10.8
▁fuente	-10.8001
rgen	-10.8002
▁burden	-10.8002
▁Constitución	-10.8002
▁kó	-10.8004
▁condemn	-10.8006
▁ukham	-10.8009
nake	-10.8012
nch	-10.8012
▁impose	-10.8012
▁Ibon	-10.8012
▁failed	-10.8017
▁negative	-10.8018
▁prensa	-10.8019
ología	-10.8021
til	-10.8021
ial	-10.8021
▁wide	-10.8023
▁Avincatsarite	-10.8025
▁emissions	-10.8027
▁ré	-10.8034
▁English	-10.8034
▁meaning	-10.8037
▁Oriente	-10.804
bya	-10.8043
▁anilichi	-10.8045
▁Israeli	-10.8045
▁medical	-10.8046
▁ikon	-10.805
▁Ibo	-10.805
▁arm	-10.805
kunayuqmi	-10.8061
▁mínimo	-10.8062
▁Pri	-10.8062
▁Antonio	-10.8067
▁drugs	-10.8067
▁eventual	-10.8068
tech	-10.8068
▁increasingly	-10.8072
▁bodies	-10.8074
▁representantes	-10.8078
quiti	-10.8079
▁related	-10.8085
▁hablando	-10.8086
▁jiway	-10.8094
▁Mä	-10.8096
ñi	-10.8097
▁border	-10.8101
▁candidatos	-10.8104
▁mistake	-10.8106
▁Aca	-10.8107
▁ancianos	-10.8114
▁built	-10.8115
▁disciples	-10.8118
▁menor	-10.812
▁physical	-10.8124
▁nochipa	-10.8126
▁digital	-10.8126
▁wise	-10.8126
iyaritsie	-10.8127
▁hacía	-10.8127
iz	-10.8131
▁kanqa	-10.8133
▁incluye	-10.8133
ión	-10.8136
▁ciertamente	-10.8137
▁team	-10.8138
war	-10.8138
▁panta	-10.8139
xei	-10.814
▁ukasti	-10.8142
▁jurídico	-10.8143
▁Les	-10.8146
▁mala	-10.8149
▁administración	-10.816
arika	-10.816
▁ready	-10.8161
raka	-10.8163
▁paquete	-10.8164
▁effectively	-10.8166
rate	-10.8167
huac	-10.8172
▁politics	-10.818
▁análisis	-10.818
▁planeta	-10.8185
eke	-10.8187
▁mengu	-10.8189
▁quichihua	-10.8191
▁refugee	-10.8195
▁Australia	-10.8196
▁petróleo	-10.8197
▁Spain	-10.8197
▁razonable	-10.8197
ight	-10.8199
ulewa	-10.8199
chik	-10.82
▁pata	-10.8206
▁construir	-10.8208
▁pocos	-10.8209
tú	-10.8211
▁Rule	-10.8211
pampa	-10.8212
▁watch	-10.822
▁zu	-10.8221
ft	-10.8226
ping	-10.8226
▁iglesia	-10.8227
▁yapa	-10.8228
▁Timoteo	-10.8229
▁separate	-10.8233
▁Gaza	-10.8235
▁creen	-10.8235
▁soul	-10.8236
▁impuesto	-10.8237
▁decidi	-10.824
▁creciente	-10.824
mal	-10.8242
qta	-10.8244
▁ancient	-10.8246
▁eat	-10.8253
▁ukampis	-10.8254
▁sia	-10.8257
▁prestar	-10.8257
log	-10.8257
▁jaweki	-10.8259
▁aprobado	-10.826
pha	-10.8261
bö	-10.8261
kero	-10.8264
▁sex	-10.8267
▁mon	-10.8269
▁credit	-10.8273
▁establecido	-10.8274
taxa	-10.8275
▁discriminación	-10.8276
▁correcto	-10.8277
▁culpa	-10.8279
▁Judea	-10.8281
▁oquin	-10.8284
▁reconocimiento	-10.8284
▁immigration	-10.8284
▁Ukat	-10.8287
kawa	-10.8288
piqa	-10.8289
machti	-10.8289
nè	-10.829
▁Yejhua	-10.8296
▁Times	-10.83
▁Dis	-10.8303
▁piece	-10.8304
▁agriculture	-10.8307
jeitiri	-10.8311
▁celebrar	-10.8312
▁confirm	-10.8312
▁succeed	-10.8312
bestho	-10.8312
rakitö	-10.8315
kú	-10.8316
katu	-10.8317
ypi	-10.8324
▁siga	-10.8325
▁oko	-10.8327
ctor	-10.8328
ice	-10.8331
▁luchar	-10.8331
▁tsá	-10.8334
▁(*	-10.8335
▁33	-10.8337
▁opiniones	-10.834
▁intentar	-10.8343
▁Ikaxbi	-10.8344
bb	-10.8349
▁bíblico	-10.835
▁ŕi	-10.835
▁peerani	-10.8351
▁Hijo	-10.8352
▁plant	-10.8353
▁convertir	-10.8354
▁examinar	-10.8355
kept	-10.8355
suring	-10.8356
tanta	-10.8356
▁peso	-10.8356
pora	-10.8357
▁ilegal	-10.8358
nakap	-10.8358
nica	-10.8359
▁Western	-10.8362
▁complace	-10.8362
▁níima	-10.8363
yetatsiri	-10.8365
test	-10.8367
▁amuyt	-10.8367
▁hipat	-10.8367
▁Meeca	-10.8368
chigó	-10.8369
▁eliminar	-10.837
ave	-10.837
▁dalër	-10.8371
▁viaje	-10.8372
▁payment	-10.8373
▁icanta	-10.8374
▁structural	-10.8374
▁Great	-10.8375
▁block	-10.838
▁intention	-10.8384
▁México	-10.8384
▁yoiti	-10.8387
▁mɛ	-10.8388
▁xete	-10.839
▁encontra	-10.8393
▁tame	-10.8393
▁altar	-10.8397
▁parliament	-10.8399
▁degree	-10.84
▁Política	-10.8401
▁outcome	-10.8401
▁administration	-10.8402
▁immediately	-10.8403
▁Your	-10.8407
▁wakin	-10.841
▁hija	-10.841
▁iskay	-10.8412
▁banks	-10.8415
mita	-10.8416
▁hetsiena	-10.8416
▁anual	-10.8418
▁Quizá	-10.8418
mʉ	-10.8418
▁Isaías	-10.8421
▁Their	-10.8422
▁Spanish	-10.8429
▁Ley	-10.843
nel	-10.843
ales	-10.843
▁Plan	-10.8433
▁partnership	-10.8435
▁accord	-10.8437
▁ideal	-10.8438
▁irio	-10.8438
▁radical	-10.844
▁cabe	-10.8443
▁importa	-10.8447
▁momentos	-10.8449
▁learning	-10.8449
▁jey	-10.8451
▁kapuynin	-10.8457
▁kiekari	-10.8461
▁conocido	-10.8463
▁yanta	-10.8466
▁setting	-10.8467
▁acontecimientos	-10.8467
uego	-10.8468
▁Esúsika	-10.8468
rmi	-10.8469
midya	-10.8469
▁prison	-10.8471
▁pisi	-10.8473
▁depende	-10.8474
▁Nuestro	-10.8474
▁imposible	-10.8474
▁invest	-10.8475
ux	-10.8475
▁infrastructure	-10.8479
▁tus	-10.8479
▁muwa	-10.8479
▁tend	-10.8481
▁representatives	-10.8482
▁amojuanti	-10.8485
▁exactamente	-10.8485
▁contacto	-10.849
▁tuqi	-10.849
irinaka	-10.8496
▁Schengen	-10.8502
▁comienzo	-10.8502
▁logrado	-10.8503
nari	-10.8505
▁deja	-10.8507
▁establece	-10.8508
▁revela	-10.8509
▁arrangement	-10.8509
▁concreto	-10.851
ñehe	-10.851
ɛ	-10.8514
▁trigo	-10.8517
▁judío	-10.8519
▁rabé	-10.8519
▁mat	-10.852
▁artículos	-10.8523
▁diferencias	-10.8523
▁relevant	-10.8524
▁online	-10.8524
▁1995	-10.8525
▁colaboración	-10.8526
meh	-10.8526
▁budgetary	-10.853
▁producto	-10.8532
▁narori	-10.8533
▁competitividad	-10.8536
▁haihára	-10.8536
ndu	-10.8539
▁mokõi	-10.8539
▁iroñaaka	-10.8547
▁item	-10.8555
▁testigo	-10.8556
▁witness	-10.8557
▁perspective	-10.8558
jeitanaque	-10.8566
▁forget	-10.8568
▁conference	-10.857
▁habido	-10.857
▁strength	-10.8572
▁llam	-10.8573
▁solutions	-10.8576
▁finance	-10.8578
▁jati	-10.8581
▁ministry	-10.8585
izada	-10.8585
▁oñembo	-10.8587
▁break	-10.8589
▁trato	-10.8596
▁py	-10.8597
▁taypin	-10.8598
▁picture	-10.8608
▁vo	-10.8609
▁conducta	-10.8612
7	-10.8613
away	-10.862
▁1914	-10.8621
▁Watch	-10.8621
▁enviar	-10.8622
▁mismas	-10.8632
▁useful	-10.8632
ably	-10.8636
▁surprise	-10.8638
▁jonin	-10.8638
rios	-10.8647
▁pecado	-10.8648
▁okarati	-10.8648
▁music	-10.865
▁dura	-10.8651
▁manifest	-10.8651
▁protesta	-10.8652
pini	-10.8655
▁trabajando	-10.8656
▁vale	-10.8658
▁mayu	-10.866
▁iyaws	-10.866
▁closely	-10.8661
tha	-10.8663
▁noko	-10.8664
▁delay	-10.8665
▁condition	-10.8667
pax	-10.8668
▁Wiköl	-10.8669
▁expected	-10.8673
icio	-10.8674
▁fomentar	-10.8675
amente	-10.8679
▁llamada	-10.8679
▁option	-10.868
▁Cuba	-10.8683
▁summit	-10.8684
▁médico	-10.8684
▁pie	-10.8685
▁omba	-10.8688
▁hechos	-10.8688
▁PL	-10.8692
▁partidos	-10.8694
nanchik	-10.8695
▁Universidad	-10.8695
cari	-10.8696
▁keen	-10.8696
aurie	-10.8698
▁Ser	-10.8699
cido	-10.8702
▁noticias	-10.8702
bata	-10.8702
▁luqt	-10.8704
rita	-10.8704
▁situaciones	-10.8707
jeitaqueri	-10.8712
yök	-10.8714
▁product	-10.8716
nemi	-10.8717
▁antigua	-10.8718
▁refugiados	-10.8718
cept	-10.8721
▁breve	-10.8722
karaiñe	-10.8723
▁Cada	-10.8724
▁piti	-10.8726
hai	-10.8728
25	-10.8731
▁requisitos	-10.8732
ihe	-10.8732
riga	-10.8735
▁nina	-10.8736
▁motor	-10.8738
▁Cho	-10.8739
ólogo	-10.8741
nacapa	-10.8741
uya	-10.8742
▁spread	-10.8744
▁fuego	-10.8745
▁fase	-10.8748
apxi	-10.8749
▁tej	-10.875
▁Pan	-10.8751
▁difficulties	-10.8752
▁innovación	-10.8753
▁jaa	-10.8754
▁explicar	-10.8754
and	-10.8759
▁kirika	-10.876
▁Saúl	-10.8764
aja	-10.8765
for	-10.8766
▁loving	-10.8769
ére	-10.8776
qkuna	-10.8779
mieme	-10.8781
▁jupasti	-10.8782
▁Middle	-10.8782
▁kñ	-10.8785
▁fu	-10.8785
▁average	-10.8787
▁shima	-10.8789
maka	-10.8792
para	-10.8792
▁humans	-10.8794
▁Santo	-10.8795
▁jaskáa	-10.8797
bor	-10.8797
▁kípu	-10.8798
▁teach	-10.8799
Hasta	-10.8801
niere	-10.8804
▁adecuada	-10.8806
▁moved	-10.8809
kuspa	-10.8814
▁declaraciones	-10.8818
▁Gi	-10.8818
▁sara	-10.8824
▁vecinos	-10.8824
pach	-10.8826
ïna	-10.8827
▁November	-10.8828
▁hinx	-10.8829
▁itla	-10.883
▁arsu	-10.8831
15	-10.8831
▁warm	-10.8832
bas	-10.8833
rme	-10.8838
háicha	-10.8842
of	-10.8844
▁tumini	-10.8844
▁views	-10.8845
▁commercial	-10.8846
▁IT	-10.8846
xeiyani	-10.8848
sɛ	-10.8848
▁relativas	-10.8853
▁fuel	-10.8854
▁comida	-10.8854
▁Qu	-10.8855
▁inversiones	-10.8857
▁Usted	-10.8858
▁runaqa	-10.8859
tio	-10.8862
▁ciencia	-10.8863
▁activa	-10.8863
▁conferencia	-10.8866
▁tape	-10.8867
▁ampara	-10.8872
cahuili	-10.8873
chó	-10.8873
▁basada	-10.8874
▁domestic	-10.8875
▁física	-10.8875
▁Where	-10.8875
machi	-10.8877
cagui	-10.8878
dieron	-10.888
▁alemi	-10.8882
▁observe	-10.8885
▁riógichi	-10.8887
▁Har	-10.8888
piya	-10.889
▁completa	-10.8892
▁admit	-10.8898
▁nsunda	-10.8898
▁dan	-10.8899
▁español	-10.8902
▁Fu	-10.8907
▁buenos	-10.8911
ctli	-10.8918
▁Martin	-10.8918
▁engage	-10.8918
▁catsini	-10.8922
▁TV	-10.8923
uyu	-10.8926
▁rewagachi	-10.8927
▁chè	-10.8934
▁ikiane	-10.8939
▁mú	-10.8943
▁oración	-10.8945
▁om	-10.8946
▁electoral	-10.8947
▁usually	-10.8948
▁omoteneuh	-10.8951
▁meme	-10.8959
▁gasto	-10.896
sar	-10.896
▁um	-10.8962
▁judgment	-10.8963
▁ministerio	-10.8964
▁ocupa	-10.8967
rado	-10.8972
qua	-10.8974
▁democrática	-10.8975
▁Aun	-10.898
▁Gra	-10.898
▁timatsi	-10.8985
▁presence	-10.8986
vé	-10.8988
▁alí	-10.8988
▁St	-10.8988
▁aprobar	-10.8989
▁yachay	-10.8991
▁traditional	-10.8991
▁safeguard	-10.8992
▁determinado	-10.8996
▁born	-10.8996
▁obligación	-10.8996
▁October	-10.8998
▁impossible	-10.8998
▁procede	-10.8998
▁nayajj	-10.9003
kir	-10.9007
utah	-10.901
▁naya	-10.901
▁speed	-10.9012
▁aja	-10.9013
▁Diosajj	-10.9013
mine	-10.9015
▁aplica	-10.9016
▁science	-10.9016
guasu	-10.902
▁inon	-10.902
▁responsables	-10.9021
▁adopción	-10.9022
▁miedo	-10.9023
▁pachapi	-10.9025
tana	-10.9026
▁hese	-10.9027
▁abierto	-10.9028
ỹva	-10.9029
jan	-10.9029
tita	-10.9031
uk	-10.9031
▁accident	-10.9035
▁Sch	-10.9036
▁contribución	-10.9038
▁Don	-10.9043
▁consideración	-10.9043
tch	-10.9043
▁Does	-10.9045
▁astawan	-10.9047
▁conflictos	-10.9052
▁kal	-10.9053
▁øthʉ	-10.9054
▁aprovechar	-10.9057
jam	-10.9057
▁eficacia	-10.9058
▁fast	-10.9059
▁enseña	-10.906
boribi	-10.9063
▁mepe	-10.9063
▁Conference	-10.9064
▁presidency	-10.9064
▁positiva	-10.9064
nátame	-10.9068
▁distintos	-10.9073
▁Lima	-10.9075
▁mitz	-10.9077
▁Paraguái	-10.908
▁dolor	-10.9083
▁Sol	-10.9084
▁próximos	-10.9089
▁risks	-10.9091
tĩ	-10.9092
▁enterprise	-10.9093
wélala	-10.9094
tlal	-10.91
▁realize	-10.9101
ador	-10.9103
▁wisdom	-10.9105
▁door	-10.9109
▁economies	-10.9117
yotl	-10.9119
▁shared	-10.912
ors	-10.9123
▁Austria	-10.9123
▁música	-10.9123
span	-10.9123
▁yehuatl	-10.9124
lt	-10.9125
▁funcionarios	-10.9126
▁Ttè	-10.9127
▁najkí	-10.913
▁río	-10.9131
▁rupive	-10.9131
ible	-10.9131
▁aski	-10.9136
én	-10.9139
ãi	-10.9139
cauh	-10.9139
▁Diosmanta	-10.9144
xat	-10.9145
▁demuestra	-10.9147
▁facing	-10.9148
▁corto	-10.9151
▁IV	-10.9156
▁imagine	-10.9162
▁ken	-10.9163
ntli	-10.9164
▁decidir	-10.9164
▁oído	-10.9166
▁cancer	-10.9172
▁pusi	-10.9172
▁correcta	-10.9175
qué	-10.9179
▁llevado	-10.9181
▁pérdida	-10.9182
▁tratado	-10.9184
rayku	-10.919
▁brief	-10.919
▁killed	-10.9191
▁Law	-10.9192
bal	-10.9193
▁permit	-10.9193
▁condena	-10.9194
▁Hmuhʉ	-10.9197
▁Onorúgameka	-10.9197
▁currency	-10.9202
▁Church	-10.9202
▁efficiency	-10.9204
▁gone	-10.9205
X	-10.9207
▁coordination	-10.9208
▁combatir	-10.9209
▁seguros	-10.9212
▁máximo	-10.9214
▁iwa	-10.9219
cía	-10.9219
wara	-10.9221
▁fariseo	-10.9222
▁jeri	-10.9226
▁association	-10.9227
▁capaz	-10.9229
tán	-10.9229
netsi	-10.923
▁mra	-10.9231
mun	-10.9232
▁Ara	-10.9235
▁putting	-10.9236
▁Ña	-10.9237
▁yupaycha	-10.9238
tiyuriene	-10.9241
▁fruit	-10.9242
▁capítulo	-10.9244
enta	-10.9246
▁cover	-10.9246
▁Bush	-10.925
▁yajaya	-10.925
▁network	-10.925
▁perform	-10.9251
▁jamfri	-10.9252
nakat	-10.9253
▁plantea	-10.9256
▁independencia	-10.9256
▁destruction	-10.9256
▁estudia	-10.9256
▁jakenaca	-10.9258
ñembi	-10.9259
5	-10.9261
▁Scriptures	-10.9262
▁Jesuspa	-10.9263
▁Simón	-10.9265
yani	-10.9267
▁Mis	-10.927
▁pension	-10.9272
▁witnesses	-10.9273
▁munts	-10.9273
▁nayriri	-10.9274
nra	-10.9275
▁daily	-10.9278
wekai	-10.9279
éramos	-10.928
▁town	-10.9281
raki	-10.9282
▁Putin	-10.9284
ngui	-10.9284
▁mañaku	-10.9285
queri	-10.9286
▁hacemos	-10.9287
wamete	-10.9289
▁inquitequi	-10.929
▁Diosmi	-10.9292
▁drug	-10.9292
▁Economic	-10.9293
tlali	-10.9293
▁ikonha	-10.9293
cäna	-10.9295
▁públicas	-10.9296
▁ayllu	-10.9298
ýi	-10.9299
▁carretera	-10.9299
▁llegue	-10.9299
▁aguas	-10.9306
DE	-10.9306
▁unidad	-10.9306
▁Moisesi	-10.9307
aneme	-10.9316
▁mencionar	-10.932
ök	-10.9326
▁Bri	-10.9326
▁Cumbre	-10.9329
▁introducir	-10.9332
▁overall	-10.9332
Pa	-10.9332
▁forced	-10.9335
▁pointed	-10.9339
ory	-10.934
▁Also	-10.9341
▁fisheries	-10.9341
jti	-10.9343
▁compromisos	-10.9346
▁appreciate	-10.9347
▁Ministerio	-10.9349
aqui	-10.9352
▁datse	-10.9352
antes	-10.9353
▁golpe	-10.9356
▁humanitarian	-10.9356
▁standard	-10.9356
▁announc	-10.9358
tantari	-10.9363
▁tasa	-10.9363
▁vio	-10.9363
▁akana	-10.9366
▁nemi	-10.9368
▁weapons	-10.9369
▁blu	-10.9369
quea	-10.937
▁strategic	-10.937
yatsie	-10.9371
kiwa	-10.9372
▁destrucción	-10.9372
▁uqhama	-10.9378
▁apoya	-10.9384
▁flexible	-10.9385
▁oral	-10.9385
▁ximo	-10.9386
tai	-10.9388
▁rápida	-10.9389
▁fundamento	-10.9391
▁Comité	-10.9391
▁periódico	-10.9394
▁mymba	-10.9402
qha	-10.9404
isi	-10.941
rani	-10.9411
▁generación	-10.9413
▁jefe	-10.9414
▁path	-10.9416
▁oja	-10.9419
arieni	-10.9419
ili	-10.942
▁camfri	-10.942
▁search	-10.9422
▁discrimination	-10.9423
adores	-10.9424
▁solve	-10.9426
▁facilitar	-10.9428
▁>	-10.9431
▁muertos	-10.9431
▁Health	-10.9433
▁diversa	-10.9434
▁Sabe	-10.9436
ligo	-10.9438
▁alimento	-10.9438
win	-10.9443
nija	-10.9444
▁PPE	-10.9446
mbabi	-10.9449
ato	-10.945
▁hacerse	-10.945
▁tonal	-10.945
ichálila	-10.9452
▁delante	-10.9453
▁ngo	-10.9454
taqueri	-10.9455
▁controlar	-10.9456
rlo	-10.9456
ija	-10.9461
▁daughter	-10.9462
▁procedente	-10.9463
▁compañeros	-10.9464
▁estimate	-10.9464
▁aba	-10.9467
▁....	-10.9467
▁iken	-10.9468
▁provoca	-10.947
▁Pakistan	-10.9471
▁reglas	-10.9472
▁paragraph	-10.9477
▁helping	-10.9478
▁comprender	-10.9478
▁ocurre	-10.9481
▁petición	-10.9481
14	-10.9487
teki	-10.9487
atsie	-10.9492
bla	-10.9492
del	-10.9493
▁Last	-10.9494
▁Tatitur	-10.9498
ntero	-10.9498
▁scale	-10.9499
▁Solo	-10.9499
▁observ	-10.9501
ets	-10.9502
▁xipabi	-10.9502
▁oh	-10.9506
▁Only	-10.9508
▁scope	-10.9508
▁Justice	-10.9509
itu	-10.9514
ço	-10.9517
▁officials	-10.9522
▁heñói	-10.9526
▁oveja	-10.9526
▁wealth	-10.9527
nguéra	-10.9528
▁pá	-10.9531
▁interna	-10.9533
▁July	-10.9537
▁conclusiones	-10.9537
▁organis	-10.9542
▁doesn	-10.9542
▁Mué	-10.9543
▁Green	-10.9543
unj	-10.9545
▁kimsa	-10.9548
chka	-10.955
▁registro	-10.9552
▁creer	-10.9553
▁intervention	-10.9554
▁nocha	-10.9555
▁300	-10.9556
oj	-10.9557
nex	-10.956
▁ayéna	-10.9562
▁tomado	-10.9565
▁touch	-10.9567
▁bus	-10.9567
▁deberá	-10.9572
▁suele	-10.9576
▁choose	-10.9583
▁genera	-10.9588
▁Hall	-10.9589
▁guideline	-10.959
▁febrero	-10.959
▁biré	-10.9591
▁Latin	-10.9592
roma	-10.9597
▁wan	-10.9598
▁jaskáakin	-10.9598
▁Arab	-10.9598
iment	-10.96
▁Ndä	-10.9602
▁designed	-10.9603
▁difíciles	-10.9603
▁properly	-10.9604
▁professional	-10.9605
▁parliamentary	-10.9606
struct	-10.9606
eros	-10.9608
wari	-10.9611
sqanmanta	-10.9611
nexti	-10.9611
▁Tri	-10.9614
▁parecer	-10.9618
▁hagan	-10.962
▁Ob	-10.9621
▁niya	-10.9622
bicho	-10.9623
▁Tohueyiteco	-10.9627
▁analysi	-10.9628
ture	-10.9629
▁Qa	-10.9629
paru	-10.963
▁causes	-10.9632
▁Irosati	-10.9633
▁ajtí	-10.9633
▁wahepa	-10.9634
tirori	-10.9635
sqayki	-10.9635
▁itztoc	-10.9639
dero	-10.964
acha	-10.9645
▁cumpli	-10.9646
▁monetary	-10.9646
▁chunka	-10.9647
▁nirá	-10.9647
▁tapicha	-10.9652
▁venta	-10.9654
▁Ber	-10.9655
▁nima	-10.9656
17	-10.966
▁nirqan	-10.9661
▁ou	-10.9662
gon	-10.9665
▁habitantes	-10.9665
▁cumbre	-10.9666
▁ejecución	-10.9667
▁adoptado	-10.9672
▁Abi	-10.9674
▁intercambio	-10.9678
▁tábiri	-10.9678
▁murder	-10.9679
▁motla	-10.9682
▁miemete	-10.9682
▁Agreement	-10.9684
▁figura	-10.9688
shin	-10.9689
▁Mon	-10.9691
▁internet	-10.9692
▁útil	-10.9694
▁CE	-10.9699
▁institución	-10.97
kanon	-10.9701
ýva	-10.9701
▁atl	-10.9702
▁Barroso	-10.9703
▁corrupción	-10.9704
▁Muchas	-10.9704
▁Péicha	-10.9704
▁predicar	-10.9706
▁iamax	-10.9706
▁ekí	-10.9707
sur	-10.9709
▁Colombia	-10.971
▁impa	-10.9711
▁hetsie	-10.9712
▁sources	-10.9714
▁layku	-10.9714
nare	-10.9715
▁heimana	-10.9716
▁foot	-10.9718
▁beneficio	-10.972
kiw	-10.972
▁April	-10.9722
▁Adam	-10.9725
mɛhni	-10.9726
▁hit	-10.9726
▁irp	-10.9728
▁Samuel	-10.9729
▁inside	-10.973
▁circulación	-10.973
▁wait	-10.9733
▁pain	-10.9733
12	-10.9734
▁yakha	-10.9734
▁Ucrania	-10.9735
▁cerebro	-10.9735
ORD	-10.9736
▁calle	-10.9738
▁ciertos	-10.9739
▁VI	-10.9739
cto	-10.9741
all	-10.9741
nacampi	-10.9742
▁merece	-10.9742
▁clima	-10.9743
▁diverso	-10.9743
▁fuentes	-10.9745
▁evolución	-10.9745
noxiki	-10.9746
▁adoption	-10.9746
▁meke	-10.9747
▁communities	-10.9748
▁proporciona	-10.9749
▁advance	-10.9749
kui	-10.975
taro	-10.975
▁jema	-10.9751
yama	-10.9753
▁institutional	-10.9753
▁scientist	-10.9754
▁oficina	-10.9754
hmu	-10.9755
uru	-10.9756
kh	-10.9758
▁aproximadamente	-10.9758
▁demands	-10.9759
▁bienestar	-10.9761
▁temor	-10.9764
▁pienso	-10.9767
▁contaminación	-10.9769
▁exige	-10.977
▁prayer	-10.977
▁pruwinsyapi	-10.977
kunan	-10.9771
▁chayta	-10.9772
jas	-10.9772
dura	-10.9774
kunaman	-10.9774
▁Au	-10.9775
▁ACP	-10.9776
▁computer	-10.978
▁unacceptabl	-10.978
▁Amérikagua	-10.978
pic	-10.978
▁chose	-10.9781
▁Quién	-10.9787
▁finding	-10.9789
▁habit	-10.9792
aruw	-10.98
▁duty	-10.9805
▁monitor	-10.9806
▁Ello	-10.981
▁vemos	-10.9811
▁consistent	-10.9811
▁improving	-10.9812
▁qhawari	-10.9814
▁specifically	-10.9814
uc	-10.9816
tique	-10.9819
▁estadounidense	-10.982
rd	-10.9821
tajja	-10.9821
ain	-10.9821
apini	-10.9822
▁Tatit	-10.9823
▁Ukraine	-10.9825
▁Siria	-10.9825
▁ukanak	-10.9825
▁yoba	-10.9826
▁decidido	-10.983
▁lurata	-10.983
▁image	-10.9833
▁Bilé	-10.9834
tivos	-10.9834
▁estará	-10.9835
rón	-10.9836
tap	-10.9837
▁pioneer	-10.9837
▁mass	-10.9842
▁Prime	-10.9842
▁chopa	-10.9845
▁youth	-10.9848
▁32	-10.9848
▁xu	-10.9849
▁Congreso	-10.985
▁tecnologías	-10.9854
▁thogui	-10.9856
chane	-10.9859
▁comunidades	-10.986
osa	-10.9862
▁llank	-10.9863
▁via	-10.9865
yø	-10.9865
▁generation	-10.9865
bel	-10.9866
13	-10.9867
89	-10.9872
▁doble	-10.9873
itz	-10.9874
▁staff	-10.9879
simi	-10.988
▁ihuaya	-10.9885
▁Nuestra	-10.9889
▁finales	-10.989
▁competitiveness	-10.989
asïna	-10.9892
nakampi	-10.9894
▁eight	-10.9894
”,	-10.9895
▁impedir	-10.9896
▁época	-10.9896
tsti	-10.99
▁producer	-10.9902
axon	-10.9902
▁pacto	-10.9902
▁peka	-10.9903
▁kena	-10.991
▁feeling	-10.9912
▁Necesita	-10.9913
▁inchato	-10.9915
▁productores	-10.9915
▁nayar	-10.9918
▁Security	-10.9921
▁ñämfo	-10.9921
▁convencido	-10.9922
▁término	-10.9923
▁participation	-10.9923
▁jche	-10.9923
ribira	-10.9924
▁obras	-10.9925
▁necesarios	-10.9927
▁birth	-10.9928
▁Thank	-10.9928
▁ico	-10.993
▁medi	-10.9931
▁tembiapo	-10.9932
▁enormous	-10.9934
▁beautiful	-10.9934
▁nayax	-10.9941
▁series	-10.9941
▁expertos	-10.9943
ffected	-10.9944
▁Chile	-10.9944
▁basa	-10.9946
kunam	-10.9947
▁sensible	-10.9948
day	-10.9951
▁retãme	-10.9953
▁Alà	-10.9953
▁UK	-10.9954
cri	-10.996
akeri	-10.9963
▁August	-10.9966
▁naturales	-10.9967
acan	-10.997
jli	-10.9972
▁happening	-10.9972
▁avanzar	-10.9974
fra	-10.9976
▁factores	-10.9977
▁acknowledge	-10.9979
▁tayta	-10.9979
▁refuse	-10.9985
mbu	-10.9986
hä	-10.9989
▁Ze	-10.999
▁libros	-10.9993
▁hä	-10.9993
▁corresponde	-10.9995
19	-10.9995
▁yaxeik	-10.9996
▁proporcionar	-10.9997
▁sesión	-10.9998
mbra	-10.9999
▁kie	-10.9999
▁tenda	-11.0003
▁ucampis	-11.0004
▁camp	-11.0006
▁shkö	-11.0008
▁agradecer	-11.0008
▁itomi	-11.0009
▁Upe	-11.0012
11	-11.0014
▁siguientes	-11.0014
jcahua	-11.0019
▁Wë	-11.0021
tantsi	-11.0023
▁traffic	-11.0026
nama	-11.0026
kunatapas	-11.0031
▁Nigeria	-11.0032
▁feature	-11.0032
bilidad	-11.0033
6	-11.0037
08	-11.0037
▁tey	-11.0044
▁actos	-11.0045
▁inuköl	-11.0046
run	-11.0052
▁1994	-11.0053
▁kasuku	-11.0056
▁propiedad	-11.0056
uma	-11.0057
ló	-11.0058
▁ári	-11.0058
▁incluida	-11.0059
▁īhuān	-11.0059
utait	-11.0061
ý	-11.0061
walí	-11.0062
▁llaqtam	-11.0063
kak	-11.0065
istic	-11.0067
nza	-11.0068
▁minister	-11.0069
▁introducción	-11.0071
▁waik	-11.0072
▁oĩva	-11.0074
▁árape	-11.0077
serv	-11.0077
guru	-11.0077
▁juc	-11.0078
▁refleja	-11.0081
▁kiri	-11.0085
▁secure	-11.0089
▁Unfortunate	-11.0092
▁jupax	-11.0093
rta	-11.0096
▁lengua	-11.0096
▁elección	-11.0099
▁Liko	-11.0099
▁Échi	-11.01
▁aty	-11.0101
▁goods	-11.0101
▁ik	-11.0103
▁proved	-11.0105
▁relacionados	-11.0107
titlan	-11.0108
▁Quemaj	-11.0108
▁obligado	-11.0112
▁forest	-11.0114
▁whatever	-11.0114
▁fulfill	-11.0121
ī	-11.0121
▁Era	-11.0122
▁quizá	-11.0124
rdaë	-11.0124
▁Manuel	-11.0125
RI	-11.0127
▁sarnaq	-11.0128
▁nurá	-11.0129
jeite	-11.013
▁appears	-11.013
▁ofrenda	-11.0131
▁Convención	-11.0131
▁feliz	-11.0133
▁notice	-11.0134
▁oinxon	-11.0135
▁minimum	-11.0138
▁combina	-11.0143
▁treat	-11.0144
macac	-11.0145
▁demonstrate	-11.0145
▁Italian	-11.0147
▁sun	-11.0149
ñam	-11.015
iera	-11.015
▁péva	-11.015
▁enseñar	-11.0152
▁ikanai	-11.0153
▁urgent	-11.016
▁jiwi	-11.016
cial	-11.016
imi	-11.0161
▁Mose	-11.0163
▁asamblea	-11.0165
día	-11.0165
nen	-11.0165
op	-11.0167
lekeri	-11.017
▁examine	-11.0171
▁wè	-11.0171
▁administrative	-11.0171
ýpe	-11.0172
▁jupan	-11.0172
taka	-11.0172
▁asilo	-11.0173
baonra	-11.0176
▁sanciones	-11.0177
▁Yahwe	-11.0178
▁niquin	-11.0182
▁mapo	-11.0185
oki	-11.0186
▁kachi	-11.0187
▁moving	-11.0187
▁sutiyuq	-11.0191
▁bíblicos	-11.0192
Jawekeska	-11.0193
▁faced	-11.0194
▁consult	-11.0194
osas	-11.0194
ller	-11.0195
tory	-11.0196
▁tanta	-11.0202
▁emphasise	-11.0206
▁col	-11.0207
▁onca	-11.0207
iiu	-11.0213
caqui	-11.0213
▁regret	-11.0214
▁karai	-11.0214
▁médicos	-11.0218
▁sumaq	-11.022
aneni	-11.022
▁directa	-11.0221
jar	-11.0222
▁vast	-11.0225
▁sabía	-11.0232
▁seeing	-11.0233
▁candidate	-11.0233
▁cast	-11.0235
tón	-11.0238
▁continues	-11.0239
▁Tatituw	-11.0241
▁Uma	-11.0242
▁ák	-11.0243
nate	-11.0244
ich	-11.0245
▁Carta	-11.0249
▁oma	-11.0251
resa	-11.0252
▁ganar	-11.0254
▁oinna	-11.0256
▁unable	-11.0256
eva	-11.0259
responsibilities	-11.0259
▁figure	-11.026
▁kilómetros	-11.0264
cus	-11.0264
▁jaki	-11.0266
quiz	-11.0266
▁lokt	-11.0269
▁Budget	-11.0272
▁comportamiento	-11.0272
▁encima	-11.0272
shan	-11.0274
▁ola	-11.0276
▁rejcholi	-11.0278
hueyi	-11.0283
▁westiora	-11.0285
▁hucha	-11.0286
▁apart	-11.0286
▁rikch	-11.0287
▁judge	-11.029
pil	-11.0291
▁celestial	-11.0292
▁crowd	-11.0292
fund	-11.0296
nquir	-11.0298
▁ytoca	-11.0302
lco	-11.0305
▁perdido	-11.0305
▁Kong	-11.031
unchay	-11.0311
▁ané	-11.0311
▁Par	-11.0312
▁iko	-11.0312
xonra	-11.0316
maika	-11.0316
▁ɛnxɛ	-11.0317
▁competencias	-11.0318
apy	-11.0319
kka	-11.032
▁opening	-11.032
▁reduced	-11.0322
▁guard	-11.0323
▁conclusions	-11.0325
▁trouble	-11.0326
▁respeta	-11.0326
▁llevan	-11.0329
▁promesa	-11.0329
▁pide	-11.033
▁feet	-11.033
tiyu	-11.0332
ments	-11.0333
▁atrás	-11.0335
▁nearly	-11.0338
▁Nza	-11.0339
▁obtain	-11.0343
▁Palestinian	-11.0345
▁cadena	-11.0346
▁peti	-11.035
▁Nochi	-11.035
▁jara	-11.035
▁laid	-11.0352
viv	-11.0352
▁mahyoni	-11.0353
▁potencia	-11.0354
▁compra	-11.0359
▁promise	-11.0362
▁substantial	-11.0366
▁pankotsi	-11.0366
▁Corea	-11.0369
▁sacar	-11.037
▁Puesto	-11.0371
▁happens	-11.0371
▁sabiduría	-11.0373
▁michoë	-11.0373
▁flow	-11.0374
▁ayer	-11.0376
sqanku	-11.0378
▁metro	-11.0381
teyurie	-11.0383
ves	-11.0385
▁apparent	-11.0387
▁peaceful	-11.0387
▁largest	-11.0388
edi	-11.0389
▁languages	-11.0389
▁Qullunaka	-11.0393
ará	-11.0394
ajeiteri	-11.0394
▁acts	-11.0394
ditsö	-11.0394
▁Watchtower	-11.04
▁tumu	-11.0401
0,000	-11.0401
▁bana	-11.0402
▁estructurales	-11.0402
▁destacar	-11.0405
▁Primer	-11.0405
▁gift	-11.0407
▁tiya	-11.0408
▁initial	-11.0409
▁puso	-11.041
stre	-11.0412
kï	-11.0412
▁disaster	-11.0412
year	-11.0415
cara	-11.0417
▁vía	-11.0421
▁balanced	-11.0423
▁offered	-11.0423
▁prevención	-11.0427
▁High	-11.0428
tanaque	-11.0429
▁suerte	-11.0429
▁transform	-11.0431
▁maye	-11.0432
oka	-11.0434
▁convertido	-11.0435
▁superar	-11.0435
thapi	-11.0437
▁avances	-11.0438
▁abierta	-11.044
▁Salomón	-11.0441
▁residuo	-11.0441
▁equality	-11.0441
▁muku	-11.0441
▁Creador	-11.0441
▁estadounidenses	-11.0442
▁generales	-11.0445
▁meteni	-11.0448
▁wijchimoba	-11.0448
▁deficit	-11.0448
▁defence	-11.0448
▁Á	-11.045
▁preocupaciones	-11.045
▁Mari	-11.0458
▁ñu	-11.0458
▁participate	-11.0459
▁qillqa	-11.0459
▁fines	-11.046
▁neskáakin	-11.0462
▁improved	-11.0463
▁Cre	-11.0463
ier	-11.0463
▁signal	-11.0464
▁dó	-11.0465
▁suelo	-11.0468
▁apytépe	-11.0468
▁round	-11.0469
▁naj	-11.047
▁producido	-11.0472
avi	-11.0473
▁existence	-11.0475
▁Irish	-11.0476
líaj	-11.0477
▁menciona	-11.0478
▁bank	-11.0478
yki	-11.0482
▁éstos	-11.0482
▁nucleares	-11.0483
▁territorial	-11.0484
▁consiste	-11.0485
▁recientes	-11.049
▁respuestas	-11.049
▁militares	-11.0491
ology	-11.0493
ged	-11.0494
amani	-11.0494
▁comprar	-11.0494
rqani	-11.05
▁carrera	-11.0503
▁dispuestos	-11.0503
kita	-11.0504
▁jaska	-11.0504
yman	-11.0505
▁Papa	-11.0507
▁recommend	-11.0509
▁jaya	-11.0509
▁anima	-11.0509
▁ganíliga	-11.051
▁existentes	-11.0514
▁Otra	-11.0514
ries	-11.0514
▁wall	-11.0521
mpiri	-11.0523
▁competitive	-11.0525
anene	-11.0526
▁gozo	-11.0527
▁economías	-11.0533
▁bebon	-11.0536
▁tetãvore	-11.0537
male	-11.0538
▁aceite	-11.0538
▁yesterday	-11.0538
▁inti	-11.0538
▁modest	-11.0539
▁conseguido	-11.0544
▁sitting	-11.0544
▁punchaw	-11.0546
▁yoka	-11.0549
nacasti	-11.0551
▁yancuic	-11.0551
illo	-11.0552
▁torno	-11.0559
tanake	-11.056
bia	-11.056
▁olvidar	-11.0562
▁drawn	-11.0563
vil	-11.0564
▁enfrenta	-11.0564
áli	-11.0564
▁distancia	-11.0567
▁sanction	-11.0569
▁mine	-11.0571
jí	-11.0573
shita	-11.0575
▁sectors	-11.0576
▁pacientes	-11.0576
▁Romania	-11.0578
▁soldados	-11.0578
tsua	-11.0582
paya	-11.0585
▁déficit	-11.0586
▁dejado	-11.0586
▁Dí	-11.0587
▁size	-11.0588
Ta	-11.0588
▁establishment	-11.059
▁Antes	-11.0592
▁territory	-11.0593
▁materiales	-11.0594
▁worldwide	-11.0594
▁center	-11.0602
rry	-11.0606
▁methods	-11.0606
▁jawekibo	-11.0608
▁à	-11.0611
yé	-11.0613
há	-11.0614
▁chonka	-11.0614
▁criticism	-11.0614
▁warning	-11.0615
▁hablado	-11.0616
▁books	-11.0618
▁chapter	-11.062
▁daño	-11.0626
called	-11.0628
tay	-11.0628
▁won	-11.063
▁elders	-11.0634
▁Oshequi	-11.0634
món	-11.0637
▁continuación	-11.064
▁Korea	-11.0641
▁huta	-11.0645
▁formula	-11.0647
▁Policy	-11.0648
rla	-11.0649
▁range	-11.065
▁Com	-11.065
▁Herodes	-11.0651
▁violent	-11.0661
pano	-11.0663
▁liberalización	-11.0663
▁siento	-11.0667
▁respetar	-11.0672
▁Aquí	-11.0674
▁constante	-11.0675
mán	-11.0675
▁EN	-11.0676
▁Tower	-11.0678
▁Villa	-11.0679
▁cawquïri	-11.068
AN	-11.0681
▁kacha	-11.0682
▁Joseph	-11.0685
▁mutual	-11.0686
▁studies	-11.0686
▁tkë	-11.069
▁Wikimedia	-11.069
▁target	-11.0693
▁Pin	-11.0693
quiw	-11.0695
▁asylum	-11.0697
▁cuajli	-11.0698
▁exigencia	-11.0698
▁Democrats	-11.0698
▁ñi	-11.0703
▁reina	-11.0704
▁legislativo	-11.0704
▁icantiri	-11.0704
▁ike	-11.0706
▁verse	-11.0709
▁ichaké	-11.071
▁disciplina	-11.071
▁péicha	-11.071
jama	-11.0711
▁evidencia	-11.0711
tiu	-11.0712
▁PT	-11.0712
ray	-11.0715
anaca	-11.0719
▁especie	-11.0723
▁apite	-11.0726
cual	-11.0726
▁cenca	-11.0731
tera	-11.0733
wati	-11.0733
▁Adán	-11.0733
yurie	-11.0735
▁operation	-11.0738
▁nimech	-11.0738
eki	-11.074
▁wasi	-11.0741
▁introduction	-11.0749
▁observa	-11.0752
▁relacionadas	-11.0752
▁EC	-11.0753
nátaga	-11.0754
▁nimitz	-11.0754
▁white	-11.0755
▁James	-11.0756
▁hua	-11.0756
▁cur	-11.0759
▁claridad	-11.0761
hya	-11.0761
▁Yora	-11.0762
▁ES	-11.0762
▁Despi	-11.0764
bil	-11.0765
▁ukhama	-11.0765
û	-11.0768
▁felicidad	-11.0768
sina	-11.077
llar	-11.0772
▁compañías	-11.0773
▁pursue	-11.0773
▁castiga	-11.0776
▁favorable	-11.0777
▁chika	-11.0778
macja	-11.0779
▁consumidor	-11.078
▁belong	-11.0781
▁fiel	-11.0782
▁ix	-11.0784
rotsi	-11.0785
▁wicked	-11.0788
toya	-11.0791
eriet	-11.0794
AS	-11.0794
▁voi	-11.0797
mil	-11.0802
tasanot	-11.0803
▁politicians	-11.0803
▁Saywitu	-11.0803
▁proceder	-11.0805
gro	-11.0806
▁vive	-11.0807
pxa	-11.0813
▁village	-11.0817
▁scheme	-11.0817
idades	-11.0818
▁board	-11.0819
▁repara	-11.0819
iente	-11.082
apxam	-11.0821
▁tariku	-11.0823
▁desempeñar	-11.0823
▁emphasis	-11.0823
▁axcan	-11.0825
▁1992	-11.0825
▁carefully	-11.0825
rachi	-11.0825
▁ataque	-11.0826
weni	-11.0827
▁mexi	-11.083
▁righteous	-11.083
◆	-11.0832
▁fruto	-11.0832
▁tercera	-11.0833
▁Salud	-11.0833
yéna	-11.0834
88	-11.0834
pasti	-11.0836
▁kill	-11.0838
▁Gracias	-11.0839
▁añadir	-11.0839
▁cri	-11.0839
▁feelings	-11.084
torio	-11.084
▁write	-11.084
▁toke	-11.0843
▁katuq	-11.0849
▁informar	-11.085
kunapa	-11.085
▁networks	-11.0853
▁absoluto	-11.0853
▁dream	-11.0853
▁tamamata	-11.0853
▁Sara	-11.0853
▁Chayna	-11.0855
▁continente	-11.0857
▁Felipe	-11.0857
ávo	-11.0859
▁Summit	-11.086
cht	-11.0862
▁method	-11.0864
sunman	-11.0864
▁ucjja	-11.0866
ymi	-11.0866
▁television	-11.0867
ĩ	-11.0867
▁paha	-11.0868
▁severe	-11.0871
ign	-11.0871
▁ocha	-11.0874
vic	-11.0877
▁umba	-11.0877
▁Bal	-11.0878
▁lived	-11.088
dal	-11.088
▁cuarto	-11.0881
▁wökir	-11.0881
▁Judas	-11.0882
▁Alarigá	-11.0883
▁obligaciones	-11.0883
yetiro	-11.0883
▁Mediterranean	-11.0884
▁cla	-11.0884
▁Day	-11.0885
▁minutos	-11.0885
▁1980	-11.0889
▁wo	-11.0893
▁yunaime	-11.0896
▁yame	-11.0896
▁ultimate	-11.0897
▁adoración	-11.0898
▁iwé	-11.0899
▁cat	-11.0901
▁sufri	-11.0901
▁Huk	-11.0902
▁Mexihco	-11.0903
xjua	-11.0903
▁Act	-11.0905
▁Mēxihco	-11.0907
▁sueño	-11.0908
▁reken	-11.0908
▁uñjasi	-11.0909
my	-11.0909
tiki	-11.0909
cado	-11.091
▁prepar	-11.0911
▁feed	-11.0911
▁expand	-11.0912
▁tari	-11.0912
▁ataques	-11.0917
tico	-11.0919
▁apena	-11.092
▁Natural	-11.0922
▁espada	-11.0922
▁1.	-11.0923
▁llapa	-11.0926
▁jakiribi	-11.0927
mber	-11.0929
▁riku	-11.093
▁avirori	-11.0931
▁declaration	-11.0931
▁cáncer	-11.0932
jé	-11.0932
making	-11.0937
▁decades	-11.0937
▁esperamos	-11.0938
tzinco	-11.094
betan	-11.0941
▁ichéitö	-11.0941
▁Pode	-11.0944
▁profesional	-11.0945
▁construction	-11.0946
▁independence	-11.0946
▁consenso	-11.0946
▁definitiva	-11.0946
▁Over	-11.0947
▁Irootaque	-11.095
▁Comp	-11.095
▁intenta	-11.0952
▁(1	-11.0956
▁Joa	-11.0957
▁nica	-11.0964
▁upépe	-11.0964
▁ocurri	-11.0965
ñan	-11.0969
▁hérava	-11.0971
▁documentos	-11.0972
ios	-11.0973
pxäna	-11.0976
▁vaerã	-11.0977
▁keska	-11.0978
▁permanent	-11.0983
04	-11.0983
▁govern	-11.0986
▁inaceptable	-11.0989
▁conversaciones	-11.099
▁presta	-11.099
▁preguntar	-11.0991
▁wine	-11.0991
▁deserve	-11.0992
▁conven	-11.0992
▁Society	-11.0996
▁pudo	-11.0998
▁posibles	-11.1001
▁keeping	-11.1002
table	-11.1002
▁attacks	-11.1002
▁kíti	-11.1004
▁ij	-11.1004
▁chaynataq	-11.1007
mbre	-11.1013
▁abrir	-11.1015
▁Red	-11.1015
▁Jainxon	-11.1018
▁managed	-11.1018
ágã	-11.1019
▁film	-11.102
▁keyo	-11.103
▁timieme	-11.1032
▁jaskati	-11.1032
takix	-11.1033
quí	-11.1034
araqui	-11.1035
rda	-11.1036
▁vidas	-11.1037
▁jiwasa	-11.1042
▁wiñay	-11.1043
▁iwe	-11.1047
▁guarã	-11.1048
spanku	-11.1049
nge	-11.105
▁cuentas	-11.105
▁Constitution	-11.1052
▁blanco	-11.1055
▁hambre	-11.1055
▁demostr	-11.1056
▁starting	-11.1058
nanku	-11.1058
cani	-11.1061
ores	-11.1061
▁Alawala	-11.1062
act	-11.1062
tih	-11.1063
teni	-11.1064
▁upéicha	-11.1065
chasqa	-11.1066
▁casta	-11.1069
▁Regulation	-11.1076
▁establecimiento	-11.1076
▁desean	-11.1076
▁ninka	-11.1078
▁Salmo	-11.1082
▁oime	-11.1082
▁profesor	-11.1083
▁strike	-11.1084
▁preparar	-11.1085
▁camfrihʉ	-11.1086
hña	-11.1086
▁firma	-11.1089
▁expenditure	-11.1091
▁Organización	-11.1091
ag	-11.1091
▁francés	-11.1098
▁topic	-11.1099
▁Libro	-11.11
▁calcula	-11.1102
lur	-11.1102
▁monetaria	-11.1105
bro	-11.1106
▁win	-11.1106
PA	-11.1107
▁tlali	-11.1108
rar	-11.1109
▁Sam	-11.1109
▁previsto	-11.1113
▁elemento	-11.1115
tors	-11.1118
▁kiekaritsie	-11.112
▁sentencia	-11.1121
▁Yi	-11.1121
▁reserva	-11.1121
waq	-11.1123
▁threaten	-11.1124
taje	-11.1126
bar	-11.1128
tiuh	-11.1129
▁Liberal	-11.113
▁interno	-11.113
utu	-11.1131
▁nuua	-11.1133
▁destroy	-11.1135
▁tamaño	-11.1135
▁chú	-11.1136
▁_	-11.1141
▁uku	-11.1144
▁iuh	-11.1145
▁oppose	-11.1145
▁transfer	-11.1146
▁Itonal	-11.1146
▁halla	-11.1147
▁dispuesto	-11.1149
cel	-11.1149
▁kaman	-11.115
▁podr	-11.1151
▁batse	-11.1151
▁uva	-11.1153
▁anteriores	-11.1154
▁rebel	-11.1156
▁constituyen	-11.1157
ñataqmi	-11.1159
▁generally	-11.1164
▁easier	-11.1164
▁ohecha	-11.117
▁recognition	-11.1171
añataki	-11.1172
▁citizen	-11.1178
▁link	-11.1179
▁Bolivia	-11.1179
▁recuerda	-11.1179
▁aparece	-11.1179
▁pedido	-11.1179
▁cuánto	-11.118
chus	-11.1181
quï	-11.1185
tachari	-11.1185
▁repeated	-11.1185
▁coste	-11.1185
▁participa	-11.1185
▁occur	-11.1191
pajj	-11.1192
uit	-11.1193
▁Creator	-11.1193
▁compartir	-11.1194
▁nócha	-11.1196
▁ñawpaq	-11.1196
▁arms	-11.1196
▁ibo	-11.1198
▁Van	-11.1198
03	-11.1199
▁bijchiá	-11.1201
▁host	-11.1203
▁Has	-11.1205
bul	-11.1207
anaka	-11.1207
huía	-11.1208
▁showing	-11.1212
▁cambia	-11.1213
ajero	-11.1214
ïnwa	-11.1215
▁covered	-11.1215
▁tecpatl	-11.1216
▁Foreign	-11.1216
asiña	-11.1216
tol	-11.1217
18	-11.1217
▁strongly	-11.1219
▁paqarisqa	-11.122
uda	-11.1221
▁centre	-11.1222
yuq	-11.1223
▁multilateral	-11.1223
sqankuta	-11.1223
▁parcial	-11.1223
rum	-11.1223
▁sentence	-11.1224
▁1970	-11.1224
▁enomí	-11.1226
▁ttsé	-11.1227
ification	-11.1228
▁Brussels	-11.123
▁Sociedad	-11.123
tah	-11.1233
▁chimí	-11.1234
omi	-11.1234
▁evening	-11.1235
▁corruption	-11.1238
poca	-11.124
▁hual	-11.1242
pare	-11.1244
▁apropiado	-11.1245
●	-11.1245
aibo	-11.1246
▁diputado	-11.1246
▁object	-11.1248
▁pende	-11.1248
bio	-11.1248
▁eterna	-11.1249
▁Exteriores	-11.1251
▁determinar	-11.1252
▁Estrategia	-11.1253
▁testimonio	-11.1253
▁visible	-11.1253
araki	-11.1254
▁Gua	-11.1255
osos	-11.1255
▁plantear	-11.1257
nextili	-11.1257
porã	-11.1259
aquero	-11.1259
▁Autoridad	-11.126
▁WTO	-11.126
▁è	-11.126
▁pertenece	-11.1267
niro	-11.1268
▁determined	-11.1269
▁shock	-11.1272
▁sentimientos	-11.1272
Commons	-11.1272
▁contempla	-11.1273
gun	-11.1275
▁nawa	-11.1279
▁siente	-11.1287
▁semáriga	-11.129
▁version	-11.1292
bɛgo	-11.1293
▁Mal	-11.1295
▁Far	-11.1297
▁advice	-11.1297
tantyarori	-11.1298
▁berá	-11.1298
▁compañía	-11.13
▁shape	-11.13
▁límites	-11.13
anka	-11.13
dge	-11.1301
▁planet	-11.1301
▁aririka	-11.1301
▁anime	-11.1303
▁imponer	-11.1304
▁suceso	-11.1306
▁poli	-11.1309
▁ruin	-11.1312
▁israelitas	-11.1313
▁affairs	-11.1315
crib	-11.1317
▁sustancias	-11.1317
▁basado	-11.1317
▁identifi	-11.1318
▁niraga	-11.132
▁tamanti	-11.1321
lic	-11.1322
▁finish	-11.1323
▁quito	-11.1324
01	-11.1325
▁Ary	-11.1327
tira	-11.1327
▁diario	-11.1332
▁hets	-11.1333
yero	-11.1333
▁wökirpa	-11.1334
▁Real	-11.1335
▁ŕo	-11.1335
ajeitaqueri	-11.1336
▁mexica	-11.1337
tzon	-11.1338
cá	-11.1338
▁except	-11.134
▁nóchali	-11.1341
▁Bruselas	-11.1342
zan	-11.1342
▁pani	-11.1343
ej	-11.1345
▁45	-11.135
▁spoken	-11.1352
▁otimi	-11.1352
äta	-11.1352
▁Sé	-11.1353
▁offering	-11.1355
▁chaypi	-11.1356
▁jawekeska	-11.1357
▁garantiza	-11.1357
▁(2	-11.1358
▁battle	-11.1358
▁morir	-11.136
ático	-11.136
▁game	-11.136
▁reconoce	-11.1361
▁yoina	-11.1363
▁neighbour	-11.1364
▁waranqa	-11.1365
jero	-11.1365
▁corriente	-11.1367
▁yoiwe	-11.1369
▁lies	-11.1369
▁honourabl	-11.137
rpa	-11.1371
▁concrete	-11.1372
▁temple	-11.1373
▁employee	-11.1374
▁prohibición	-11.1374
▁enseñanza	-11.1376
tivas	-11.1377
eh	-11.1379
▁hearing	-11.1379
niyoq	-11.138
▁permita	-11.138
ería	-11.138
▁quote	-11.1381
▁pai	-11.1382
▁meant	-11.1383
ram	-11.1383
▁wörki	-11.1387
▁resist	-11.1387
elo	-11.1387
▁compare	-11.1388
ixa	-11.1389
▁cua	-11.1392
▁permitirá	-11.1392
▁hallar	-11.1392
▁johya	-11.1393
▁federal	-11.1396
▁misión	-11.1398
quena	-11.14
▁Alguna	-11.1402
pipas	-11.1406
▁raro	-11.1407
▁piña	-11.1408
▁Brazil	-11.1409
▁característica	-11.141
▁glad	-11.141
dihʉ	-11.1411
▁eté	-11.1412
▁reasonable	-11.1412
▁Teng	-11.1413
mara	-11.1415
▁Pues	-11.1415
▁uqham	-11.1416
▁agradecimiento	-11.1417
▁EL	-11.1417
atsiri	-11.1422
▁gen	-11.1422
▁límite	-11.1422
▁suministro	-11.1423
▁declara	-11.1424
▁hincapié	-11.1425
▁delegation	-11.1425
▁easily	-11.1425
▁igualmente	-11.1427
▁inco	-11.1428
▁alcanzado	-11.1428
▁shinanya	-11.1429
99	-11.143
▁Emi	-11.1431
▁temporal	-11.1432
▁iñe	-11.1435
anan	-11.1439
▁dando	-11.1442
▁desgracia	-11.1444
yer	-11.1445
aran	-11.1447
▁ambas	-11.1447
▁banda	-11.1447
▁Men	-11.1448
▁chicahuac	-11.1451
▁Ter	-11.1453
▁vai	-11.1454
chiuh	-11.1454
▁sleep	-11.1455
▁define	-11.1455
▁reyi	-11.1456
reg	-11.1456
▁aré	-11.1459
▁floor	-11.1462
▁metztli	-11.1463
hor	-11.1464
▁expres	-11.1464
yetero	-11.1469
▁Public	-11.147
▁bilena	-11.147
xata	-11.1471
▁quedar	-11.1473
▁green	-11.1473
▁mate	-11.1475
pxi	-11.1476
▁tecatsi	-11.1478
▁fui	-11.1482
▁ijqui	-11.1483
▁kilo	-11.1483
▁documents	-11.1485
▁lines	-11.149
▁tkër	-11.1492
▁oike	-11.1492
▁fighting	-11.1493
?"	-11.1494
han	-11.1495
▁distritu	-11.1496
▁flood	-11.15
▁pollution	-11.15
▁adult	-11.1504
▁sacrifice	-11.1505
ndy	-11.1506
▁periodo	-11.1507
▁xekene	-11.151
▁sheep	-11.1511
▁card	-11.1511
▁debatir	-11.1517
▁tendremos	-11.1517
mor	-11.1518
huitl	-11.152
98	-11.1521
▁básica	-11.1523
▁definición	-11.1524
ney	-11.1529
▁mecanismo	-11.153
▁Nosotros	-11.1531
▁agosto	-11.1532
▁bamí	-11.1536
uximayatsika	-11.1537
▁nj	-11.1538
▁Hebrew	-11.1538
▁machine	-11.1539
▁normativa	-11.154
tus	-11.1542
taquero	-11.1544
tsari	-11.1545
▁yvypóra	-11.1546
ɛt	-11.1547
▁hinam	-11.1547
▁masá	-11.155
▁akham	-11.1551
▁relate	-11.1554
teyu	-11.1554
▁vehículos	-11.1556
▁privado	-11.1557
▁sides	-11.1558
▁February	-11.1561
cciones	-11.1567
▁Incluso	-11.1569
▁sudden	-11.1569
▁pleno	-11.1569
▁1991	-11.1569
quetza	-11.157
tiku	-11.1573
▁manaña	-11.1573
raquiwa	-11.1574
05	-11.1574
▁institucional	-11.1576
▁serving	-11.1578
16	-11.1579
▁kun	-11.1583
▁bomb	-11.1583
▁hin	-11.1584
▁trend	-11.1584
▁diversidad	-11.1584
▁hipame	-11.1585
▁hyanda	-11.1592
▁yuh	-11.1593
▁rain	-11.1594
▁intento	-11.1599
▁identidad	-11.16
▁profundo	-11.16
▁datsi	-11.1602
▁dapa	-11.1603
yete	-11.1604
▁suficientemente	-11.1606
▁competence	-11.1608
▁continua	-11.1609
▁niru	-11.1609
gh	-11.1611
▁Sól	-11.1613
▁arreglo	-11.1613
ychik	-11.1614
▁island	-11.1616
apjjam	-11.1617
▁prepare	-11.1617
thó	-11.1618
▁fraude	-11.1618
ley	-11.1618
▁suya	-11.1619
shed	-11.1621
▁Instituto	-11.1623
▁Popular	-11.1623
▁Washington	-11.1623
▁virtual	-11.1623
▁newspaper	-11.1624
toque	-11.1626
▁utiliza	-11.1628
▁arise	-11.163
▁acabar	-11.163
▁George	-11.163
▁consensus	-11.163
▁Epáña	-11.163
api	-11.1631
toria	-11.1631
▁civiles	-11.1635
▁expresa	-11.1635
txa	-11.1635
▁sarnak	-11.1635
▁comprehensive	-11.1638
▁impresión	-11.1638
▁species	-11.1638
▁overcome	-11.1638
▁reward	-11.1642
▁piri	-11.1643
▁Interior	-11.1646
▁negotiat	-11.1648
81	-11.1649
▁comfort	-11.1649
▁Nor	-11.1651
▁churin	-11.1652
▁tamí	-11.1653
▁inmediatamente	-11.166
▁solar	-11.1661
ef	-11.1661
▁governance	-11.1662
▁Mateo	-11.1662
95	-11.1664
ions	-11.1664
katei	-11.1668
tsixi	-11.1669
▁California	-11.1669
▁brutal	-11.1669
▁75	-11.1674
▁Cal	-11.1675
.”	-11.1675
uch	-11.1676
▁deriva	-11.1677
▁bilateral	-11.1677
cien	-11.1677
▁thuts	-11.1677
▁definition	-11.1678
tlahtōlli	-11.1679
▁reservas	-11.1679
▁notable	-11.1679
▁área	-11.1682
▁escribe	-11.1684
kite	-11.1684
▁OMC	-11.1685
▁qullqi	-11.1685
▁dimension	-11.1685
kia	-11.1687
ale	-11.1689
▁ambitious	-11.1692
▁identify	-11.1692
▁Xuua	-11.1692
▁parecía	-11.1692
▁repeat	-11.1694
ikuaa	-11.1695
▁decía	-11.1697
▁destinado	-11.1699
xan	-11.1701
▁hmanda	-11.1702
mata	-11.1703
▁Toda	-11.1705
▁conoce	-11.1707
▁moderna	-11.1708
▁apnaq	-11.1708
▁estilo	-11.1709
▁nsu	-11.1711
af	-11.1711
▁associate	-11.1712
▁bats	-11.1715
▁tackle	-11.1716
▁ucajj	-11.1716
▁peta	-11.1716
▁creemos	-11.1718
rista	-11.1719
ãhára	-11.1721
▁op	-11.1721
▁Moa	-11.1722
▁virus	-11.1722
umi	-11.1723
▁Control	-11.1723
cayotl	-11.1725
▁kàl	-11.1728
▁Jesusqa	-11.1729
▁significado	-11.1731
▁sensitive	-11.1732
▁socios	-11.1735
▁Ur	-11.1738
▁contrast	-11.1739
▁Third	-11.1739
▁chemical	-11.1739
▁GDP	-11.1739
▁sufrimiento	-11.174
▁interpret	-11.174
gas	-11.174
rama	-11.1743
▁acusa	-11.1743
▁avance	-11.1744
cé	-11.1744
rina	-11.1745
▁minutes	-11.1746
▁tiempopi	-11.1751
▁continent	-11.1751
▁married	-11.1752
▁inmigrantes	-11.1754
▁ejercer	-11.1754
▁leader	-11.1758
wani	-11.1759
▁fracaso	-11.1762
▁Us	-11.1765
▁Fer	-11.1765
▁idioma	-11.1767
ega	-11.1768
kaki	-11.1769
▁gather	-11.1771
▁utt	-11.1771
aspa	-11.178
▁nana	-11.1781
▁Bel	-11.1784
Na	-11.1785
▁blogs	-11.1787
yame	-11.179
▁immediate	-11.1791
mbe	-11.1794
misa	-11.1794
▁marcanaca	-11.1795
▁uñst	-11.1795
▁tima	-11.1796
▁evident	-11.1798
▁bø	-11.1799
▁meyu	-11.1799
▁Pra	-11.18
▁race	-11.18
▁involv	-11.18
▁Ali	-11.1801
▁evil	-11.1801
▁vakapipopo	-11.1801
▁ācatl	-11.1801
ang	-11.1802
▁distintas	-11.1806
▁humanitaria	-11.1806
▁áreas	-11.1806
▁ciudadano	-11.1807
▁género	-11.1809
rico	-11.1809
dera	-11.181
▁planteamiento	-11.181
▁reserve	-11.1811
▁Inter	-11.1811
07	-11.1812
mete	-11.1814
tawan	-11.1815
imé	-11.1816
▁adoptada	-11.1816
▁grateful	-11.1817
▁Actual	-11.1818
▁ië	-11.182
▁supposed	-11.1821
▁tri	-11.1822
▁noticia	-11.1823
RA	-11.1825
▁unga	-11.1826
▁dichos	-11.1827
▁Hong	-11.1829
▁teko	-11.1831
▁concluir	-11.1833
▁cita	-11.1833
▁shiyakantsi	-11.1834
▁kipatsi	-11.1834
riká	-11.1837
▁invit	-11.1837
▁tlal	-11.1841
pot	-11.1841
▁escape	-11.1842
▁inevitable	-11.1844
▁Isa	-11.1848
▁tene	-11.1848
▁restrict	-11.1848
▁ittökatapa	-11.1848
▁fiscales	-11.1849
▁nimo	-11.1852
▁penal	-11.1852
▁Humanos	-11.1852
▁recognize	-11.1855
ota	-11.1855
anaque	-11.1855
▁encouraging	-11.1856
eha	-11.1858
▁flag	-11.1858
▁inicial	-11.1859
▁ucan	-11.1863
▁usuarios	-11.1864
▁ánjeli	-11.1864
▁diseases	-11.1864
▁consultation	-11.1865
paruw	-11.1865
▁gawí	-11.1865
▁título	-11.1872
▁keskati	-11.1872
▁tuvieron	-11.1872
▁terroristas	-11.1873
▁author	-11.1875
▁pose	-11.1876
▁uc	-11.1879
▁pago	-11.1879
▁representan	-11.1879
▁gradual	-11.188
▁1989	-11.1881
▁Life	-11.1883
▁ut	-11.1885
▁display	-11.1888
nkir	-11.1893
▁plants	-11.1898
jtoya	-11.19
gle	-11.19
▁deporte	-11.1902
ab	-11.1902
▁agencies	-11.1904
▁lliw	-11.1904
▁restore	-11.1905
▁njaua	-11.1905
▁Regional	-11.1907
▁vaya	-11.1909
▁pasos	-11.191
nada	-11.1914
nakar	-11.1914
▁oikóva	-11.1915
▁harm	-11.1916
ake	-11.1918
▁reto	-11.1919
▁household	-11.192
▁dudas	-11.192
ykuna	-11.1922
▁Vo	-11.1922
▁osa	-11.1925
09	-11.1926
▁technologies	-11.1927
▁running	-11.1928
▁relato	-11.1929
wesi	-11.193
▁rapid	-11.1931
égui	-11.1932
px	-11.1932
▁mʉi	-11.1932
▁abandonar	-11.1933
ngi	-11.1935
▁Vyretáña	-11.1935
▁jepe	-11.1936
▁ohasa	-11.1937
▁urqu	-11.1938
▁Jewish	-11.1944
▁pocas	-11.1946
▁played	-11.1948
tlā	-11.1949
▁Alekeri	-11.195
▁Media	-11.1951
▁kampa	-11.1951
▁heavy	-11.1951
▁seguirá	-11.1952
huaya	-11.1959
▁podrán	-11.196
art	-11.1961
▁especiales	-11.1962
▁oreko	-11.1964
manmi	-11.1964
▁hanaq	-11.1965
▁limitar	-11.1967
▁uñacht	-11.1967
▁ph	-11.1968
kopi	-11.1969
▁físico	-11.1975
▁jesús	-11.1975
▁MEP	-11.1976
▁idir	-11.1978
tación	-11.1979
▁consumption	-11.1979
▁Gar	-11.198
sqanchik	-11.1981
▁recuperación	-11.1984
▁dirigente	-11.1986
▁celebr	-11.1986
kta	-11.1987
▁líneas	-11.1988
tting	-11.1989
EN	-11.1989
▁slave	-11.1991
▁Ipan	-11.1991
▁Indonesia	-11.1991
▁violation	-11.1992
▁nejé	-11.1994
▁pos	-11.1995
▁ejemplos	-11.1996
▁proceed	-11.1999
tiz	-11.1999
▁promised	-11.2002
▁explains	-11.2003
▁signed	-11.2003
▁oña	-11.2006
▁parlamentaria	-11.2007
%	-11.2007
▁adopte	-11.2008
neni	-11.201
yamipa	-11.2013
▁mission	-11.2014
naypaq	-11.2016
▁push	-11.2019
lina	-11.202
▁bio	-11.202
tiy	-11.2023
▁hour	-11.2023
dar	-11.2024
▁opyta	-11.2024
like	-11.2025
▁Noé	-11.2026
▁libra	-11.2026
▁corre	-11.2027
niw	-11.2028
tlajtol	-11.2028
▁tembi	-11.2028
35	-11.2029
meta	-11.203
▁army	-11.2032
tanaca	-11.2032
▁alimentaria	-11.2033
▁Under	-11.2033
06	-11.2036
▁1993	-11.204
▁Chipre	-11.204
▁mawá	-11.2041
▁pet	-11.2042
▁endorse	-11.2043
▁espirituales	-11.2043
mie	-11.2044
▁Oñe	-11.2045
▁xobonko	-11.2046
pachaw	-11.2046
ajiri	-11.2046
▁científica	-11.2047
▁cruel	-11.2047
▁Testigo	-11.205
▁conscience	-11.2055
▁fortalecer	-11.2057
yen	-11.2057
▁digo	-11.2061
form	-11.2062
▁impulso	-11.2063
▁operate	-11.2063
▁denuncia	-11.2063
▁tiquin	-11.2065
▁conforme	-11.2065
▁incluido	-11.2066
sua	-11.2068
▁apertura	-11.2071
▁falsa	-11.2071
▁pasada	-11.2071
nahuati	-11.2072
wise	-11.2072
▁trabajos	-11.2072
▁asumir	-11.2072
▁ipampa	-11.2074
cing	-11.2075
▁aqui	-11.2075
▁emerge	-11.2077
▁areko	-11.2081
▁muerto	-11.2083
▁bíblica	-11.2083
▁plena	-11.2083
max	-11.2084
asy	-11.2084
reta	-11.2084
▁assume	-11.2085
▁utanaka	-11.2087
▁ought	-11.2087
▁privilegio	-11.2087
▁tiniwarutah	-11.2089
▁paka	-11.2089
▁tree	-11.2092
▁fraud	-11.2094
▁flesh	-11.2096
oli	-11.2096
▁yum	-11.2097
▁coco	-11.2099
▁Bra	-11.21
▁Samaria	-11.2106
arieka	-11.2109
▁masa	-11.211
▁Fo	-11.2111
▁Asociación	-11.2112
▁eficiencia	-11.2112
▁timatsiri	-11.2114
▁ipi	-11.2115
pidió	-11.2115
wer	-11.2117
unt	-11.2117
▁strict	-11.2119
▁pädi	-11.2119
▁tōnalli	-11.212
▁religiosa	-11.2124
▁churigá	-11.2127
nola	-11.2127
▁determine	-11.2127
▁teléfono	-11.2128
▁cen	-11.2129
▁juez	-11.213
utiyuane	-11.213
▁command	-11.2133
cie	-11.2133
vio	-11.2134
▁hoja	-11.2135
▁termina	-11.2135
▁otherwise	-11.2137
mpejj	-11.2139
▁qua	-11.2139
▁utilización	-11.2141
pur	-11.2143
▁37	-11.2149
▁pagan	-11.215
96	-11.2152
▁Nayriri	-11.2152
teca	-11.2153
lling	-11.2153
our	-11.2154
▁sol	-11.2156
▁bondad	-11.2157
▁Sobre	-11.2157
▁apt	-11.2159
▁Barcelona	-11.216
tziri	-11.2161
her	-11.2162
▁wind	-11.2167
▁ethnic	-11.2168
ninta	-11.217
▁warn	-11.2172
▁pene	-11.2174
▁wage	-11.2177
▁Before	-11.2177
▁experiment	-11.2177
▁Diosax	-11.2179
▁sata	-11.218
▁afrontar	-11.2182
ayäna	-11.2183
yohui	-11.2184
▁vías	-11.2187
pped	-11.2187
▁tlacamej	-11.2187
▁maine	-11.219
▁solicitud	-11.2192
▁nílige	-11.2192
échi	-11.2198
pani	-11.2199
mpita	-11.2199
▁salvar	-11.2201
▁praise	-11.2202
▁maj	-11.2202
▁wani	-11.2204
▁hinan	-11.2208
▁Juma	-11.2208
changing	-11.2209
▁Polonia	-11.2209
▁asegura	-11.2209
alt	-11.221
▁barco	-11.2211
▁Saul	-11.2211
▁dirigir	-11.2214
ious	-11.2214
▁deseos	-11.2214
▁Oh	-11.2215
use	-11.2215
▁manifestar	-11.2217
▁dehe	-11.2217
▁massive	-11.2218
▁reales	-11.222
▁tinitah	-11.2224
jeiteri	-11.2226
▁rabi	-11.2226
▁lei	-11.2227
pampi	-11.2227
nili	-11.2228
let	-11.223
▁kui	-11.2234
utiyuat	-11.2235
▁debía	-11.2239
▁nenqui	-11.224
▁antiguo	-11.224
▁payqa	-11.224
▁zofo	-11.2243
▁sad	-11.2244
▁puesta	-11.2247
▁observar	-11.2248
ami	-11.225
▁drink	-11.225
▁ukaxa	-11.225
▁fiero	-11.225
gov	-11.2252
▁dimensi	-11.2254
▁kawsay	-11.2255
yet	-11.2258
liga	-11.226
▁educa	-11.2262
▁presentes	-11.2262
▁inmech	-11.2263
▁Gal	-11.2263
▁institution	-11.2265
▁técnica	-11.2265
▁dispute	-11.2266
▁janiraquiw	-11.2267
▁waiting	-11.2267
flo	-11.2267
ER	-11.2268
▁correspondiente	-11.2268
naro	-11.2269
▁sinti	-11.2269
▁mane	-11.2271
▁malo	-11.2271
▁34	-11.2271
fully	-11.2273
▁unión	-11.2274
▁nampitsi	-11.2275
▁detalles	-11.2276
zz	-11.2279
▁acto	-11.228
▁figures	-11.228
ámala	-11.2282
RE	-11.2283
▁paro	-11.2285
kunapaq	-11.2285
xtla	-11.2286
▁purposes	-11.2287
▁pimp	-11.2289
▁pick	-11.2289
▁jumanacajj	-11.229
▁reply	-11.2291
▁yoinabo	-11.2292
ike	-11.2294
nakasti	-11.2295
▁wetsabo	-11.2298
▁alguno	-11.2299
▁opurahéiva	-11.2299
saká	-11.2301
▁janirakiw	-11.2301
sare	-11.2301
▁Sta	-11.2306
▁inteligente	-11.2307
▁Muslim	-11.2308
▁sinta	-11.2308
▁mecanismos	-11.2308
pake	-11.2309
▁tka	-11.2309
▁kunan	-11.2309
▁simile	-11.2311
ví	-11.2311
▁users	-11.2314
▁recall	-11.2315
23	-11.2315
▁norma	-11.2315
▁approval	-11.2316
▁Podría	-11.2316
▁benxoa	-11.232
▁standing	-11.232
▁Mag	-11.232
▁Zidadahʉ	-11.2321
▁witsi	-11.2322
▁cometido	-11.2324
▁Val	-11.2327
▁señalado	-11.2328
ano	-11.2329
▁asesinato	-11.2332
▁tōchtli	-11.2332
▁gite	-11.2332
▁quimati	-11.2334
▁Tras	-11.2335
▁baptized	-11.2335
ico	-11.2336
vá	-11.2337
▁nisa	-11.2338
jki	-11.2339
▁revis	-11.2342
▁mitã	-11.2342
dé	-11.2344
mashi	-11.2344
▁bautiza	-11.2346
tixe	-11.2348
▁uelis	-11.235
▁hap	-11.2351
▁centrar	-11.2351
▁llena	-11.2352
▁anmech	-11.2353
ztli	-11.2355
▁subrayar	-11.2357
▁pareja	-11.2357
▁mechanism	-11.2358
Bʉ	-11.2358
▁assist	-11.2359
▁release	-11.2359
▁Quena	-11.2361
égame	-11.2363
▁Kha	-11.2365
▁amuy	-11.2365
quij	-11.2366
▁nubyá	-11.2366
▁nayrakata	-11.2367
cked	-11.2368
cional	-11.2368
dí	-11.2371
inta	-11.2373
gram	-11.2373
▁caballo	-11.2373
▁disfrutar	-11.2374
▁imaa	-11.2377
▁oñepyrũ	-11.2379
▁pasó	-11.2379
▁décadas	-11.2379
93	-11.238
▁divide	-11.238
▁campos	-11.2381
▁constitute	-11.2382
name	-11.2384
▁Report	-11.2384
▁parent	-11.2385
▁organisation	-11.2385
▁llevó	-11.2385
▁tø	-11.2387
▁dänga	-11.2387
▁amech	-11.2388
tqui	-11.2389
▁quiso	-11.2389
▁errores	-11.2391
▁böl	-11.2391
meri	-11.2392
▁blame	-11.2392
▁ikanti	-11.2393
▁merc	-11.2395
▁transparente	-11.2397
▁sociedades	-11.2398
▁thou	-11.24
work	-11.2401
▁vea	-11.2403
▁personales	-11.2404
▁react	-11.2405
▁prefer	-11.2406
▁divina	-11.2407
▁agrícolas	-11.2407
▁miemetexi	-11.2409
26	-11.2409
▁yamipa	-11.241
iwama	-11.2411
▁luraña	-11.2411
▁munaku	-11.2414
guí	-11.2414
▁reacción	-11.2415
▁operaciones	-11.2417
▁imi	-11.2419
▁Onorúgamete	-11.242
▁Ngu	-11.2424
▁tlahuel	-11.2425
▁invent	-11.2427
▁occurr	-11.2427
▁statements	-11.2427
▁arca	-11.2429
▁yʉt	-11.2429
▁efectiva	-11.243
kema	-11.243
nsti	-11.243
▁marcan	-11.2431
▁obstacle	-11.2432
▁oír	-11.2435
ynin	-11.2436
kök	-11.2436
▁onanke	-11.2437
▁Israelan	-11.2439
tema	-11.2439
▁makué	-11.244
▁bienes	-11.245
▁Debería	-11.245
▁keskáakin	-11.2451
▁publicado	-11.2451
rema	-11.2453
▁weak	-11.2455
▁inspired	-11.2455
▁informed	-11.2456
▁ysyry	-11.2456
▁teoría	-11.2457
▁kuña	-11.246
pol	-11.246
hecha	-11.2461
▁developments	-11.2463
▁literal	-11.2465
▁linked	-11.2466
▁ayudará	-11.2466
▁targets	-11.2469
▁walt	-11.2469
kaik	-11.2469
▁jal	-11.247
▁López	-11.2474
▁histórico	-11.2474
▁kiekatari	-11.2474
▁pasajeros	-11.2474
▁elegido	-11.2474
▁otla	-11.2475
▁hnequi	-11.2476
21	-11.2476
reko	-11.2477
▁amistad	-11.2478
oja	-11.2478
▁Socialist	-11.2481
▁recovery	-11.2484
hayewa	-11.2484
▁entera	-11.2485
▁dije	-11.2486
▁vulnerable	-11.2494
▁ø	-11.2497
▁iva	-11.2498
▁similares	-11.2499
naykipaq	-11.2499
▁llamamiento	-11.2501
▁Tar	-11.2501
▁manage	-11.2502
▁Enra	-11.2504
▁askha	-11.2504
▁controles	-11.2506
▁invite	-11.2506
apjje	-11.2506
como	-11.2507
▁heko	-11.2507
petay	-11.2508
▁Wo	-11.2511
tlaj	-11.2512
▁deeply	-11.2513
▁Yë	-11.2514
▁precisa	-11.2516
▁ter	-11.2516
▁privilege	-11.2518
▁mandate	-11.2519
▁bokana	-11.252
▁assess	-11.2523
iriri	-11.2523
ham	-11.2523
nxa	-11.2523
▁ñanarentsi	-11.2524
▁Aitaque	-11.2524
▁nokame	-11.2524
lly	-11.2525
▁significativa	-11.2526
▁paga	-11.2526
▁prevention	-11.2526
▁solid	-11.2534
▁njap	-11.2534
▁Turkish	-11.2541
▁Israelites	-11.2543
▁oye	-11.2544
japo	-11.2545
▁Xa	-11.2546
▁London	-11.255
▁fieles	-11.2551
yaritsie	-11.2552
▁rock	-11.2555
kurqan	-11.2555
▁pagos	-11.2556
▁gʉ	-11.2558
▁tiwa	-11.2558
▁piedra	-11.2558
▁kuimba	-11.2559
illa	-11.2566
▁prisión	-11.2566
nquiri	-11.257
▁kaa	-11.2571
▁chik	-11.2574
▁indispensable	-11.2575
▁wahets	-11.2577
▁gohi	-11.258
▁holding	-11.2581
▁mochiuh	-11.2581
stin	-11.2582
▁permiso	-11.2583
▁Eastern	-11.2583
▁menia	-11.2586
tada	-11.2586
▁grí	-11.2587
▁sell	-11.2589
posiciones	-11.259
▁tlahtohuani	-11.2592
▁coherente	-11.2592
tric	-11.2594
arojj	-11.2594
end	-11.2594
▁zø	-11.2595
▁guide	-11.2595
▁foundation	-11.2598
▁nimantzi	-11.2598
97	-11.2601
▁pies	-11.2602
▁arma	-11.2603
▁Ministros	-11.2604
▁boja	-11.2605
▁peẽme	-11.2605
▁akanai	-11.2606
ykichis	-11.2606
▁Zi	-11.2606
▁river	-11.2607
▁Every	-11.261
▁poll	-11.2611
▁pil	-11.2611
rist	-11.2612
▁simí	-11.2612
▁ignore	-11.2612
bores	-11.2614
▁Rather	-11.2616
▁jilïri	-11.2616
▁University	-11.2617
▁flexibilidad	-11.2617
rup	-11.2621
apx	-11.2623
▁sábado	-11.2626
▁oblig	-11.2631
tun	-11.2633
▁personally	-11.2633
▁provincia	-11.2634
▁Bosnia	-11.2634
org	-11.2635
▁wai	-11.2635
▁struggle	-11.2636
▁mote	-11.2642
▁gender	-11.2643
▁cells	-11.2644
▁acceptabl	-11.2644
▁escribir	-11.2646
▁Way	-11.2646
▁weight	-11.2646
oh	-11.2648
▁opción	-11.2648
▁fuertes	-11.2648
▁Environment	-11.2649
▁apropiada	-11.2651
▁entitled	-11.2651
▁estuviera	-11.2651
▁schools	-11.2653
▁wañusqa	-11.2655
ular	-11.2655
▁destino	-11.2657
▁code	-11.2657
▁aqham	-11.2661
▁plantas	-11.2661
siga	-11.2662
▁iklö	-11.2664
▁fan	-11.2666
chisqa	-11.2669
▁fit	-11.2672
guihʉ	-11.2673
▁firmemente	-11.2675
▁observación	-11.2675
▁afectada	-11.2675
▁crítica	-11.2676
▁categoría	-11.2677
teji	-11.2677
▁cuota	-11.2679
▁regulación	-11.268
var	-11.268
entes	-11.2683
▁revolution	-11.2684
éame	-11.2685
▁experiencias	-11.2685
▁menores	-11.2686
▁iniciar	-11.2686
▁ndaha	-11.2687
▁Robert	-11.2687
▁markanaka	-11.2688
▁ucat	-11.269
▁itztoque	-11.2692
▁complejo	-11.2694
▁País	-11.2695
▁planning	-11.2695
▁jamás	-11.2695
yuku	-11.2698
▁sight	-11.2698
▁playing	-11.2698
▁píri	-11.2698
▁petay	-11.2699
92	-11.2702
▁eficiente	-11.2702
▁Soviet	-11.2702
▁Indian	-11.2703
▁presentó	-11.2703
▁apnak	-11.2706
▁experts	-11.2706
▁planta	-11.2707
▁religiosos	-11.2708
wiri	-11.2708
▁asistir	-11.2709
▁Trade	-11.2709
▁kha	-11.271
rakiw	-11.2711
▁recuerdo	-11.2711
▁website	-11.2711
▁ttekölpa	-11.2712
leg	-11.2713
mù	-11.2714
▁promises	-11.2714
▁homes	-11.2715
▁Mil	-11.2715
▁Prodi	-11.2716
▁aceptable	-11.2717
dimos	-11.2717
▁Ambiente	-11.272
▁numerous	-11.272
▁thy	-11.272
▁quichihuaj	-11.272
▁Jesussen	-11.2722
▁expectation	-11.2722
45	-11.2723
▁facilita	-11.2724
▁estima	-11.2724
antyari	-11.2725
▁páginas	-11.2726
▁sö	-11.2727
kha	-11.2727
▁galírale	-11.2728
▁profecía	-11.2728
▁aleripa	-11.2729
chö	-11.2729
▁debajo	-11.2729
▁lee	-11.2729
▁ministers	-11.2731
▁créditos	-11.2734
úpe	-11.2735
▁imágenes	-11.2737
▁repercusi	-11.2737
▁futura	-11.2737
▁transparent	-11.2739
▁yama	-11.274
▁ova	-11.274
täna	-11.2742
rte	-11.2743
blo	-11.2743
▁writes	-11.2745
▁Have	-11.2746
nkichis	-11.2747
pres	-11.2747
▁kita	-11.275
dá	-11.275
▁kori	-11.2754
▁trabajan	-11.2756
usa	-11.2758
vu	-11.2761
24	-11.2762
▁ropa	-11.2762
▁Bernabé	-11.2763
▁huts	-11.2763
▁diseño	-11.2769
▁xeikía	-11.277
▁carbon	-11.277
▁premio	-11.2773
▁awin	-11.2774
keri	-11.2774
matl	-11.2775
▁oha	-11.2778
ov	-11.2778
▁guía	-11.2779
▁jikxat	-11.2781
▁leav	-11.2781
▁tareas	-11.2781
▁negociación	-11.2782
cimiento	-11.2783
83	-11.2786
▁seguimiento	-11.2789
▁salva	-11.2789
▁yvate	-11.2792
▁treated	-11.2793
border	-11.2796
▁2011-2014	-11.2797
▁2015	-11.2799
▁itsipa	-11.2801
araquïna	-11.2801
▁debida	-11.2806
▁enormes	-11.2806
aji	-11.2807
▁presupuestaria	-11.2808
▁tribunal	-11.2808
86	-11.2809
derstood	-11.2815
▁quedan	-11.2816
apjj	-11.2817
▁kanih	-11.2817
mik	-11.2819
eth	-11.2819
pal	-11.282
▁pikota	-11.2821
ava	-11.2822
▁escritor	-11.2822
▁medicamentos	-11.2823
ẖu	-11.2823
▁distrito	-11.2823
▁counter	-11.2824
▁osẽ	-11.283
▁Ay	-11.2831
▁Afghanistan	-11.2832
▁urban	-11.2833
▁Poland	-11.2834
▁Uqham	-11.2835
▁tratando	-11.2835
▁situations	-11.2836
hto	-11.2837
ug	-11.2837
quita	-11.284
tewa	-11.284
▁Pakistán	-11.2841
▁constructive	-11.2841
▁Josué	-11.2841
▁kimisha	-11.2841
chin	-11.2841
▁Yvy	-11.2842
cate	-11.2846
▁Jerusale	-11.2847
▁36	-11.2847
▁wañuchi	-11.2849
▁pleasure	-11.2849
▁nóchame	-11.285
ulu	-11.2851
▁Icanta	-11.2851
▁bra	-11.2851
▁pilar	-11.2856
chwan	-11.2857
▁tawa	-11.2858
▁soberanía	-11.2858
▁senenha	-11.286
▁década	-11.2861
tsite	-11.2863
▁ukhamarak	-11.2863
tibo	-11.2866
quixti	-11.2866
▁virtud	-11.2867
▁double	-11.2867
▁romano	-11.2868
ome	-11.2873
▁atipanke	-11.2876
AR	-11.2879
▁viva	-11.2879
ev	-11.2879
nkuna	-11.2882
▁hogares	-11.2882
▁inmediato	-11.2884
▁expos	-11.2884
tsiri	-11.2886
▁mouth	-11.2891
▁Oje	-11.2892
▁duro	-11.2892
▁wonderful	-11.2892
arios	-11.2892
▁juman	-11.2893
▁excessive	-11.2893
▁opt	-11.2896
china	-11.2896
▁kare	-11.2898
▁reyix	-11.2898
▁idi	-11.29
cayo	-11.2902
▁leadership	-11.2902
▁Bre	-11.2904
squíaj	-11.2904
▁gre	-11.2905
▁crimes	-11.2906
▁comentario	-11.2906
▁munaña	-11.2909
▁centrales	-11.291
▁Research	-11.291
▁anointed	-11.291
▁velocidad	-11.291
fraid	-11.291
▁batamik	-11.291
▁Charter	-11.2911
▁nine	-11.2913
iso	-11.2913
▁socio	-11.2916
yohʉ	-11.2919
▁búsqueda	-11.2919
yøthʉ	-11.292
▁ndí	-11.292
▁corta	-11.2921
▁south	-11.2922
▁mundiales	-11.2922
uan	-11.2927
▁prophet	-11.2927
▁terrestre	-11.2928
▁jicjjat	-11.2928
ísi	-11.2929
▁neskara	-11.2929
▁entorno	-11.2929
▁consideran	-11.2929
▁NL	-11.2932
tec	-11.2932
▁willaku	-11.2934
ixeiya	-11.2935
▁Canadá	-11.2937
cah	-11.2937
▁ilustra	-11.2938
inti	-11.294
▁Read	-11.2944
▁isla	-11.2945
▁Britain	-11.2946
▁supervisión	-11.2946
▁happiness	-11.2946
▁estaría	-11.2949
▁hake	-11.2951
▁prospect	-11.2952
▁kuinie	-11.2952
▁Res	-11.2953
▁oriental	-11.2954
▁jananekipe	-11.2954
▁vuelta	-11.2954
▁shift	-11.2955
ayat	-11.2956
▁antaro	-11.2956
▁female	-11.2956
▁haika	-11.2958
▁drá	-11.2958
uq	-11.2962
wágame	-11.2963
▁negativo	-11.2963
▁ampliar	-11.2965
▁Kamachi	-11.2966
37	-11.2968
▁Cla	-11.2968
▁writer	-11.297
dora	-11.297
rix	-11.2971
▁logra	-11.2971
▁prophecy	-11.2972
▁Sar	-11.2972
▁alegra	-11.2974
kunaq	-11.2976
▁perfectamente	-11.2977
▁achi	-11.2978
▁ido	-11.298
▁qelqa	-11.2981
°	-11.2981
▁destroyed	-11.2981
▁nochá	-11.2982
tequipano	-11.2984
▁dedicado	-11.2986
▁Taqi	-11.299
▁uadi	-11.2991
▁batalla	-11.2992
yetakeri	-11.2993
▁middle	-11.2993
▁pota	-11.2995
▁espiritu	-11.2996
▁afectados	-11.2996
▁throw	-11.2998
▁blind	-11.2999
▁Hence	-11.2999
▁collective	-11.2999
▁renewable	-11.2999
▁prisoner	-11.3002
▁sintla	-11.3002
▁investigation	-11.3002
▁jupajj	-11.3002
temo	-11.3003
47	-11.3004
ill	-11.3005
▁camanali	-11.3007
▁divine	-11.3008
▁visa	-11.3011
▁xeni	-11.3011
aitian	-11.3012
▁acha	-11.3012
▁imo	-11.3013
ese	-11.3014
▁courage	-11.3015
▁egipcio	-11.3016
▁reyejj	-11.3017
▁abogado	-11.3017
▁lenguaje	-11.3018
▁abis	-11.3019
▁sit	-11.3022
▁400	-11.3024
▁domingo	-11.3025
▁ucajja	-11.3025
▁recomendaciones	-11.3025
▁Eva	-11.3026
pasa	-11.3027
▁Del	-11.3028
▁realiz	-11.3028
91	-11.3028
56	-11.3029
chtli	-11.3029
rwa	-11.3031
▁elaborar	-11.3032
▁gap	-11.3034
▁convention	-11.3035
lö	-11.3035
▁salt	-11.3037
▁unique	-11.3037
ified	-11.3038
▁kanan	-11.3041
▁referendum	-11.3043
▁zøhø	-11.3043
▁max	-11.3043
hí	-11.3043
yacan	-11.3044
▁property	-11.3045
▁irotake	-11.3045
rúame	-11.3046
▁ONU	-11.3051
▁behavior	-11.3051
▁mhää	-11.3051
▁oppos	-11.3055
▁baritia	-11.3056
.3	-11.3059
añch	-11.3061
rieni	-11.3061
tyaro	-11.3061
▁querido	-11.3064
part	-11.3067
bom	-11.3068
▁Agenda	-11.307
33	-11.307
iji	-11.3071
▁obliga	-11.3072
tzitzi	-11.3077
polo	-11.3077
▁artificial	-11.3078
▁confiar	-11.308
▁Pegro	-11.308
▁determinada	-11.3081
▁promete	-11.3081
kà	-11.3086
▁wër	-11.3087
▁Japanese	-11.3087
▁membership	-11.3088
icatza	-11.3092
▁timi	-11.3092
▁metros	-11.3093
sio	-11.3094
eriwa	-11.3097
66	-11.3097
▁taqpach	-11.3097
▁conversation	-11.3097
▁Pay	-11.3099
rblé	-11.3101
▁Ger	-11.3101
▁background	-11.3105
▁cap	-11.3105
▁tele	-11.3106
▁careful	-11.3107
bʉhni	-11.311
vert	-11.311
Imaynata	-11.3113
▁valuable	-11.3114
▁turismo	-11.3114
rlos	-11.3115
85	-11.3117
▁altos	-11.3118
▁cielos	-11.3119
▁ark	-11.312
▁fat	-11.3121
▁rö	-11.3122
▁Rama	-11.3122
▁garantía	-11.3122
cojo	-11.3123
yemisantaririnte	-11.3123
▁ntsu	-11.3123
▁justa	-11.3123
tökicha	-11.3124
▁phaxsi	-11.3124
▁antiguos	-11.3124
▁confront	-11.3124
amti	-11.3126
▁consist	-11.3127
▁jisa	-11.3128
▁existir	-11.3128
▁quiseli	-11.313
▁mbohapy	-11.3132
▁Agencia	-11.3132
▁kitule	-11.3132
▁runakunaqa	-11.3134
▁ojapóva	-11.3134
leey	-11.3139
▁sala	-11.3141
▁contribuye	-11.3143
▁imatapas	-11.3146
▁farm	-11.3149
▁strange	-11.315
▁Awki	-11.315
▁reqsi	-11.3153
▁carro	-11.3154
▁lie	-11.3154
wakai	-11.3155
▁catok	-11.3157
▁china	-11.3158
▁unilateral	-11.3158
76	-11.316
▁remove	-11.316
tinemi	-11.3162
▁diga	-11.3163
▁iku	-11.3167
▁electricidad	-11.3168
▁tro	-11.3168
▁Women	-11.3168
▁tuviera	-11.3169
▁utilizado	-11.317
▁observaciones	-11.317
nkuta	-11.3171
gal	-11.3175
▁mor	-11.3175
▁punta	-11.3175
▁centuries	-11.3176
▁promoción	-11.3176
▁minor	-11.3178
▁quiijtohua	-11.3178
▁sempa	-11.3178
▁pano	-11.318
ches	-11.3183
▁valid	-11.3183
▁quedado	-11.3183
▁ralámulika	-11.3184
▁directo	-11.3185
▁fija	-11.3185
▁cristiandad	-11.3185
▁profesionales	-11.3187
▁achka	-11.3187
sus	-11.3187
▁significativo	-11.319
▁familiares	-11.3193
▁energético	-11.3194
▁manifiesto	-11.3194
▁líder	-11.3197
▁Ora	-11.3198
▁session	-11.32
▁below	-11.3204
▁eltoc	-11.3205
▁járome	-11.3206
▁extremada	-11.3207
pacho	-11.321
diversity	-11.3212
▁hurt	-11.3215
bua	-11.322
▁Hyãsia	-11.322
▁Tim	-11.3221
▁distribución	-11.3222
▁júkó	-11.3223
▁edificio	-11.3223
▁yol	-11.3224
▁chó	-11.3226
▁adicionales	-11.3228
▁secreto	-11.3228
67	-11.3228
▁decade	-11.323
▁amp	-11.323
▁PIB	-11.3231
▁inflation	-11.3231
65	-11.3232
▁desafío	-11.3232
▁Witness	-11.3233
▁aprecia	-11.3233
▁representante	-11.3235
nico	-11.3237
▁delegación	-11.324
▁tabaco	-11.324
▁aprobada	-11.324
▁Saulo	-11.3241
▁gua	-11.3241
nará	-11.3242
▁tsø	-11.3242
▁comunitarias	-11.3242
bl	-11.3243
itian	-11.3243
tempi	-11.3245
▁plano	-11.3246
ib	-11.3246
▁yokata	-11.3249
▁parlamento	-11.3249
▁variet	-11.3259
▁150	-11.326
▁Egyptian	-11.326
▁namuti	-11.3267
▁células	-11.3268
▁Jerusalen	-11.3269
▁capable	-11.327
▁extraordinaria	-11.327
▁derecha	-11.3271
nene	-11.3271
kwakpa	-11.3272
▁See	-11.3273
▁Afganistán	-11.3276
▁Nemachiyōtīlli	-11.3276
▁fenómeno	-11.3276
▁urgencia	-11.3278
pel	-11.3279
ear	-11.328
▁quota	-11.3285
▁phuqha	-11.3285
▁sulusi	-11.3286
▁exception	-11.3287
▁biti	-11.3287
apki	-11.3288
taha	-11.3291
▁collect	-11.3292
íchame	-11.3293
▁silencio	-11.3294
▁confi	-11.3295
▁limpia	-11.3298
▁Piens	-11.3303
TS	-11.3304
ezca	-11.3304
NI	-11.3304
▁medianas	-11.3305
uchu	-11.3305
▁formar	-11.3305
taquejj	-11.3305
▁llapallan	-11.3306
▁paciente	-11.3306
▁yapu	-11.3308
▁interesado	-11.3309
▁Time	-11.3312
ON	-11.3312
▁detrás	-11.3312
▁aéreo	-11.3313
maya	-11.3314
▁stone	-11.3315
▁ukanaka	-11.3318
▁endure	-11.3319
scar	-11.332
▁verde	-11.3321
gada	-11.3322
▁cheke	-11.3323
▁dijeron	-11.3323
▁Syria	-11.3324
▁concretas	-11.3327
▁ricos	-11.3328
▁adequate	-11.3331
▁pine	-11.3331
gur	-11.3332
▁obstáculos	-11.3332
▁attach	-11.3334
▁taxes	-11.3334
▁Canada	-11.3336
▁alaköl	-11.3338
▁partner	-11.3339
.5	-11.3339
▁manipula	-11.334
▁alemán	-11.334
▁2014	-11.3341
tta	-11.3342
▁god	-11.3342
▁jeman	-11.3343
▁churi	-11.3343
xti	-11.3344
▁pira	-11.3345
▁minorías	-11.3347
▁boy	-11.3347
▁frecuente	-11.3349
▁mburuvicha	-11.3349
▁causas	-11.335
▁confia	-11.3351
glo	-11.3352
▁yemek	-11.3353
28	-11.3354
▁Mba	-11.3356
▁manuy	-11.3358
▁meripai	-11.3358
nanchispaq	-11.3359
llata	-11.336
▁map	-11.336
boi	-11.3363
▁constantly	-11.3364
▁closed	-11.3365
▁suyuxa	-11.3365
▁shin	-11.3365
▁north	-11.3367
▁historical	-11.337
▁cifra	-11.3372
▁Iri	-11.3373
▁mawata	-11.3373
tali	-11.3373
rah	-11.3376
▁Christendom	-11.3376
▁welfare	-11.3376
▁tlama	-11.3378
cí	-11.3378
light	-11.3378
▁adicional	-11.338
lico	-11.3381
▁Jupa	-11.3383
▁Centro	-11.3386
▁llaki	-11.3386
▁saraquïnwa	-11.3387
▁leche	-11.339
▁nuga	-11.3392
▁electrónico	-11.3395
▁taheima	-11.3395
avo	-11.3395
ense	-11.3396
▁armonización	-11.3396
lec	-11.3398
▁summer	-11.3399
▁negocios	-11.3399
nstead	-11.3402
nwa	-11.3405
75	-11.3406
▁icanti	-11.3409
▁Moise	-11.3411
▁Would	-11.3413
▁alá	-11.3416
▁incremento	-11.3418
▁suspend	-11.342
tsate	-11.342
78	-11.3422
ically	-11.3424
▁opina	-11.3426
27	-11.3427
ríamos	-11.3431
▁sharing	-11.3432
tzintli	-11.3432
▁carbono	-11.3437
▁drive	-11.3437
▁Babylon	-11.3439
ntyari	-11.3439
▁quitaiteri	-11.3441
▁positions	-11.3443
chihuili	-11.3443
▁dedicat	-11.3444
tain	-11.3444
▁hya	-11.3448
▁parla	-11.3449
▁disponibles	-11.3449
▁Venezuela	-11.345
▁ixquich	-11.345
▁permitido	-11.3451
▁nobi	-11.3451
▁unity	-11.3451
ô	-11.3453
íchili	-11.3454
▁poderes	-11.3455
▁belief	-11.3456
▁Espáña	-11.3459
▁lift	-11.346
▁conjunta	-11.346
▁wild	-11.3461
risa	-11.3461
▁akaibo	-11.3462
▁xapa	-11.3462
▁ipe	-11.3462
kasai	-11.3464
▁siglos	-11.3468
▁código	-11.3468
▁negro	-11.3471
▁flu	-11.3472
▁axsar	-11.3474
36	-11.3475
▁kahe	-11.3475
ruwa	-11.3477
▁González	-11.3478
▁Municipalidad	-11.3478
▁retos	-11.3478
▁viable	-11.3479
pp	-11.3479
▁dirigida	-11.3479
chkan	-11.348
anuku	-11.348
isá	-11.348
▁eliyaya	-11.3481
asinjja	-11.3484
▁chayna	-11.3485
▁pun	-11.3485
ça	-11.3486
▁length	-11.3487
▁qhapaq	-11.3487
▁details	-11.3488
▁phone	-11.3488
▁storie	-11.3489
▁Islam	-11.3491
▁persist	-11.3495
▁mene	-11.3495
▁mechanisms	-11.3495
▁submitted	-11.3497
▁ocurrido	-11.35
▁player	-11.3504
▁Similar	-11.3505
wichí	-11.3505
▁bé	-11.3506
▁ō	-11.3507
▁janchi	-11.3509
▁hamu	-11.351
▁cá	-11.351
▁kéturu	-11.351
▁analizar	-11.3511
▁runakunapa	-11.3512
▁discharge	-11.3515
▁fre	-11.3517
tök	-11.3518
huili	-11.3521
▁naki	-11.3521
cito	-11.3521
▁basi	-11.3522
▁técnicas	-11.3525
alla	-11.3525
▁suyuwa	-11.3529
▁nubu	-11.3529
▁ītōca	-11.3533
▁wasitat	-11.3539
94	-11.354
▁Sweden	-11.3543
käna	-11.3547
ýre	-11.3548
▁teki	-11.3549
▁Elías	-11.3551
▁Convenio	-11.3552
▁Other	-11.3557
▁distribut	-11.3558
▁hermana	-11.3558
▁kalö	-11.356
▁piensan	-11.356
▁larger	-11.3561
▪	-11.3561
ahe	-11.3563
▁kusisqa	-11.3564
▁afford	-11.3564
▁tama	-11.3564
▁pura	-11.3568
▁accurate	-11.3571
▁Ñandejára	-11.3571
▁hy	-11.3571
▁dalö	-11.3571
48	-11.3571
▁meniti	-11.3573
▁involvement	-11.3573
▁jupanakax	-11.3574
▁promotion	-11.3575
▁kuxi	-11.3577
▁Anti	-11.3582
ankin	-11.3583
lala	-11.3587
▁section	-11.3589
xca	-11.3591
▁Tan	-11.3591
▁planteado	-11.3591
▁Web	-11.3593
▁foto	-11.3597
▁huriyutsixi	-11.3599
▁opoña	-11.3602
Z	-11.3603
▁comparación	-11.3604
▁Londres	-11.3608
▁incentive	-11.3608
▁ojokuaikuaáva	-11.3608
▁considerado	-11.3609
▁limitado	-11.361
▁emotional	-11.3612
▁versión	-11.3613
▁retã	-11.3613
▁blúie	-11.3614
▁itztoya	-11.3615
▁highest	-11.3616
▁resurrection	-11.3618
▁Civil	-11.3618
▁jaoca	-11.3621
▁arrived	-11.3621
▁cuándo	-11.3624
▁comité	-11.3627
▁flexibility	-11.3627
▁electricity	-11.3627
▁beníri	-11.3628
tē	-11.3632
▁junta	-11.3633
▁goho	-11.3636
▁explanation	-11.3637
ieran	-11.3637
▁niutay	-11.364
iano	-11.3641
▁gases	-11.3644
tanaki	-11.3644
▁ministros	-11.3645
nger	-11.3645
▁advertencia	-11.3646
▁identity	-11.3646
▁Suecia	-11.3646
poch	-11.3648
ymanta	-11.3651
▁huala	-11.3652
damente	-11.3653
▁calles	-11.3654
▁Ante	-11.3654
▁cristianokuna	-11.3655
▁Bretaña	-11.3655
▁sutin	-11.3656
▁terrorist	-11.366
▁conceder	-11.3661
▁prácticamente	-11.3661
▁apóstoles	-11.3662
▁Tatitusti	-11.3662
▁ship	-11.3664
asta	-11.3664
▁discipline	-11.3665
cher	-11.3665
▁ixonra	-11.3665
lum	-11.3665
29	-11.3666
▁extranjero	-11.3666
▁righteousness	-11.3666
▁Moises	-11.3667
▁Tre	-11.3667
ári	-11.3669
rale	-11.3669
▁pipas	-11.3672
▁escucha	-11.3674
ochi	-11.3674
ayasi	-11.3674
sqanchis	-11.3675
▁seguido	-11.3675
njam	-11.3676
▁upéva	-11.3677
▁jiwaray	-11.3679
▁pima	-11.3679
▁periodista	-11.3679
▁excepción	-11.3683
▁mantenimiento	-11.3683
▁chök	-11.3688
▁publication	-11.3688
▁Fra	-11.3689
kän	-11.369
▁COM	-11.3691
▁predic	-11.3692
▁pregunt	-11.3695
▁cualquiera	-11.3699
▁raana	-11.37
▁destinada	-11.37
▁boca	-11.3702
▁Jordán	-11.3702
ashita	-11.3704
▁incident	-11.3705
Q	-11.3705
▁especies	-11.3706
late	-11.3707
▁reciben	-11.3709
ataw	-11.3712
beta	-11.3712
ola	-11.3714
▁Though	-11.3714
cita	-11.3714
▁Casa	-11.3715
▁ventajas	-11.3719
antari	-11.372
Dios	-11.3721
39	-11.3721
kov	-11.3722
▁mix	-11.3722
▁garantías	-11.3722
▁detect	-11.3725
▁confes	-11.3725
▁limita	-11.3727
▁arsuta	-11.3729
▁baby	-11.3731
aita	-11.3732
izing	-11.3732
▁memoria	-11.3733
87	-11.3735
▁pit	-11.3735
▁señores	-11.3739
▁mfädi	-11.374
▁informal	-11.374
▁suficientes	-11.3743
tinin	-11.3744
épe	-11.3745
▁comply	-11.3745
▁Diosar	-11.3746
▁wawanakapa	-11.3747
timate	-11.375
▁lleno	-11.3751
▁awareness	-11.3754
kayu	-11.3754
▁kachkan	-11.3756
▁yoii	-11.3756
OS	-11.3759
▁zone	-11.3762
68	-11.3763
oca	-11.3765
nale	-11.3765
▁occidental	-11.3766
▁activos	-11.3768
▁crédito	-11.3773
▁específicas	-11.3773
▁Two	-11.3777
▁numerosas	-11.3779
llaña	-11.3779
▁store	-11.3779
sign	-11.3782
▁religiosas	-11.3783
kwak	-11.3785
cks	-11.3785
▁surgi	-11.3786
ícha	-11.3787
▁francesa	-11.3788
tilla	-11.379
▁kai	-11.379
02	-11.3791
▁iñi	-11.3793
itsi	-11.3793
▁patent	-11.3793
titud	-11.3793
▁amar	-11.3795
▁maran	-11.3796
▁ángel	-11.3797
▁esenciales	-11.3803
▁nemo	-11.3804
▁meat	-11.3806
▁tomin	-11.3807
▁yquac	-11.3809
▁constitution	-11.381
baka	-11.381
▁Pat	-11.3815
ES	-11.3815
Ka	-11.3815
▁predicación	-11.3817
▁Cyprus	-11.3817
▁Mayukuna	-11.3817
takero	-11.3817
▁altura	-11.3818
▁yuqapa	-11.3818
aboración	-11.3818
22	-11.3822
pati	-11.3822
▁hñe	-11.3823
▁tasas	-11.3823
irï	-11.3824
▁followers	-11.3826
▁temporar	-11.3826
46	-11.3832
yetachari	-11.3834
kane	-11.3835
▁superficie	-11.3836
jtoyaj	-11.3838
▁evidentemente	-11.3838
▁referir	-11.3841
▁reaction	-11.3842
▁mfenihʉ	-11.3842
▁Yemen	-11.3843
▁kaxon	-11.3843
▁Did	-11.3844
▁daños	-11.3844
▁yvyra	-11.3845
▁Agency	-11.3846
ub	-11.3846
▁expert	-11.3846
▁ill	-11.3847
▁conducir	-11.3848
bat	-11.3849
▁Arabia	-11.385
▁vol	-11.3852
▁Both	-11.3852
ajeri	-11.3854
▁regularly	-11.3854
meran	-11.3856
▁Mbo	-11.3856
wet	-11.3858
▁gusto	-11.3863
ẽva	-11.3863
▁tlato	-11.3863
▁nulame	-11.3865
▁operations	-11.3868
▁voluntar	-11.387
▁yoikin	-11.3871
▁Earth	-11.3874
▁Belarus	-11.3874
▁Parece	-11.3874
ore	-11.3875
▁demonstrated	-11.3877
asqa	-11.3877
Ca	-11.3878
▁ayac	-11.3879
mantaqa	-11.388
xä	-11.3881
▁estructuras	-11.3882
49	-11.3882
▁armonía	-11.3884
▁Puerto	-11.3884
chigóriga	-11.3884
▁Ani	-11.3886
ekuéra	-11.3886
▁discrimina	-11.3886
▁ndehe	-11.389
▁oferta	-11.389
▁personalidad	-11.389
▁Sant	-11.3891
▁generate	-11.3894
▁dollars	-11.3895
ixi	-11.3898
▁volvi	-11.3899
chili	-11.39
▁patkë	-11.3901
▁diwö	-11.3901
▁fueran	-11.3902
▁dignidad	-11.3903
44	-11.3906
nero	-11.3908
nakaw	-11.3908
▁rechazar	-11.3909
▁Paper	-11.3912
pjjäna	-11.3913
▁sienten	-11.3914
▁liberalisation	-11.3914
▁Vice	-11.3919
▁vivo	-11.3921
▁qam	-11.3922
▁jiki	-11.3922
tergubernamental	-11.3923
▁mahyɛgui	-11.3923
▁sovereignty	-11.3923
▁kana	-11.3925
▁enhance	-11.3928
yal	-11.3929
▁rodea	-11.3929
mantapas	-11.393
▁semejante	-11.393
▁Ministers	-11.3932
▁usa	-11.3932
▁Libertad	-11.3934
▁mountain	-11.3935
▁tools	-11.3935
▁constitucional	-11.3936
▁Corte	-11.3937
▁verano	-11.3937
▁types	-11.3937
▁hmi	-11.3938
▁xiquin	-11.3941
▁examen	-11.3942
▁jananeki	-11.3942
▁requir	-11.3943
▁anger	-11.3946
▁cifras	-11.3947
▁dog	-11.3948
▁trial	-11.3948
▁95	-11.3948
▁undertake	-11.3948
▁attract	-11.3949
▁street	-11.395
iwawiya	-11.3951
▁entra	-11.3951
ygua	-11.3953
▁catch	-11.3953
▁säna	-11.3954
▁órganos	-11.3956
▁sexuales	-11.3956
▁basta	-11.3957
▁excesiva	-11.3962
▁evaluar	-11.3963
▁afectan	-11.3963
tok	-11.3965
raquï	-11.3965
nikeyu	-11.3966
▁paciencia	-11.3966
qi	-11.3968
▁Cuán	-11.3969
▁presentación	-11.3971
▁izquierda	-11.3971
▁uchéchigo	-11.3973
▁stock	-11.3975
▁Oĩ	-11.3976
▁lógica	-11.3976
▁terror	-11.3977
▁(3	-11.3977
vier	-11.398
gy	-11.3981
▁PYME	-11.3981
▁pattern	-11.3981
.1	-11.3981
▁mantiene	-11.3984
▁Dan	-11.3984
rine	-11.3986
▁jisc	-11.3987
▁preguntó	-11.399
▁efectuar	-11.399
▁wayna	-11.3992
▁yeca	-11.3995
▁cuán	-11.3995
ychis	-11.3997
▁itztoyaj	-11.4
▁emergencia	-11.4002
▁ikanwe	-11.4003
▁cell	-11.4008
nax	-11.4009
jari	-11.4009
▁arori	-11.401
▁Bangladesh	-11.401
▁translation	-11.401
▁destaca	-11.4011
▁opposite	-11.4011
bon	-11.4013
▁centros	-11.4014
hinto	-11.4014
kasi	-11.4015
▁Rome	-11.4016
▁jumar	-11.4017
kanke	-11.4019
▁británico	-11.4019
▁Mediterráneo	-11.402
▁numerosos	-11.402
▁escuelas	-11.402
▁máxima	-11.4021
▁revolución	-11.4022
iel	-11.4023
xäna	-11.4023
▁personalmente	-11.4024
▁treaty	-11.4025
▁gate	-11.4027
▁kenkitsarentsi	-11.403
▁driving	-11.403
llen	-11.4031
lación	-11.4032
▁Monetar	-11.4033
▁argue	-11.4034
▁describ	-11.4036
▁manu	-11.4041
55	-11.4042
AL	-11.4044
toquili	-11.4052
elected	-11.4053
▁ojejapo	-11.4054
arakï	-11.4057
▁vuelve	-11.4057
apxäta	-11.4059
▁Oriental	-11.4059
▁Siempre	-11.4059
▁jesussen	-11.4059
▁comprend	-11.406
mitl	-11.4062
▁USA	-11.4067
▁site	-11.4069
rurqa	-11.4069
▁ḇefi	-11.4069
▁yejhuamej	-11.407
▁fill	-11.4072
▁cloth	-11.4073
▁ojehecha	-11.4074
▁arika	-11.4077
sum	-11.4078
▁appreciation	-11.4079
▁financiar	-11.4079
▁Yugoslavia	-11.408
eño	-11.408
▁qan	-11.4084
▁publicación	-11.4084
▁jupanakar	-11.4085
▁imaginar	-11.4087
▁victoria	-11.4089
raqmi	-11.4089
▁Jain	-11.4092
ān	-11.4093
▁escrib	-11.4093
▁Señoría	-11.4093
xt	-11.4094
▁matar	-11.4094
tava	-11.4096
▁histórica	-11.4099
ajsi	-11.4099
veta	-11.4103
jeitaje	-11.4104
punin	-11.4105
▁maneras	-11.4107
▁Programa	-11.4108
▁tlaneltocani	-11.4108
▁cien	-11.4109
▁yonoti	-11.4109
anak	-11.411
▁Yaya	-11.411
▁niukieya	-11.4111
kea	-11.4112
▁Fernando	-11.4112
▁immigrants	-11.4114
tando	-11.4122
▁achievement	-11.4123
▁sustain	-11.4126
▁quima	-11.4127
▁vehicles	-11.4128
▁AIDS	-11.4128
▁tata	-11.413
▁wëpa	-11.4131
▁elegir	-11.4133
▁ilí	-11.4134
▁fácilmente	-11.4135
▁Ñoqa	-11.4136
▁fragment	-11.4138
▁empleados	-11.4139
▁minority	-11.414
▁ganado	-11.414
▁abarca	-11.414
poli	-11.4141
ific	-11.4143
31	-11.4144
▁yatich	-11.4145
▁oki	-11.4148
▁Común	-11.4148
▁caída	-11.4149
▁carrying	-11.4149
huij	-11.415
▁possibl	-11.415
▁Mat	-11.4153
▁definite	-11.4153
tinake	-11.4153
▁Jesusasti	-11.4154
▁Gobiernos	-11.4154
▁kindness	-11.4156
▁extranjeros	-11.4156
▁Ph	-11.4161
este	-11.4162
arienik	-11.4163
69	-11.4164
▁pillar	-11.4164
▁coajica	-11.4168
▁increíble	-11.4168
▁Diablo	-11.4168
▁Kan	-11.4168
▁hague	-11.4168
shiri	-11.4169
▁Alto	-11.417
dado	-11.4171
▁nxa	-11.4172
ichi	-11.4174
▁News	-11.4174
▁trate	-11.4177
oi	-11.4177
▁comenta	-11.4184
anet	-11.4184
▁rising	-11.4185
▁organizado	-11.4186
camanal	-11.4187
▁onana	-11.4188
▁forever	-11.4188
▁restricciones	-11.4188
▁tse	-11.4189
▁domina	-11.4189
nawa	-11.419
old	-11.4191
tuve	-11.4191
doras	-11.4193
▁ukkha	-11.4194
▁tool	-11.4195
▁Mark	-11.4196
▁juchañch	-11.4197
▁qhit	-11.4199
▁Jero	-11.4202
▁"¡	-11.4202
ats	-11.4202
▁amena	-11.4202
▁ich	-11.4204
akotero	-11.4205
▁fla	-11.4207
▁Yn	-11.4208
▁intelectual	-11.4208
▁reclama	-11.4208
▁piot	-11.4208
cula	-11.4208
otl	-11.4209
tly	-11.421
▁ruling	-11.4211
lio	-11.4212
mú	-11.4213
▁bíblicas	-11.4214
▁Jach	-11.4214
Min	-11.4215
xeiyakai	-11.4216
▁modificación	-11.422
84	-11.422
▁inflación	-11.422
▁lleve	-11.4223
▁trees	-11.4224
▁sexo	-11.4226
▁Chamber	-11.4228
xonbi	-11.4235
▁sarak	-11.4236
poniendo	-11.4237
▁opo	-11.4239
▁pruwinsya	-11.4239
▁kapa	-11.4241
▁llaqtanqa	-11.4241
puesta	-11.4243
▁mène	-11.4245
berg	-11.4246
▁alive	-11.4246
▁milk	-11.4247
añatak	-11.4247
yamaa	-11.4248
▁centra	-11.4249
▁críticas	-11.4249
38	-11.4251
▁ponentes	-11.4252
▁pakök	-11.4253
▁nacion	-11.4253
tsonk	-11.4254
▁practica	-11.4254
▁wishawe	-11.4256
sqankumanta	-11.4257
jeitero	-11.4257
▁Pública	-11.4258
▁resurrección	-11.4258
▁kaspa	-11.4259
och	-11.4259
benta	-11.426
▁waters	-11.426
▁cambiado	-11.4264
kira	-11.4264
▁assure	-11.4266
▁cárcel	-11.4268
ggest	-11.4268
▁heitseriemek	-11.4269
▁Diosman	-11.4269
▁seguidores	-11.4269
||	-11.427
▁late	-11.4271
▁42	-11.4271
▁City	-11.4272
▁pensiones	-11.4273
▁elis	-11.4276
▁38	-11.4277
biri	-11.4279
kanabo	-11.428
▁opi	-11.4282
▁distribution	-11.4282
▁amta	-11.4283
cker	-11.4283
▁continúa	-11.4286
▁bebé	-11.4287
▁Comercio	-11.4288
▁médica	-11.4288
▁kema	-11.4288
▁pala	-11.4292
▁thuni	-11.4293
▁equip	-11.4293
rblö	-11.4293
▁producen	-11.4293
▁jumanaca	-11.4298
▁Espíritu	-11.4298
▁transición	-11.4298
▁otima	-11.43
▁Nuna	-11.4303
nkuman	-11.4303
61	-11.4305
▁ibanko	-11.4311
▁jaqix	-11.4316
▁Permítan	-11.4318
▁nemejhuamej	-11.4318
▁fortaleci	-11.4318
▁conmigo	-11.4318
▁letra	-11.4318
▁maña	-11.4319
▁corte	-11.4319
▁kuini	-11.432
▁aumenta	-11.432
▁verdaderos	-11.4321
rblöke	-11.4322
▁concentrate	-11.4322
▁markam	-11.4322
▁gold	-11.4323
79	-11.4323
▁kuie	-11.4326
▁bata	-11.4329
▁yoikana	-11.4329
quiwa	-11.4329
▁Oc	-11.433
▁resolv	-11.4331
sible	-11.4331
▁aprendido	-11.4333
▁Rusaleni	-11.4338
▁credibilidad	-11.4338
▁permiten	-11.4339
▁variedad	-11.434
▁wakich	-11.4341
▁ore	-11.4342
▁telling	-11.4344
▁hid	-11.4345
▁representative	-11.4345
▁odio	-11.4345
▁bound	-11.4345
▁Mario	-11.4346
uyeika	-11.4346
▁ayud	-11.4347
▁(20	-11.4347
▁surface	-11.4348
▁tobacco	-11.4348
kaniti	-11.435
▁experiences	-11.435
▁darërëë	-11.4351
▁preparación	-11.4353
▁student	-11.4354
▁alter	-11.4358
▁Moishishi	-11.4358
▁scene	-11.436
▁maybe	-11.436
▁declare	-11.4361
▁stick	-11.4362
▁opera	-11.4362
cuitla	-11.4363
bati	-11.4363
,5	-11.4364
▁sebasa	-11.4364
▁individuos	-11.4365
▁rikuchi	-11.4368
ptin	-11.4368
▁elsewhere	-11.4368
▁ninguno	-11.4368
▁extremo	-11.4368
▁Wakin	-11.4369
▁licencia	-11.4369
77	-11.4369
jú	-11.4371
▁jiskt	-11.4372
wanqa	-11.4373
qtin	-11.4376
▁defined	-11.4376
▁thorough	-11.4378
▁bacteria	-11.4378
▁cumpla	-11.4379
ashinonca	-11.4379
▁tupa	-11.4379
▁impression	-11.4379
▁icone	-11.4382
roni	-11.4383
▁icheke	-11.4383
▁promesas	-11.4383
cking	-11.4385
lito	-11.4385
▁tiqui	-11.4385
ajeite	-11.4386
▁frontera	-11.4387
63	-11.4388
▁usu	-11.4388
eriekai	-11.439
▁prevé	-11.439
▁preserve	-11.4391
rupi	-11.4391
▁satisfacer	-11.4392
▁Timatsi	-11.4392
▁agencias	-11.4393
▁wahamat	-11.4394
▁onanma	-11.4395
lip	-11.4395
bus	-11.4397
▁Debid	-11.4398
▁pacífica	-11.4399
▁Warmi	-11.44
guy	-11.4401
mä	-11.4401
▁identifica	-11.4403
▁Costa	-11.4403
▁partida	-11.4404
▁yosi	-11.4404
▁markar	-11.4405
▁released	-11.4406
▁veo	-11.4408
▁empieza	-11.4409
▁illustrate	-11.4409
pix	-11.4409
mac	-11.441
▁civilian	-11.4411
itas	-11.4412
▁speakers	-11.4413
57	-11.4413
▁sart	-11.4414
▁customs	-11.4416
73	-11.4416
▁benírame	-11.4419
▁Tsi	-11.4419
siones	-11.442
▁dispone	-11.4421
▁jatíbitian	-11.4421
▁wah	-11.4421
▁Lla	-11.4424
▁absorb	-11.4425
▁mostrado	-11.4425
▁hot	-11.4425
▁equally	-11.4425
41	-11.4429
ientes	-11.4432
metro	-11.4434
▁Jean	-11.4435
ológico	-11.4437
▁chino	-11.4438
▁Ee	-11.4439
▁White	-11.4439
▁primarily	-11.4439
kena	-11.444
▁ur	-11.4441
▁punku	-11.4442
yéname	-11.4442
▁exigir	-11.4449
š	-11.445
▁ajágame	-11.445
▁Guarani	-11.445
▁lurat	-11.4452
▁quipia	-11.4453
IS	-11.4454
▁tradicional	-11.4455
▁skills	-11.4459
▁Peerani	-11.446
▁icamanal	-11.446
▁occe	-11.4465
▁legales	-11.4465
olo	-11.4466
64	-11.4466
▁ukhamat	-11.4466
▁njabu	-11.4467
ppointed	-11.4469
spaqa	-11.4469
43	-11.447
▁departamento	-11.447
▁Pens	-11.447
▁poblacion	-11.447
▁chief	-11.4472
▁driver	-11.4472
▁Gatho	-11.4477
▁carece	-11.448
▁worst	-11.448
▁xiuhpan	-11.448
▁irnaq	-11.448
kinra	-11.4481
▁municipales	-11.4481
▁liberación	-11.4483
▁ruta	-11.4485
▁básicos	-11.4488
pawa	-11.4489
mpix	-11.4489
taquena	-11.4491
pl	-11.4492
asinsti	-11.4495
▁facilitate	-11.4496
▁incluidos	-11.4497
ume	-11.4499
▁viernes	-11.4501
▁kitaiteri	-11.4501
rka	-11.4502
▁primary	-11.4502
▁fra	-11.4503
▁kutt	-11.4506
▁tukaritsie	-11.4506
▁heat	-11.4507
▁mochihua	-11.4507
▁decline	-11.451
▁Ah	-11.451
▁sirve	-11.451
▁Dado	-11.4511
mɛfa	-11.4511
▁captura	-11.4511
SA	-11.4513
▁secular	-11.4513
▁Hmu	-11.4514
▁Pascua	-11.4517
▁mono	-11.4518
niyon	-11.452
▁sanoyej	-11.4521
▁Through	-11.4521
▁árboles	-11.4524
▁döraë	-11.4525
▁unlike	-11.4526
kuma	-11.4526
▁True	-11.4527
▁tacat	-11.4528
▁proportion	-11.4529
▁Sería	-11.453
▁candidato	-11.4531
▁Programme	-11.4532
▁Pueblo	-11.4532
▁sanitaria	-11.4532
▁estricta	-11.4534
▁bur	-11.4537
▁doctors	-11.454
▁riqueza	-11.4542
▁convierte	-11.4542
▁sole	-11.4542
54	-11.4543
▁culturales	-11.4543
kuaá	-11.4544
▁dalë	-11.4545
jere	-11.4545
▁Primero	-11.4546
▁organizations	-11.4547
▁reducido	-11.4547
▁aporta	-11.4548
rge	-11.4548
▁teacher	-11.4549
▁united	-11.4553
▁Juda	-11.4553
teta	-11.4561
gú	-11.4562
▁Quema	-11.4563
▁mfats	-11.4565
▁quicua	-11.4566
lepi	-11.4566
▁emergency	-11.4567
tiya	-11.457
siñ	-11.4571
▁emit	-11.4572
▁NATO	-11.4573
uximayatamete	-11.4576
▁sought	-11.4577
venta	-11.4577
katayna	-11.4577
uximaya	-11.4579
▁dedicar	-11.4579
▁predict	-11.458
▁entrega	-11.4581
▁song	-11.4581
▁pekao	-11.4582
▁legitimate	-11.4586
▁Tatay	-11.4587
▁modificar	-11.4587
nema	-11.4588
anga	-11.4588
qnin	-11.4589
psa	-11.459
▁permanecer	-11.4593
▁Arm	-11.4593
▁retraso	-11.4594
▁submit	-11.4594
▁García	-11.4594
▁prosperidad	-11.4594
uyuri	-11.4595
nacaru	-11.4597
▁Ishire	-11.4598
zer	-11.4599
▁BBC	-11.4604
▁dignity	-11.4604
▁sólida	-11.4604
▁pelea	-11.4604
▁Betel	-11.4607
▁Juani	-11.4608
▁visitar	-11.4609
▁tsaya	-11.4609
far	-11.4612
pýpe	-11.4613
▁vuelva	-11.4614
▁Dicho	-11.4615
▁atipj	-11.4615
▁mantenga	-11.4616
▁ntha	-11.4618
rg	-11.4618
▁dua	-11.4621
rigame	-11.4621
▁Agricultura	-11.4621
▁usan	-11.4622
mawe	-11.4622
▁mercancías	-11.4624
íamos	-11.4624
jjaru	-11.4624
yeni	-11.4624
▁oncameetsateji	-11.4625
▁paitapeerica	-11.4625
▁protestas	-11.4626
▁RO	-11.4627
▁sucedió	-11.4631
ranku	-11.4633
▁constitutional	-11.4633
▁Libya	-11.4634
▁Inglaterra	-11.4635
▁altepet	-11.4636
▁llaqtayuq	-11.4636
plic	-11.4637
▁waka	-11.4638
guapy	-11.4639
▁resistencia	-11.464
▁Jaská	-11.4642
▁himi	-11.4643
tzino	-11.4645
▁vivienda	-11.4646
▁proud	-11.4646
▁ijcon	-11.4646
▁performance	-11.4647
▁ajsi	-11.4647
▁jumanakax	-11.4648
▁Ladies	-11.4649
kuntix	-11.465
▁industri	-11.465
▁tsama	-11.4654
rero	-11.4654
▁italiano	-11.4656
▁1986	-11.4657
▁Kar	-11.4658
raíz	-11.4658
▁̱́	-11.4659
▁Az	-11.4659
▁anciano	-11.4659
▁noká	-11.4659
▁oficiales	-11.466
▁Pon	-11.4662
▁ocupar	-11.4663
▁Nura	-11.4663
▁sick	-11.4664
▁equipment	-11.4667
tshʉ	-11.4668
▁bond	-11.4668
▁kin	-11.4668
▁kashan	-11.4669
▁kananpaq	-11.4669
bs	-11.4671
▁haría	-11.4671
▁iglesias	-11.4671
▁expresado	-11.4671
▁nawá	-11.4672
▁Assembly	-11.4677
▁vuelto	-11.4677
jeitanta	-11.4677
ísima	-11.4678
▁Year	-11.4679
ñé	-11.4679
▁dramatic	-11.468
▁hablamos	-11.468
▁concentra	-11.4682
▁Jara	-11.4683
▁ynin	-11.4685
bede	-11.4686
uro	-11.4686
"-	-11.4686
▁qhichwa	-11.4687
▁flight	-11.4688
uximat	-11.4689
▁wear	-11.469
rov	-11.469
tetl	-11.4691
▁Among	-11.4692
tom	-11.4694
nmanta	-11.4697
▁materials	-11.4698
▁http	-11.4698
▁trafficking	-11.4698
▁ruwime	-11.47
▁pobre	-11.4701
▁tuvi	-11.4703
▁regresar	-11.4703
▁trabaja	-11.4703
▁Uk	-11.4704
▁saqe	-11.4704
▁paykunata	-11.4707
▁ventana	-11.4708
asaw	-11.4709
▁1975	-11.4709
notza	-11.471
▁actuación	-11.4711
wja	-11.4713
▁sesiones	-11.4714
▁yuyayku	-11.4717
▁yanapt	-11.4719
▁root	-11.4719
▁intimida	-11.4719
ify	-11.472
▁meniu	-11.472
▁itso	-11.4722
kob	-11.4726
▁pico	-11.4727
▁aumentado	-11.4728
▁tourism	-11.4729
reo	-11.473
lueka	-11.4731
rata	-11.4732
▁recorded	-11.4738
▁flota	-11.474
▁ttök	-11.4741
▁extraño	-11.4741
▁exteriores	-11.4745
▁Americans	-11.4747
lotl	-11.4747
ampoco	-11.4747
▁grounds	-11.4748
▁quit	-11.4749
guápe	-11.4749
▁Nuevo	-11.475
▁ritmo	-11.4752
53	-11.4754
▁nekani	-11.4758
▁cualidades	-11.4758
▁claras	-11.4759
nxon	-11.476
▁integrity	-11.4761
▁Escuela	-11.4761
▁unit	-11.4762
weme	-11.4766
▁jupanacajj	-11.4773
mble	-11.4774
▁tuicha	-11.4775
▁realise	-11.4775
▁Xij	-11.4775
▁presupuestario	-11.4776
▁Ijcuac	-11.4777
▁rurales	-11.4777
▁instancia	-11.4778
stela	-11.478
▁eliminate	-11.478
▁OTAN	-11.4782
▁Quchakuna	-11.4782
▁explotación	-11.4782
cier	-11.4783
▁entry	-11.4784
▁relieve	-11.4787
▁Ima	-11.4788
anque	-11.4789
▁yoto	-11.4789
▁jaská	-11.479
▁indígena	-11.4792
▁compara	-11.4793
▁hiciera	-11.4793
▁rei	-11.4798
▁tlaj	-11.48
ỹi	-11.4801
▁cláusula	-11.4803
▁Isaiah	-11.4803
cati	-11.4803
▁nijchihua	-11.4804
wili	-11.4805
▁roll	-11.4805
what	-11.4806
▁aman	-11.4807
▁Anta	-11.4809
▁ttèwa	-11.481
▁select	-11.4813
▁directrices	-11.4814
▁policial	-11.4814
▁tsir	-11.4815
▁olagá	-11.4815
▁titla	-11.4817
▁Congo	-11.4822
▁jaws	-11.4824
▁channel	-11.4824
▁individuales	-11.4824
▁filled	-11.4825
xtli	-11.4827
quiri	-11.4827
▁honra	-11.4828
▁winota	-11.4829
sapa	-11.4829
▁poderoso	-11.4829
▁negocio	-11.483
xani	-11.483
vel	-11.4832
▁medicina	-11.4834
▁Ed	-11.4834
teĩ	-11.4834
▁censura	-11.4835
▁cuida	-11.4836
ayetiri	-11.4839
zon	-11.4843
▁consolida	-11.4844
▁electronic	-11.4846
▁xeimieme	-11.4846
▁ñankha	-11.4846
fre	-11.4846
▁prior	-11.4847
▁streets	-11.4848
toj	-11.4848
▁cars	-11.4851
▁concreta	-11.4852
▁sienta	-11.4853
▁iwö	-11.4855
▁Vietnam	-11.4856
▁nthebe	-11.4857
émika	-11.4858
▁ahmo	-11.4859
▁yës	-11.486
llapi	-11.4861
▁efectivamente	-11.4861
atap	-11.4862
▁fun	-11.4862
▁Payqa	-11.4863
▁65	-11.4864
mol	-11.4865
▁incidente	-11.4865
▁southern	-11.4867
▁symbol	-11.4867
▁realiza	-11.4868
▁teachers	-11.4869
mabo	-11.4872
éitö	-11.4874
▁sale	-11.4876
▁regalo	-11.4878
▁uraqin	-11.488
▁rapidly	-11.488
▁97	-11.4886
▁Netherlands	-11.4888
▁collapse	-11.4888
▁subsidie	-11.4888
▁kanò	-11.4889
▁karan	-11.4889
▁escond	-11.489
▁apani	-11.489
▁olame	-11.4891
▁dirigi	-11.4895
▁Given	-11.4895
▁ret	-11.4897
▁otho	-11.4897
▁kibi	-11.4898
▁expensive	-11.4899
▁pitsipamintsare	-11.4899
▁niukiyari	-11.4899
▁stake	-11.4899
spanmi	-11.49
▁escuchado	-11.4901
▁ponga	-11.4901
71	-11.4903
▁kara	-11.4905
▁decirlo	-11.4906
51	-11.4908
▁tlan	-11.4908
▁Each	-11.4909
▁Urqukuna	-11.4909
▁distance	-11.4909
▁Jeremías	-11.4909
échí	-11.491
▁estados	-11.4912
▁perfecto	-11.4915
▁rechaza	-11.4915
jiri	-11.4916
▁impe	-11.4916
tsaro	-11.4918
▁Nja	-11.4919
34	-11.4919
▁informado	-11.492
▁haḇu	-11.492
▁ndeznä	-11.492
!"	-11.492
▁1950	-11.4921
▁Chaymantapas	-11.4922
▁cultiva	-11.4922
▁cooperate	-11.4923
▁recuperar	-11.4925
pjje	-11.4925
▁inferior	-11.4926
▁muui	-11.4928
nanta	-11.4928
▁Bor	-11.4929
▁yej	-11.4931
▁arriba	-11.4931
▁emocional	-11.4931
ónde	-11.4932
▁hearts	-11.4932
▁pyahu	-11.4933
▁bijchígi	-11.4935
▁kama	-11.4935
▁Nuga	-11.4939
▁neten	-11.4939
media	-11.4939
▁Mus	-11.4939
▁triste	-11.4941
▁eficaces	-11.4941
▁invisible	-11.4941
▁ahorro	-11.4942
zu	-11.4944
▁hinalla	-11.4947
▁upéi	-11.4948
dan	-11.4948
nethe	-11.4948
mieni	-11.4949
▁Europol	-11.4949
▁discovered	-11.495
▁nub	-11.495
tawikuei	-11.495
▁costo	-11.4951
▁bet	-11.4951
▁Jesoquirishito	-11.4952
▁pensando	-11.4953
▁votos	-11.4953
▁Any	-11.4956
▁Grande	-11.4958
▁insta	-11.4958
59	-11.4959
▁firmly	-11.4959
namiqui	-11.4959
▁jaqinakax	-11.4961
mani	-11.4961
▁jaskatax	-11.4963
vid	-11.4964
▁proof	-11.4965
▁Pacto	-11.4966
▁inmediata	-11.4966
▁fell	-11.4966
pale	-11.4969
▁uniform	-11.4972
asis	-11.4972
▁Cue	-11.4972
▁constant	-11.4972
▁estatuto	-11.4974
kar	-11.4974
▁qallta	-11.4974
yec	-11.4975
▁allocat	-11.4976
▁employ	-11.4977
▁iroba	-11.4979
▁calor	-11.4979
▁encontrado	-11.498
▁concretamente	-11.4982
▁hek	-11.4983
▁obvio	-11.4984
▁chico	-11.4984
▁expense	-11.4984
▁1960	-11.4986
▁translate	-11.4986
TE	-11.4987
▁kanman	-11.4987
▁Ven	-11.4989
▁iligá	-11.4989
moncara	-11.499
▁core	-11.499
▁chain	-11.499
▁taki	-11.4992
▁aceptado	-11.4994
▁futuras	-11.4995
▁Jainoax	-11.4995
▁intervenir	-11.4997
▁yoa	-11.4998
right	-11.4998
▁resultar	-11.5002
▁dayë	-11.5002
▁kicha	-11.5003
82	-11.5004
mach	-11.5004
Ra	-11.5005
▁estratégica	-11.5006
▁tii	-11.5006
bur	-11.5007
paqmi	-11.501
iritsi	-11.501
▁48	-11.501
atl	-11.5014
sic	-11.5014
▁victim	-11.5016
▁covenant	-11.5017
▁habló	-11.5017
▁tomó	-11.5017
▁nó	-11.5017
▁impulsar	-11.5018
▁Pact	-11.5018
iwi	-11.5019
▁nä	-11.502
taya	-11.5021
▁Eara	-11.5026
øde	-11.5028
▁quisa	-11.5028
▁mocahua	-11.5029
▁kapi	-11.5029
▁gobernan	-11.503
ykichik	-11.5038
▁Buliwya	-11.5038
▁realista	-11.5039
keke	-11.504
▁adultos	-11.5041
▁nueve	-11.5044
▁bachi	-11.5044
▁oúva	-11.5046
▁joá	-11.5047
▁ovejas	-11.5047
▁desafíos	-11.5047
▁kié	-11.5048
▁Ciudad	-11.5049
▁práctico	-11.5049
ipit	-11.5049
▁enemigo	-11.505
etsitaru	-11.5052
▁opciones	-11.5052
▁sorprendente	-11.5052
ketianra	-11.5053
▁inte	-11.5055
▁ucqha	-11.5056
▁crimen	-11.5056
▁rapporteurs	-11.5057
▁dedica	-11.5058
▁cancaña	-11.5059
cjʉ	-11.506
▁oikuaa	-11.506
▁1979	-11.5061
▁niu	-11.5061
▁Ste	-11.5061
▁constantemente	-11.5061
▁ero	-11.5062
▁recomendación	-11.5062
▁funcionar	-11.5062
▁planne	-11.5064
▁millón	-11.5064
▁exigi	-11.5064
pone	-11.5065
▁opone	-11.5066
añapa	-11.507
▁deseamos	-11.507
pegua	-11.507
▁mistu	-11.5071
▁culpable	-11.5072
▁restrictions	-11.5074
▁Verde	-11.5077
▁umbabi	-11.5078
nuku	-11.5081
▁libres	-11.5082
▁credibility	-11.5082
▁Kyoto	-11.5082
▁dispuesta	-11.5082
▁disponible	-11.5082
▁Up	-11.5083
kinana	-11.5084
▁funciones	-11.5084
74	-11.5084
rawa	-11.5085
▁discover	-11.5087
62	-11.5087
ntyaro	-11.5087
▁utji	-11.5087
mantam	-11.5089
uwábaga	-11.5091
č	-11.5092
▁estable	-11.5092
▁venir	-11.5093
▁tragedia	-11.5095
▁agentes	-11.5097
▁sú	-11.51
▁Había	-11.5102
▁Luc	-11.5103
▁inclusión	-11.5104
▁kayta	-11.5104
▁éstas	-11.5104
▁Aaron	-11.5107
▁accidentes	-11.5107
▁jilïr	-11.5111
▁ponen	-11.5114
zqui	-11.5114
▁eyi	-11.5115
ñapataqui	-11.5116
▁comprobar	-11.5116
▁positivos	-11.5116
lam	-11.5118
▁qucha	-11.5118
off	-11.5119
▁llegan	-11.5121
▁wösh	-11.5121
yot	-11.5122
▁insult	-11.5122
wewie	-11.5123
▁Reg	-11.5124
▁drop	-11.5124
▁violación	-11.5125
▁technological	-11.5125
quero	-11.5125
▁Cruz	-11.5126
teke	-11.5126
▁poca	-11.5127
▁uqhamat	-11.5127
nitsie	-11.5127
▁nejhua	-11.5129
rant	-11.5132
guáva	-11.5133
▁clases	-11.5134
▁trip	-11.5136
weti	-11.5136
▁quichihuas	-11.5139
kì	-11.514
rito	-11.5141
zco	-11.5142
▁character	-11.5143
▁hub	-11.5145
äqui	-11.5145
▁drawing	-11.5146
ritsie	-11.5146
▁previously	-11.5147
▁kú	-11.5147
cam	-11.5148
▁airport	-11.5148
▁Njabʉ	-11.5149
pareció	-11.5149
▁cerrar	-11.5151
▁camaari	-11.5151
▁slight	-11.5152
▁califica	-11.5153
ritsi	-11.5153
▁esclavo	-11.5156
▁detener	-11.5158
▁substance	-11.516
▁mirar	-11.5161
▁palestinos	-11.5162
ehára	-11.5162
▁Ést	-11.5162
▁bill	-11.5163
▁operat	-11.5164
▁ñit	-11.5164
▁cunjäm	-11.5165
▁chiní	-11.5166
▁ucanac	-11.5168
▁pastor	-11.5169
▁jawira	-11.5169
▁movilidad	-11.5169
▁murió	-11.5169
▁renovables	-11.5175
nïnwa	-11.5175
iéndose	-11.5177
▁insurance	-11.518
▁Service	-11.518
▁hubiese	-11.518
▁Río	-11.518
▁facts	-11.5181
bari	-11.5182
▁jaweti	-11.5183
▁esperan	-11.5184
▁huey	-11.5185
▁expectativas	-11.5186
tín	-11.5188
▁Wall	-11.5189
▁accidente	-11.5195
▁assembly	-11.5197
▁busi	-11.5198
▁joined	-11.5198
▁chiban	-11.5202
chay	-11.5202
▁Strategy	-11.5202
▁universo	-11.5202
▁1973	-11.5203
▁Ciertament	-11.5204
▁fotos	-11.5205
▁handle	-11.5206
▁idiomas	-11.5207
▁hangu	-11.5209
iman	-11.521
▁diosa	-11.5212
▁phase	-11.5214
▁Ica	-11.5216
▁víctima	-11.5216
▁minds	-11.5216
apxani	-11.5217
▁Devil	-11.5219
▁nejí	-11.522
▁thoughts	-11.5221
sim	-11.5222
▁incorporate	-11.5224
▁porcentaje	-11.5224
▁elaborado	-11.5226
▁diaria	-11.5227
▁publicaciones	-11.5229
▁tradicionales	-11.523
▁quineltoca	-11.523
▁Oka	-11.523
yʉ	-11.5233
▁substances	-11.5233
▁Energy	-11.5235
▁Zimbabwe	-11.5235
▁binding	-11.5235
mico	-11.5237
▁fresh	-11.5237
▁pase	-11.5237
▁indirect	-11.5242
pópe	-11.5242
rqu	-11.5242
▁universe	-11.5246
▁sensación	-11.5246
▁cosecha	-11.5247
▁periodistas	-11.5247
▁uksa	-11.5247
IT	-11.5248
coco	-11.5249
▁Ax	-11.5249
▁iketianra	-11.525
▁religioso	-11.525
▁nugui	-11.5251
▁sonido	-11.5252
▁muni	-11.5252
▁sabio	-11.5254
▁smaller	-11.5254
lado	-11.5254
▁plataforma	-11.5257
▁prosperity	-11.5258
arux	-11.5262
▁profit	-11.5262
▁apostles	-11.5265
▁dirigido	-11.5266
▁itima	-11.5266
▁survive	-11.5267
kkö	-11.5267
▁guerras	-11.5268
▁refiero	-11.5268
▁sufrido	-11.5269
pura	-11.5269
▁xeati	-11.527
▁calaqui	-11.5274
▁branch	-11.5275
pyre	-11.5276
akame	-11.5277
▁totalidad	-11.5277
ÿ	-11.528
inte	-11.5281
▁stands	-11.5283
▁aside	-11.5287
ividad	-11.5289
▁artista	-11.529
▁impi	-11.5292
▁realizada	-11.5294
zado	-11.5295
▁patké	-11.53
ayi	-11.5301
▁imomachtijcahua	-11.5302
▁breath	-11.5302
▁glory	-11.5303
IC	-11.5303
▁infantil	-11.5304
titlani	-11.5305
▁flujo	-11.5305
▁dará	-11.5306
▁etapa	-11.5307
▁qallari	-11.5311
▁sali	-11.5311
▁īhuīc	-11.5313
▁club	-11.5313
mɛt	-11.5313
pqui	-11.5314
▁placer	-11.5314
▁investigaciones	-11.5315
pending	-11.5318
▁neno	-11.5318
▁pull	-11.5318
cub	-11.5319
▁madera	-11.5319
▁nel	-11.532
.7	-11.5321
▁publicidad	-11.5322
▁listo	-11.5322
▁transmit	-11.5323
▁vuelo	-11.5324
▁confirma	-11.5324
▁ze	-11.5325
▁demonstration	-11.5325
nkunata	-11.5325
▁balé	-11.5329
pohual	-11.533
reu	-11.5331
▁yú	-11.5333
jketl	-11.5333
ywan	-11.5335
▁Madrid	-11.5335
▁famous	-11.5335
▁alcalde	-11.5335
▁ipype	-11.5336
▁elevado	-11.534
masa	-11.534
volv	-11.5341
▁evaluation	-11.5342
▁wood	-11.5342
▁render	-11.5343
▁ministerial	-11.5347
▁1974	-11.5347
▁koshibo	-11.5348
▁persecución	-11.5349
▁asqui	-11.535
▁Free	-11.5351
▁advocate	-11.5352
▁pachá	-11.5353
évo	-11.5354
▁rembi	-11.5355
▁mápu	-11.5355
hna	-11.5356
▁Blog	-11.5356
▁yamé	-11.5356
siwa	-11.5356
▁neskati	-11.5358
▁Bet	-11.5361
▁globalización	-11.5362
▁fields	-11.5363
misión	-11.5364
▁científico	-11.5364
▁paykuna	-11.5364
▁ishaninca	-11.5365
▁leg	-11.5366
▁Lea	-11.5366
▁seno	-11.5366
▁tleno	-11.5368
▁coloca	-11.5368
▁Portuguese	-11.5369
▁track	-11.537
▁Paykuna	-11.5372
▁pensamiento	-11.5375
▁Bats	-11.5376
▁precursor	-11.5378
▁formular	-11.5379
▁esé	-11.5381
▁abajo	-11.5382
▁jumajj	-11.5382
▁confirmed	-11.5385
qmi	-11.5386
KA	-11.5388
▁operator	-11.539
▁Palestina	-11.5391
▁ambicioso	-11.5391
▁Galaad	-11.5391
▁mínima	-11.5391
naq	-11.5391
▁sutiyoq	-11.5392
▁VII	-11.5392
▁nun	-11.5398
▁School	-11.5402
▁Atalaya	-11.5402
copa	-11.5403
zos	-11.5403
ayeit	-11.5404
▁makawe	-11.5404
▁revision	-11.5407
▁quipiyaj	-11.5407
▁argumentos	-11.5408
▁facilit	-11.5411
▁infect	-11.5413
▁Cunapachatejj	-11.5414
▁tsibi	-11.5414
▁yuritayna	-11.5414
▁removed	-11.5416
▁proponer	-11.5418
▁jakenacajj	-11.5419
▁Nokon	-11.542
▁negativa	-11.5421
▁master	-11.5423
▁invertir	-11.5423
▁iyolo	-11.5423
▁99	-11.5423
▁Google	-11.5425
▁doctrina	-11.5425
▁gloria	-11.5425
rik	-11.5426
ude	-11.5428
▁pishi	-11.543
▁Lucas	-11.5432
▁mili	-11.5432
▁khespiy	-11.5432
▁alternativa	-11.5433
▁ausencia	-11.5436
▁okwá	-11.5436
▁anchata	-11.5437
▁ambition	-11.5437
▁efectivo	-11.5437
▁lenguas	-11.5438
▁cold	-11.5438
cina	-11.5443
▁desastre	-11.5444
▁creía	-11.5445
▁tengu	-11.5447
▁cali	-11.5447
▁jupanacarojj	-11.5448
▁Dutch	-11.5448
▁recibe	-11.545
▁solicita	-11.5451
▁earn	-11.5452
▁concede	-11.5453
cil	-11.5453
▁apaniro	-11.5454
▁sake	-11.5455
▁preserv	-11.5456
gio	-11.5456
58	-11.5457
▁Nobel	-11.5458
▁promedio	-11.5459
▁qualities	-11.5459
▁organizar	-11.546
▁Trans	-11.5461
▁lands	-11.5462
tame	-11.5462
▁98	-11.5463
▁lamentable	-11.5463
.8	-11.5464
▁wake	-11.5465
▁rioka	-11.5465
▁Quej	-11.5466
grad	-11.5468
yiri	-11.5468
rjam	-11.5468
▁43	-11.5468
▁vivía	-11.547
usi	-11.5471
▁irineane	-11.5471
▁ONG	-11.5471
▁dark	-11.5472
pua	-11.5472
▁widely	-11.5474
jeitaquee	-11.5474
gyá	-11.5474
▁withdraw	-11.5479
▁passengers	-11.5479
▁sport	-11.548
▁rescate	-11.5481
▁1988	-11.5482
▁route	-11.5482
atahuta	-11.5484
▁sigui	-11.5486
▁nulé	-11.549
▁contract	-11.5491
irieni	-11.5491
▁latter	-11.5491
▁intervenciones	-11.5494
▁observation	-11.5495
▁Diosapa	-11.5496
rusu	-11.55
▁sirvi	-11.55
▁acumula	-11.5504
▁clause	-11.5504
▁1945	-11.5505
▁desarrollado	-11.5505
tarori	-11.5505
▁ended	-11.5505
▁jaqin	-11.5506
▁complaint	-11.5509
▁96	-11.551
▁eating	-11.5512
▁oporo	-11.5513
▁pekáo	-11.5515
▁Abrahán	-11.5515
▁journey	-11.5515
▁Alianza	-11.5515
▁apthapi	-11.5516
▁Vol	-11.5517
▁hogi	-11.5517
▁entrevista	-11.5517
▁apoyado	-11.5519
▁alaba	-11.5519
bita	-11.552
▁edificios	-11.5525
▁mè	-11.5526
▁trading	-11.5527
▁Pleno	-11.5527
▁agency	-11.5527
▁tetãme	-11.5529
ónica	-11.5529
gger	-11.5536
▁umíva	-11.5538
▁rail	-11.5539
ñap	-11.5539
▁ocasiona	-11.554
▁piel	-11.5541
▁tle	-11.5542
▁cry	-11.5544
▁Jacobo	-11.5544
▁historias	-11.5544
▁app	-11.5547
mantan	-11.5548
▁aplicable	-11.5548
▁Levi	-11.555
▁protests	-11.555
▁fruta	-11.555
▁peligroso	-11.555
▁mante	-11.5551
kaman	-11.5551
32	-11.5554
▁pó	-11.5555
▁nen	-11.5557
▁mobility	-11.5558
▁Swedish	-11.5561
▁satisfecho	-11.5561
▁skin	-11.5561
▁retain	-11.5561
wawe	-11.5561
▁metal	-11.5562
pira	-11.5563
▁tequiti	-11.5564
namic	-11.5564
ninpi	-11.5565
xime	-11.5565
▁Soy	-11.5567
yú	-11.5567
panti	-11.5572
▁vigilancia	-11.5572
▁SMEs	-11.5572
▁cámara	-11.5572
▁elect	-11.5574
if	-11.5575
▁55	-11.5576
▁ruso	-11.5576
▁thiya	-11.5578
72	-11.5579
▁poi	-11.558
yetari	-11.5582
etho	-11.5582
▁simplifica	-11.5582
▁argumento	-11.5583
▁emerging	-11.5584
▁castigo	-11.5584
▁accuse	-11.5584
▁waranka	-11.5585
▁quichijqui	-11.5585
▁perro	-11.5586
▁comunitarios	-11.5591
gagui	-11.5592
▁SV	-11.5592
tzqui	-11.5592
▁Tito	-11.5592
ibi	-11.5593
rku	-11.5594
▁calendario	-11.5595
▁bread	-11.5596
▁hecha	-11.5597
xar	-11.5597
yemie	-11.5598
▁estadísticas	-11.5598
atayna	-11.5598
▁directivas	-11.5598
▁Matthew	-11.5598
▁knowing	-11.56
▁Abrá	-11.5601
lique	-11.5602
▁wawanacapa	-11.5606
▁garantice	-11.5606
▁azo	-11.5607
ception	-11.5607
▁1984	-11.5607
▁Wal	-11.5609
lij	-11.5609
▁Mapu	-11.561
▁palacio	-11.5612
ento	-11.5617
▁produzca	-11.5618
▁spring	-11.5618
▁viento	-11.5619
lón	-11.5619
arakïna	-11.5623
▁qhispiy	-11.5625
jjäna	-11.5626
▁árabe	-11.5629
▁humilde	-11.5629
▁dɛn	-11.563
▁grand	-11.563
▁compensation	-11.5631
▁nisqan	-11.5633
▁tension	-11.5633
▁tucu	-11.5633
▁Jefe	-11.5634
▁buildings	-11.5634
▁Maastricht	-11.5641
▁mezcla	-11.5641
▁delighted	-11.5641
▁incentivo	-11.5641
▁explicó	-11.5641
▁Cree	-11.5642
mano	-11.5642
▁elabora	-11.5643
▁yokapa	-11.5644
▁utilizan	-11.5646
▁noso	-11.5648
▁meri	-11.5648
▁Quin	-11.5648
aweni	-11.5649
É	-11.5649
▁sugar	-11.565
ñʉ	-11.5651
▁Paris	-11.5652
▁decisive	-11.5652
▁subsidiariedad	-11.5652
▁maximu	-11.5653
tiuka	-11.5655
cup	-11.5655
▁undermine	-11.5657
▁salida	-11.5659
▁Judah	-11.5659
▁ipati	-11.566
▁movie	-11.5661
▁unanimous	-11.5664
▁paraíso	-11.5664
▁propaganda	-11.5664
▁inhabitant	-11.5664
kewa	-11.5665
puru	-11.5665
▁Camp	-11.5665
▁Moab	-11.5668
▁Islamic	-11.5669
ites	-11.567
cuilo	-11.567
▁quichi	-11.567
pachan	-11.5671
pire	-11.5674
patsa	-11.5674
▁kasha	-11.5675
▁manifiesta	-11.5675
▁encuesta	-11.5676
▁relief	-11.5676
▁Look	-11.5677
▁stable	-11.5677
▁campamento	-11.5678
tsin	-11.568
▁weaken	-11.5681
këpa	-11.5681
añapataki	-11.5682
▁sasaw	-11.5682
▁apsu	-11.5684
▁transition	-11.5685
▁koiran	-11.5685
riba	-11.5686
aritikuru	-11.5687
▁comienza	-11.5687
▁compatible	-11.5687
▁absence	-11.5687
▁obametantatsiri	-11.5687
▁sentía	-11.5688
▁motsa	-11.5689
obachi	-11.5689
gna	-11.569
hood	-11.569
▁esperaba	-11.5691
▁iya	-11.5692
▁presentadas	-11.5693
apjjäta	-11.5693
▁tsitsi	-11.5694
▁nit	-11.5695
upit	-11.5697
▁stopped	-11.5699
▁Peace	-11.5699
▁obey	-11.5699
yetua	-11.57
▁administrativa	-11.57
▁mochile	-11.5702
▁negar	-11.5704
▁oîva	-11.5705
miri	-11.5705
▁migration	-11.5707
▁turning	-11.5708
▁tear	-11.571
▁consum	-11.571
▁spot	-11.571
▁subsidiarity	-11.5711
rusi	-11.5712
▁controll	-11.5714
itiri	-11.5714
▁qullu	-11.5716
▁librar	-11.572
▁delincuencia	-11.5722
▁Sunday	-11.5722
▁rapidez	-11.5722
▁reun	-11.5723
▁convert	-11.5723
▁Cap	-11.5724
▁commit	-11.5725
jiro	-11.5725
▁quipatsiqui	-11.5726
keme	-11.5729
▁casas	-11.5734
▁smoke	-11.5734
▁Solomon	-11.5734
ñá	-11.5738
▁naman	-11.5738
▁amt	-11.5738
lök	-11.5741
▁shimape	-11.5744
▁intensa	-11.5746
▁killing	-11.5746
▁enviado	-11.5747
▁120	-11.5748
▁oradores	-11.5748
gob	-11.5752
▁identificar	-11.5752
jeitacari	-11.5754
axca	-11.5754
▁waxt	-11.5754
▁imba	-11.5754
▁anteriormente	-11.5755
▁Ea	-11.5755
▁elimina	-11.5755
▁Please	-11.5757
▁societies	-11.5757
ordinary	-11.5757
▁demuestran	-11.5757
▁1985	-11.5757
▁boost	-11.5758
▁mutuy	-11.5759
▁disc	-11.576
▁najki	-11.576
▁voluntaria	-11.5761
▁kasqanmanta	-11.5762
▁apunta	-11.5763
▁regulatory	-11.5763
rian	-11.5763
▁privada	-11.5764
tpach	-11.5764
rime	-11.5764
▁viajar	-11.5765
nakapax	-11.5766
▁lanza	-11.5767
▁símbolo	-11.5768
▁juramento	-11.5768
▁1987	-11.5769
ema	-11.5772
wanpas	-11.5775
▁pisa	-11.5776
▁Ava	-11.5776
blö	-11.5776
▁elhuicac	-11.5777
▁escena	-11.5778
▁superintendente	-11.578
▁ichupe	-11.578
masi	-11.5781
▁coche	-11.5782
▁bädi	-11.5782
nanchikpaq	-11.5783
▁purahéi	-11.5785
koti	-11.5787
▁evita	-11.5788
▁tasks	-11.579
▁Balcanes	-11.5792
▁widespread	-11.5792
▁entendimiento	-11.5792
▁ojejuhu	-11.5792
▁jáwa	-11.5792
▁pensamos	-11.5792
kanteri	-11.5793
inxon	-11.5793
▁grá	-11.5795
▁Ban	-11.5796
▁Albania	-11.5796
▁peces	-11.5798
ariekai	-11.58
▁jiwar	-11.58
▁Procedure	-11.5803
▁contribuido	-11.5803
▁subvenciones	-11.5803
▁shadow	-11.5803
▁deber	-11.5803
gging	-11.5805
▁revisar	-11.5811
▁inicio	-11.5814
▁estratégico	-11.5815
▁prevail	-11.5815
▁bloque	-11.5815
▁ucqhajja	-11.5815
▁távape	-11.5816
▁kallpa	-11.5816
▁habitual	-11.5816
▁aborda	-11.5817
nacajja	-11.5817
▁irre	-11.5817
▁realistic	-11.5817
fold	-11.582
tlahtoca	-11.5821
sqanchikta	-11.5821
▁mach	-11.5823
▁wawanaka	-11.5823
▁historic	-11.5823
wanchik	-11.5824
tire	-11.5825
▁viaja	-11.5825
▁herramientas	-11.5827
▁extranjera	-11.5827
▁(18	-11.5827
araquï	-11.5828
llay	-11.5828
mentablemente	-11.5828
▁iyiwak	-11.583
▁aish	-11.5832
JNE	-11.5834
tructural	-11.5837
▁analiza	-11.5838
▁liderazgo	-11.5838
▁terremoto	-11.5838
▁Michael	-11.5838
ivity	-11.5839
▁net	-11.5841
▁Perú	-11.5842
▁hip	-11.5843
▁simíbale	-11.5844
▁robot	-11.5844
CI	-11.5845
▁complement	-11.5845
ele	-11.5846
▁ñanqha	-11.5848
mabi	-11.5849
▁conform	-11.585
▁alemana	-11.5851
▁conocida	-11.5852
▁Leví	-11.5853
ancha	-11.586
▁Czech	-11.5862
▁intellectual	-11.5862
▁exportaciones	-11.5863
▁bases	-11.5863
▁bru	-11.5863
regá	-11.5864
▁xehetsie	-11.5864
▁photograph	-11.5869
▁yoame	-11.587
▁researcher	-11.5871
▁ninká	-11.5871
▁ofrecen	-11.5872
▁difficulty	-11.5872
▁integrat	-11.5873
▁usual	-11.5874
▁everywhere	-11.5874
▁torture	-11.5874
AT	-11.5876
▁huehue	-11.5876
▁definir	-11.5877
▁v	-11.5877
nkuchu	-11.5878
▁tsé	-11.5878
▁experienc	-11.588
▁caught	-11.5881
▁ninkata	-11.5882
▁sama	-11.5882
▁recurso	-11.5882
fil	-11.5883
▁zɛ	-11.5884
▁satisfie	-11.5885
▁William	-11.5885
▁instalaciones	-11.5887
▁Nojquiya	-11.5888
▁mujé	-11.5889
ñataq	-11.589
▁pretend	-11.589
▁sincero	-11.5892
ñapataki	-11.5893
áre	-11.5896
uximayaka	-11.5897
▁integridad	-11.5897
▁Croatia	-11.5897
▁enemigos	-11.5898
▁Upéicha	-11.5899
▁loyal	-11.59
▁malas	-11.5902
▁corona	-11.5905
▁Sun	-11.5906
▁transmitir	-11.5906
▁ajjsar	-11.5906
▁axea	-11.5906
▁divid	-11.5909
▁Association	-11.5909
▁anuncio	-11.5909
▁nimechilhuía	-11.5909
▁iwák	-11.5909
▁harmful	-11.591
▁makan	-11.5913
bale	-11.5915
▁elder	-11.5916
▁remit	-11.5916
pper	-11.5918
▁kuska	-11.5919
▁papuru	-11.592
anim	-11.592
▁añadido	-11.5921
▁interview	-11.5921
CA	-11.5921
back	-11.5921
tista	-11.5922
▁illness	-11.5922
▁Leon	-11.5925
▁servant	-11.5928
nīn	-11.5929
▁irir	-11.5931
xatsi	-11.5932
▁Líbano	-11.5933
▁Nazaret	-11.5933
▁Market	-11.5935
mmer	-11.5937
▁Cua	-11.5938
irori	-11.594
▁tepe	-11.5942
▁Teipa	-11.5942
▁newá	-11.5943
▁sufren	-11.5943
▁exploit	-11.5944
42	-11.5944
▁journalists	-11.5944
▁xøcambeni	-11.5944
▁mantenido	-11.5945
▁inicuo	-11.5945
▁representación	-11.5946
cious	-11.5946
nacap	-11.5948
▁Zo	-11.5948
▁pont	-11.595
▁mʉihʉ	-11.5951
hasa	-11.5952
▁Má	-11.5952
▁Bajos	-11.5952
▁Xe	-11.5953
▁remarks	-11.5955
▁destruir	-11.5956
▁turco	-11.5957
▁justifie	-11.5959
▁ako	-11.596
yetirori	-11.5961
▁sacerdotes	-11.5967
▁broken	-11.5968
▁encuentro	-11.5968
▁pesquera	-11.5968
▁England	-11.5968
▁Diego	-11.5969
▁uñ	-11.597
raquïnwa	-11.5971
kunatam	-11.5973
▁title	-11.5974
rjama	-11.5974
▁cobra	-11.5976
vertirse	-11.5977
▁Heta	-11.5977
exclusivamente	-11.5977
ntya	-11.5979
▁ojei	-11.598
▁prevenir	-11.598
▁kunjäm	-11.5981
▁tite	-11.5982
▁yupaych	-11.5983
▁thakhi	-11.5983
catzin	-11.5985
▁solucionar	-11.5987
▁Tunisia	-11.5992
▁ajuste	-11.5992
▁escenario	-11.5994
dance	-11.5995
▁herencia	-11.5995
▁taxation	-11.5998
▁quimsa	-11.5999
▁neighbor	-11.6
▁ocean	-11.6004
▁meal	-11.6007
känti	-11.6008
▁tantas	-11.6009
▁Í	-11.601
▁kanku	-11.6011
▁árbol	-11.6012
▁harmony	-11.6016
▁advanced	-11.6017
ixpan	-11.6019
▁yuyari	-11.602
▁blue	-11.6024
▁subsequent	-11.6028
▁jays	-11.6031
▁decirle	-11.6033
▁match	-11.6034
▁chugui	-11.6034
stan	-11.6035
lie	-11.6035
▁jacha	-11.6036
uyeh	-11.6037
▁nozo	-11.6038
▁calm	-11.6038
▁fädi	-11.604
▁umugí	-11.604
▁posterior	-11.604
▁railway	-11.604
tianra	-11.6043
banon	-11.6044
▁Mur	-11.6047
▁disappear	-11.6051
Chi	-11.6052
▁Brother	-11.6053
▁jerera	-11.6054
▁soldiers	-11.6055
▁rein	-11.6055
rope	-11.6055
▁anmo	-11.6057
▁kids	-11.6061
melahua	-11.6062
titsi	-11.6063
▁enfrentan	-11.6063
▁prima	-11.6063
▁twenty	-11.6064
▁Psalm	-11.6064
scripción	-11.6064
▁location	-11.6064
waka	-11.6065
▁organized	-11.6069
▁africanos	-11.6071
European	-11.6073
pcän	-11.6076
▁excepcional	-11.6076
▁thä	-11.6078
▁ipy	-11.6079
▁arch	-11.608
▁soil	-11.6082
▁Mac	-11.6083
older	-11.6086
fri	-11.6089
▁spite	-11.6089
▁hudi	-11.609
▁runakunaman	-11.6091
izados	-11.6091
Imatan	-11.6091
▁aves	-11.6092
pina	-11.6092
▁luras	-11.6093
▁Bru	-11.61
▁equilibrado	-11.61
▁exceso	-11.61
▁dalewa	-11.61
▁dwell	-11.61
▁1972	-11.61
▁aplican	-11.6103
▁phuqh	-11.6108
▁insistir	-11.6108
tiuyuri	-11.611
▁Paz	-11.611
▁alcanza	-11.6111
▁Occidente	-11.6112
▁agradezco	-11.6112
▁mpøhø	-11.6112
ajeitiri	-11.6115
▁notes	-11.6115
kantsi	-11.6116
▁pinquemisant	-11.6116
▁incante	-11.6116
pkta	-11.6117
ound	-11.6119
▁regres	-11.612
▁incrementar	-11.6121
▁Work	-11.6123
▁oguahẽ	-11.6124
▁tabl	-11.6126
▁pasando	-11.6126
paka	-11.6127
▁méso	-11.6128
▁É	-11.6131
jhua	-11.6132
▁Gue	-11.6135
▁raweli	-11.6137
tonin	-11.6138
▁tucuy	-11.6141
hold	-11.6142
zquia	-11.6142
▁Ainiro	-11.6143
chaku	-11.6147
▁sesen	-11.6147
▁levanta	-11.6148
▁Paraguaýpe	-11.6148
▁Salvador	-11.6148
▁earthquake	-11.6148
▁puertas	-11.6148
▁sencillo	-11.6148
▁hablan	-11.6148
▁1978	-11.6149
▁Rio	-11.6151
▁operación	-11.6153
▁Aririka	-11.6155
▁usando	-11.6155
▁experimenta	-11.6156
▁tribunales	-11.6158
▁imapas	-11.6159
▁afternoon	-11.616
▁software	-11.616
jquetl	-11.6161
▁lunes	-11.6161
▁yoká	-11.6161
pping	-11.6161
▁qala	-11.6162
▁tradition	-11.6163
▁Reform	-11.6164
▁Socialista	-11.6165
yek	-11.6166
▁hembi	-11.6166
▁mapi	-11.6166
tzacu	-11.6169
nkichik	-11.617
▁distin	-11.617
▁doy	-11.6171
▁Jato	-11.6172
▁juventud	-11.6172
▁literature	-11.6172
▁sontalo	-11.6173
▁Malta	-11.6173
▁Educación	-11.6173
▁causado	-11.6173
▁drinking	-11.6174
▁reinforce	-11.6174
▁renew	-11.6176
▁evento	-11.6178
▁preso	-11.6178
timo	-11.6181
▁Stu	-11.6183
Ne	-11.6183
▁lección	-11.6184
▁Trinidad	-11.6184
▁Applau	-11.6185
▁churches	-11.6185
▁Rural	-11.6186
rere	-11.6186
▁shinanxon	-11.6187
▁guy	-11.6187
clared	-11.619
▁añade	-11.6192
oshi	-11.6196
▁statistics	-11.6197
▁1982	-11.6197
▁incluyendo	-11.6199
▁Nub	-11.62
sqanchista	-11.6201
▁ujch	-11.6201
▁44	-11.6202
▁bøni	-11.6203
▁hotel	-11.6204
▁gubernamentales	-11.6205
▁chaypas	-11.6205
▁Tru	-11.6207
▁Ésta	-11.6208
▁crímenes	-11.6209
▁Guinea	-11.6209
▁Andrés	-11.621
▁religiones	-11.621
▁participante	-11.6212
▁moma	-11.6212
.6	-11.6213
apqui	-11.6216
▁inclina	-11.6216
▁ské	-11.6217
huiz	-11.6218
▁fur	-11.6218
▁Mc	-11.6219
▁successfully	-11.6219
sile	-11.6219
▁trai	-11.6221
▁Occidental	-11.6221
▁everlasting	-11.6221
erieni	-11.6221
▁persecution	-11.6222
▁prett	-11.6222
▁walking	-11.6223
▁seña	-11.6229
loque	-11.6233
▁uɛnda	-11.6233
▁phisqa	-11.6234
▁facilities	-11.6235
▁niwe	-11.6236
pra	-11.6237
▁masiva	-11.6238
▁qallarisqa	-11.6238
▁Senado	-11.6241
wime	-11.6241
▁politically	-11.6242
▁recon	-11.6242
▁anticipa	-11.6243
▁racial	-11.6245
▁coast	-11.6245
wata	-11.6246
▁prompt	-11.6246
▁transferencia	-11.6246
▁temo	-11.6246
▁esfera	-11.6246
▁determination	-11.6247
▁purin	-11.6247
▁atiripee	-11.6248
▁youths	-11.625
one	-11.6251
▁qhawa	-11.6253
cero	-11.6253
ñä	-11.6258
▁Cen	-11.6258
▁Pavoro	-11.6258
▁determinación	-11.6261
▁këkëpa	-11.6261
▁kaqkuna	-11.6261
▁(?	-11.6262
▁surrounding	-11.6262
Imaynatam	-11.6262
▁activo	-11.6263
ative	-11.6263
▁sentado	-11.6264
▁atipanyamake	-11.6266
▁sold	-11.6266
Ì	-11.6267
mann	-11.6268
▁muk	-11.6269
▁someter	-11.6269
éichapa	-11.6269
▁cónyuge	-11.627
▁proclaim	-11.627
▁differ	-11.6272
▁pampacha	-11.6272
▁Matt	-11.6273
▁convencer	-11.6275
▁ikain	-11.6277
chaq	-11.6278
▁sihuatl	-11.628
ninchis	-11.6281
▁platform	-11.6282
▁reconocido	-11.6282
▁arunaka	-11.6285
▁Action	-11.6288
shke	-11.6289
jeitempi	-11.629
▁payta	-11.629
▁station	-11.6292
teco	-11.6292
▁parecido	-11.6294
▁ongoing	-11.6296
▁pescadores	-11.6297
▁combustible	-11.6297
iwiya	-11.6297
▁comprometido	-11.6298
uhqui	-11.6299
▁posts	-11.6303
nova	-11.6303
odavía	-11.6305
▁trabajado	-11.6307
▁qualified	-11.6307
▁receiving	-11.6307
▁Asunción	-11.6307
▁óga	-11.631
▁vinculante	-11.6313
ntacari	-11.6316
▁sufrir	-11.6318
▁kopíra	-11.6319
▁atmosphere	-11.6319
▁estímulo	-11.6319
▁prepara	-11.6321
▁ukxa	-11.6322
calaqui	-11.6324
asqui	-11.6325
▁replace	-11.6326
▁artist	-11.6327
▁Transport	-11.6328
▁ukjamaraki	-11.633
▁Pë	-11.6331
▁resoluciones	-11.6331
▁respaldo	-11.6331
▁Yoyo	-11.6332
▁etiqueta	-11.6333
▁rival	-11.6333
▁contribuyen	-11.6333
▁blessing	-11.6333
To	-11.6333
▁bearing	-11.6334
▁exportación	-11.6335
▁pudi	-11.6335
▁Agricultur	-11.6336
▁River	-11.6336
▁coopera	-11.6337
maxon	-11.6337
▁pekuru	-11.6337
▁yak	-11.6338
töm	-11.6342
roga	-11.6343
meter	-11.6343
igá	-11.6343
cän	-11.6344
▁clergy	-11.6344
▁toneladas	-11.6344
▁computadora	-11.6344
▁leaves	-11.6344
▁Angel	-11.6345
▁wino	-11.6347
▁bene	-11.6347
▁agresi	-11.6348
nuani	-11.6348
øhø	-11.6349
▁postal	-11.6351
▁mafi	-11.6353
▁Martín	-11.6356
▁Island	-11.6356
▁imojuanti	-11.6359
araquini	-11.6359
▁Others	-11.636
▁helpful	-11.6361
▁yoca	-11.6362
▁extrema	-11.6363
▁cristianas	-11.6363
vor	-11.6363
xiuh	-11.6364
▁kuyaxi	-11.6364
▁bák	-11.6365
▁Jaska	-11.6368
Aritikuru	-11.6368
▁visual	-11.6368
▁Baal	-11.6369
▁significance	-11.6371
▁abuso	-11.6375
shu	-11.6375
rini	-11.6379
▁kayu	-11.6379
ificado	-11.638
▁Peru	-11.638
▁tragic	-11.6381
▁orientación	-11.6381
▁temachti	-11.6382
din	-11.6382
▁conservar	-11.6383
▁Resulta	-11.6383
épa	-11.6384
ntayetiri	-11.6385
▁ruido	-11.6386
iyarit	-11.6386
nahua	-11.6388
▁mejoras	-11.6389
▁novel	-11.6389
▁Nican	-11.6392
▁empleos	-11.6392
▁Ol	-11.6392
▁extensive	-11.6393
tlachili	-11.6394
▁actor	-11.6394
itaj	-11.6396
▁disasters	-11.6396
▁específico	-11.6398
▁tekove	-11.6398
spiración	-11.6399
▁delito	-11.6401
▁jist	-11.6402
▁fariseos	-11.6402
iminación	-11.6405
▁expuesto	-11.6406
▁nijnequi	-11.6406
▁Th	-11.6409
▁costumbre	-11.641
▁cope	-11.6412
▁iron	-11.6414
▁dependent	-11.6414
▁beneficial	-11.6417
▁Financial	-11.6418
▁audiencia	-11.6418
▁felices	-11.6418
▁kaai	-11.6419
▁VIII	-11.6419
▁kristo	-11.6419
▁sab	-11.6422
▁tukj	-11.6422
▁correctamente	-11.6423
caguihʉ	-11.6424
tiani	-11.6429
▁vessels	-11.6429
▁Copenhague	-11.643
▁considerando	-11.6431
▁interpretation	-11.6432
▁combin	-11.6432
down	-11.6433
nikekai	-11.6434
▁karu	-11.6437
quisa	-11.6437
▁concretos	-11.6437
tería	-11.6438
deo	-11.6439
▁Rev	-11.6439
▁xeiya	-11.644
Ya	-11.6441
▁masehuali	-11.6443
▁msnm	-11.6443
▁hinhya	-11.6443
wiyani	-11.6443
yamawe	-11.6443
▁qullan	-11.6444
Jaweti	-11.6444
▁munan	-11.6445
▁detenido	-11.6446
▁venido	-11.6447
fí	-11.6449
nix	-11.6449
▁Home	-11.645
RO	-11.645
▁employer	-11.6452
▁oj	-11.6454
▁discusión	-11.6455
▁victory	-11.6455
▁northern	-11.6455
▁bloguero	-11.6455
▁1971	-11.6456
▁cʉt	-11.6457
▁taypi	-11.6459
▁exista	-11.646
▁ocupado	-11.6461
▁película	-11.6461
▁hici	-11.6462
nakuy	-11.6467
mpiru	-11.6467
▁ferrocarril	-11.6468
▁opavave	-11.6468
▁stood	-11.6468
▁Follow	-11.6468
▁tortura	-11.6468
▁presidential	-11.6469
▁laborales	-11.647
▁incluyen	-11.647
▁kanchis	-11.6471
hand	-11.6471
▁associat	-11.6471
▁presentada	-11.6472
▁suministra	-11.6473
▁titayari	-11.6474
takotero	-11.6474
▁estatal	-11.6477
enka	-11.648
▁undoubted	-11.648
▁repetir	-11.6481
▁1976	-11.6481
poa	-11.6481
▁reli	-11.6481
▁editor	-11.6481
▁Mor	-11.6484
▁rusa	-11.6486
CB	-11.6486
▁mayi	-11.6489
yun	-11.649
▁aclarar	-11.649
▁específica	-11.6491
▁invita	-11.6492
apxaraki	-11.6493
▁chinos	-11.6494
▁creye	-11.6494
▁inolá	-11.6495
eriwani	-11.6496
keska	-11.6496
vó	-11.6498
▁reká	-11.6501
▁Ucat	-11.6501
▁zʉ	-11.6502
pxam	-11.6502
▁box	-11.6505
▁recién	-11.6505
▁Paraguáipe	-11.6505
rienik	-11.6507
▁indican	-11.651
karo	-11.6512
▁hair	-11.6514
chiq	-11.6515
▁generar	-11.6516
nakaxa	-11.6517
▁entero	-11.6518
▁Legal	-11.6519
ihi	-11.652
tajero	-11.652
▁sue	-11.6522
▁cease	-11.6522
tantarori	-11.6522
▁runakunam	-11.6522
52	-11.6525
▁Quere	-11.6526
▁Día	-11.6528
▁extension	-11.653
▁rukele	-11.653
▁compromet	-11.6531
▁iporã	-11.6531
▁ánimo	-11.6531
tekahu	-11.6533
▁drama	-11.6534
▁Sen	-11.6537
▁Anna	-11.6539
▁mika	-11.6539
▁arunaca	-11.6541
▁CA	-11.6541
▁kawa	-11.6542
tearo	-11.6543
▁division	-11.6544
▁Torre	-11.6545
▁birds	-11.6546
▁estatales	-11.6546
▁hinaspam	-11.6547
▁costos	-11.6547
▁causar	-11.6548
▁phuch	-11.655
▁intent	-11.6554
▁interlocutor	-11.6556
▁pehẽngue	-11.6556
▁ibetsika	-11.6556
yapa	-11.6558
▁Salón	-11.6558
▁comp	-11.6559
▁qhu	-11.6561
empi	-11.6564
▁Mira	-11.6565
▁temi	-11.6566
▁koshia	-11.6567
▁yam	-11.6567
▁aprendizaje	-11.6568
▁traslad	-11.6568
▁print	-11.6569
taña	-11.657
▁Nayasti	-11.6575
▁teiteri	-11.6575
▁Later	-11.6577
aquena	-11.6577
▁purchase	-11.6581
▁commission	-11.6581
▁colon	-11.6581
▁debilita	-11.6581
▁Was	-11.6583
▁season	-11.6583
):	-11.6584
▁manifestantes	-11.6584
▁benbo	-11.6587
▁Tha	-11.6589
▁Marcos	-11.6589
IN	-11.6589
▁itequi	-11.659
▁hebreo	-11.659
▁yamake	-11.6591
▁tradición	-11.6593
gs	-11.6594
▁complicated	-11.6594
▁irima	-11.6594
cō	-11.6595
sunki	-11.66
▁concert	-11.66
waru	-11.6601
maquixti	-11.6602
▁Piruwpi	-11.6604
▁Aña	-11.6604
▁tongue	-11.6606
▁Urqunaka	-11.6606
▁najtékame	-11.6606
▁Could	-11.6606
▁muchísimo	-11.6608
▁conversación	-11.6608
▁paitarica	-11.6608
▁fijar	-11.6609
ntaro	-11.6611
▁maki	-11.6611
iteri	-11.6612
ció	-11.6613
▁ohupyty	-11.6613
notz	-11.6614
▁39	-11.6614
▁pot	-11.6615
▁automóvil	-11.6616
▁proclama	-11.6618
▁erule	-11.6618
▁caracteriza	-11.6619
▁Food	-11.6619
▁guarda	-11.6619
▁agradable	-11.662
racjʉ	-11.6621
▁americano	-11.6622
▁residente	-11.6622
▁rever	-11.6623
anï	-11.6623
raye	-11.6623
strucciones	-11.6623
▁freedoms	-11.6624
▁satisfaction	-11.6625
▁capa	-11.6625
▁neutral	-11.6629
▁participan	-11.6631
puka	-11.6632
▁júlale	-11.6632
▁ñemby	-11.6633
▁relacionado	-11.6633
kuxata	-11.6634
iyani	-11.6637
coc	-11.664
▁Should	-11.6644
▁constituir	-11.6644
exclusión	-11.6644
yéni	-11.6645
▁Nadie	-11.6645
▁conocimientos	-11.6645
▁Kal	-11.6647
▁delitos	-11.6649
▁kóva	-11.6649
▁jisct	-11.6649
ency	-11.6653
law	-11.6654
sul	-11.6657
▁survey	-11.6657
chiua	-11.6658
▁ichök	-11.6659
Ñ	-11.666
▁peticiones	-11.666
▁brinda	-11.666
▁Holy	-11.6661
most	-11.6666
▁corrupt	-11.6667
▁pursu	-11.6668
▁jalsu	-11.6669
▁Rumanía	-11.667
▁desp	-11.6671
▁denomina	-11.6671
jeitaquena	-11.6672
▁duración	-11.6672
▁pusa	-11.6674
jä	-11.6675
▁héra	-11.6676
▁sustancial	-11.6676
▁Berlin	-11.6677
▁ontimatye	-11.6678
▁yajqui	-11.6679
▁gobernador	-11.668
▁rabiti	-11.668
▁sébale	-11.6681
▁presidencia	-11.6682
▁Copenhagen	-11.6682
▁necessari	-11.6682
▁tarjeta	-11.6682
▁nunutsi	-11.6682
▁duties	-11.6683
ñepi	-11.6683
▁presid	-11.6683
▁Charles	-11.6684
▁quihual	-11.6684
cañ	-11.6686
▁constitución	-11.6686
▁Tro	-11.6686
▁talked	-11.6689
wima	-11.6691
▁aycha	-11.6691
▁movimientos	-11.6692
▁cualli	-11.6692
nanmanta	-11.6692
tzacuilti	-11.6693
PI	-11.6694
tara	-11.6695
jke	-11.6695
▁indicar	-11.6695
▁Sudáfrica	-11.6695
▁enemies	-11.6698
äki	-11.6698
▁hebreos	-11.6699
liwa	-11.67
▁lesson	-11.6701
tified	-11.6702
▁posiblemente	-11.6703
room	-11.6705
pensión	-11.6707
▁sucursal	-11.6708
▁Nunc	-11.6708
▁overseer	-11.6709
éri	-11.6711
▁trë	-11.6712
reke	-11.6714
kah	-11.6715
▁hmu	-11.6716
▁jäpi	-11.6717
▁Ucampisa	-11.6717
▁Existe	-11.6718
Imarayku	-11.6718
vol	-11.6719
TO	-11.672
burg	-11.672
▁Auditors	-11.6721
▁vigente	-11.6721
kuta	-11.6721
▁mantenerse	-11.6722
▁keenai	-11.6722
ticos	-11.6722
tachu	-11.6722
▁honour	-11.6724
▁declarado	-11.6725
▁beñhʉ	-11.6726
iret	-11.6726
▁disco	-11.6726
▁implication	-11.6731
▁patente	-11.6732
▁wiña	-11.6733
▁competitiva	-11.6734
tikamie	-11.6734
▁omombe	-11.6734
▁emprender	-11.6736
roporción	-11.6736
▁jorio	-11.6737
▁kepauka	-11.6737
▁purini	-11.674
▁técnico	-11.6746
neltoc	-11.6746
▁oportuno	-11.6746
▁Still	-11.6747
▁horse	-11.6748
▁táni	-11.6748
▁ungidos	-11.6749
xte	-11.675
akero	-11.675
ainoa	-11.6751
▁amenazas	-11.6752
▁Wawa	-11.6752
▁surge	-11.6753
▁ruwí	-11.6754
▁conveniente	-11.6754
▁responde	-11.6756
▁tren	-11.6757
▁monopol	-11.6758
▁alawégame	-11.6759
▁sobrevivir	-11.6759
▁uñjas	-11.676
▁griega	-11.676
▁dynamic	-11.6762
▁buscando	-11.6762
▁iñiqmasinchik	-11.6762
▁creencia	-11.6762
▁posee	-11.6763
▁Aires	-11.6764
▁46	-11.6764
▁afirmar	-11.6766
▁kítera	-11.6767
▁corri	-11.677
▁Defensor	-11.6772
▁comunista	-11.6772
▁audience	-11.6772
▁Secretario	-11.6772
▁conduce	-11.6773
▁avanzada	-11.6773
▁Hor	-11.6775
yninta	-11.6776
anaje	-11.6777
ntzi	-11.6777
▁exports	-11.6778
mueka	-11.6778
oro	-11.678
[...]
