<unk>	0
<s>	0
</s>	0
▁de	-2.93245
,	-3.16268
.	-3.42658
▁la	-3.43298
▁que	-3.55042
▁en	-3.85512
▁a	-3.92243
▁y	-3.93647
▁el	-3.95824
s	-4.18659
▁los	-4.19703
▁las	-4.69163
▁se	-4.7142
▁del	-4.79682
▁un	-4.83571
▁una	-4.914
▁para	-4.98191
▁no	-4.99863
▁con	-4.99987
▁por	-5.04223
▁es	-5.05279
▁su	-5.38253
n	-5.44922
▁lo	-5.47445
▁al	-5.47957
▁más	-5.64831
▁como	-5.67424
▁ha	-5.79791
:	-5.9177
▁sobre	-5.95568
▁este	-6.02099
?	-6.0511
▁¿	-6.06338
▁La	-6.08587
▁o	-6.0977
▁“	-6.09856
▁En	-6.12236
▁El	-6.12375
r	-6.13698
▁sus	-6.13969
▁esta	-6.2886
▁también	-6.36518
▁Comisión	-6.37305
do	-6.45577
▁han	-6.48893
▁(	-6.50069
▁si	-6.50602
▁Por	-6.51576
▁son	-6.56324
▁me	-6.57608
▁ser	-6.58599
▁pero	-6.58932
)	-6.61424
▁	-6.63049
es	-6.6316
▁”	-6.63693
▁está	-6.65085
mos	-6.70631
▁todo	-6.72445
▁entre	-6.73001
a	-6.73113
▁mi	-6.73641
▁puede	-6.7422
▁Dios	-6.75499
▁nos	-6.75948
▁Estados	-6.76031
▁Unión	-6.76412
▁No	-6.7681
▁muy	-6.77416
▁A	-6.82147
▁todos	-6.83092
▁le	-6.83371
▁cuando	-6.86346
se	-6.866
▁Europea	-6.87493
▁Presidente	-6.88374
▁Parlamento	-6.88888
mente	-6.91873
▁Jehová	-6.91943
▁países	-6.9228
▁-	-6.92701
▁hacer	-6.96376
▁parte	-6.96689
da	-6.96859
▁sin	-6.97225
▁tiempo	-6.97292
▁personas	-6.98389
▁Los	-6.99627
▁años	-6.99898
▁miembros	-7.00015
▁ya	-7.00427
▁hay	-7.01179
▁vez	-7.0216
▁informe	-7.02937
▁Y	-7.03638
▁tanto	-7.04931
▁tiene	-7.05219
▁Consejo	-7.05917
▁Pero	-7.06067
▁política	-7.0626
ndo	-7.06268
▁hecho	-7.066
;	-7.08406
-	-7.09
▁Europa	-7.09285
▁contra	-7.10617
▁porque	-7.1113
▁Señor	-7.12091
la	-7.1238
▁están	-7.13608
▁Es	-7.13693
▁esto	-7.14282
▁lugar	-7.15253
▁mundo	-7.16736
▁qué	-7.1702
o	-7.18807
▁vida	-7.20635
▁e	-7.21359
▁debe	-7.21571
▁”.	-7.23753
▁fue	-7.24368
▁"	-7.24666
▁importante	-7.24864
▁De	-7.25824
▁dos	-7.26621
▁otros	-7.26759
▁así	-7.27024
ba	-7.28549
▁embargo	-7.29632
lo	-7.30965
▁bien	-7.31593
á	-7.31769
▁Si	-7.31979
▁mismo	-7.33768
▁forma	-7.34545
▁hasta	-7.35811
▁estos	-7.35975
▁gran	-7.36077
▁Sin	-7.36547
▁nuestra	-7.36703
▁trabajo	-7.37352
▁solo	-7.37438
▁sido	-7.38831
▁UE	-7.3899
▁mucho	-7.39388
▁sino	-7.39798
▁ahora	-7.39857
▁desde	-7.39907
▁les	-7.40375
▁Se	-7.40703
▁Europeo	-7.40995
▁país	-7.41552
▁eso	-7.41804
▁era	-7.42841
ción	-7.44325
▁decir	-7.44399
▁uno	-7.44675
▁día	-7.46322
▁hace	-7.46512
▁había	-7.47137
▁acuerdo	-7.47902
▁él	-7.4811
▁pueden	-7.487
▁nuestro	-7.48811
▁ejemplo	-7.49673
▁ni	-7.5026
▁cada	-7.50683
▁señor	-7.5123
▁año	-7.51327
dos	-7.51355
▁—	-7.51418
▁mayor	-7.51435
▁tienen	-7.52442
▁tan	-7.53843
▁estas	-7.5541
▁derechos	-7.56075
▁muchos	-7.56196
▁in	-7.56533
y	-7.5678
▁re	-7.56917
▁hemos	-7.57382
▁durante	-7.58242
▁algunos	-7.58396
e	-7.58515
▁manera	-7.58903
▁sea	-7.5933
▁situación	-7.59997
▁tener	-7.60054
▁cosas	-7.60505
▁caso	-7.60689
▁todas	-7.61355
▁desarrollo	-7.62097
▁ese	-7.6251
▁menos	-7.62593
▁hoy	-7.62641
▁fin	-7.63234
▁ellos	-7.6402
▁respecto	-7.64197
ron	-7.65086
▁algo	-7.66075
▁seguridad	-7.66483
l	-7.66709
ra	-7.66979
▁antes	-7.67009
▁propuesta	-7.67145
▁toda	-7.68147
te	-7.68286
das	-7.68665
▁Las	-7.68963
▁modo	-7.6904
▁ver	-7.69285
▁mejor	-7.69634
▁nosotros	-7.69925
▁he	-7.70439
▁cuestión	-7.7056
ía	-7.71165
▁usted	-7.71982
▁nuevo	-7.7218
▁ciudadanos	-7.72253
▁otro	-7.72724
▁después	-7.72953
▁Jesús	-7.72954
▁otras	-7.74251
▁tenemos	-7.7449
▁cuenta	-7.75019
le	-7.75026
▁posible	-7.75381
▁ello	-7.75525
▁Me	-7.75561
▁punto	-7.76169
▁otra	-7.76238
▁ayuda	-7.76707
▁sistema	-7.76786
▁medio	-7.77613
▁Biblia	-7.77824
▁nuestros	-7.77846
▁medidas	-7.78841
▁gente	-7.78858
▁Al	-7.78971
▁yo	-7.79871
▁mercado	-7.80218
ó	-7.8076
▁esa	-7.81202
▁dijo	-7.82428
ta	-7.8258
▁sólo	-7.82624
▁problemas	-7.83251
▁problema	-7.8358
▁cómo	-7.83893
me	-7.84056
▁millones	-7.8437
▁donde	-7.84488
▁tal	-7.84649
▁debate	-7.84969
!	-7.85109
▁debemos	-7.85718
▁podemos	-7.85899
▁dice	-7.86734
t	-7.86788
▁primer	-7.86817
de	-7.87004
é	-7.87129
en	-7.88153
▁Sr	-7.88535
▁Con	-7.88705
▁nombre	-7.88986
▁futuro	-7.89746
▁deben	-7.90213
▁humanos	-7.91068
▁dar	-7.91207
▁momento	-7.91659
no	-7.9263
▁favor	-7.92685
án	-7.93141
▁Esto	-7.9316
▁trata	-7.93291
▁poder	-7.93366
on	-7.93499
"	-7.93795
▁pues	-7.94537
▁aquí	-7.95419
▁También	-7.9543
▁Unidos	-7.96009
▁muchas	-7.96014
▁poco	-7.96516
▁Como	-7.96666
▁siempre	-7.97149
▁acerca	-7.97235
▁estamos	-7.97681
▁información	-7.97725
▁tres	-7.97901
▁haya	-7.98742
▁‘	-7.99084
ca	-7.99156
c	-7.99911
ban	-8.00319
an	-8.00335
▁apoyo	-8.00531
▁Este	-8.00554
▁¡	-8.00902
▁unos	-8.01108
▁Lo	-8.01305
▁mujeres	-8.01663
▁relación	-8.01684
▁estaba	-8.0184
▁–	-8.02169
▁europea	-8.02575
▁estar	-8.02798
▁cual	-8.03782
▁social	-8.04122
▁Para	-8.04307
▁Así	-8.04422
to	-8.04461
▁haber	-8.04522
▁creo	-8.04568
▁Esta	-8.04612
▁dicho	-8.05698
▁hombre	-8.07028
rse	-8.07314
▁sí	-8.0744
▁te	-8.07764
▁va	-8.07829
▁casa	-8.07882
▁debería	-8.07992
▁pasado	-8.09518
▁mayoría	-8.09531
d	-8.0967
▁Cuando	-8.09712
▁sentido	-8.09862
A	-8.10502
▁común	-8.10821
▁proceso	-8.10951
▁ante	-8.11242
▁hacia	-8.11884
ciones	-8.11915
rá	-8.11971
▁primera	-8.12836
▁parece	-8.1293
nos	-8.13452
▁Un	-8.13507
▁cuanto	-8.13866
▁vista	-8.13953
▁tipo	-8.13989
▁incluso	-8.14265
les	-8.14278
▁ella	-8.14325
▁cualquier	-8.14454
▁quiero	-8.14917
▁algunas	-8.15018
▁cambio	-8.15248
▁podría	-8.15385
▁gobierno	-8.15479
▁Una	-8.15792
▁necesario	-8.15938
sa	-8.16275
ci	-8.16315
▁estado	-8.16385
▁empresas	-8.16553
▁veces	-8.16675
▁políticas	-8.16894
ar	-8.16908
▁Comisario	-8.17385
▁programa	-8.1762
▁atención	-8.17669
▁derecho	-8.17711
▁general	-8.17916
▁Además	-8.18194
▁sector	-8.18196
▁aunque	-8.1839
▁crisis	-8.18932
▁opinión	-8.1895
▁aún	-8.19024
▁será	-8.19329
▁realmente	-8.19449
re	-8.19462
▁nada	-8.19528
▁entonces	-8.20487
▁1	-8.20871
▁nuestras	-8.20988
▁realidad	-8.21741
▁nivel	-8.22375
▁palabras	-8.22482
▁objetivo	-8.22494
▁protección	-8.22557
▁cooperación	-8.22792
▁razón	-8.23862
▁grandes	-8.24107
ría	-8.24486
co	-8.24725
i	-8.24759
▁marco	-8.24796
▁principio	-8.24853
cu	-8.24892
▁mientras	-8.25552
▁Grupo	-8.2558
▁importancia	-8.25664
▁obstante	-8.25996
▁nueva	-8.25999
▁Estado	-8.2625
u	-8.26445
▁verdad	-8.26514
▁europeos	-8.26561
di	-8.26571
na	-8.27083
el	-8.2749
los	-8.27612
▁tema	-8.2781
▁nuevas	-8.27986
▁servicios	-8.28736
▁Su	-8.28815
▁papel	-8.28922
ma	-8.28944
p	-8.29065
▁persona	-8.29133
▁normas	-8.29453
▁’	-8.29564
▁hijos	-8.29572
▁condiciones	-8.30092
▁misma	-8.30528
▁ponente	-8.30699
▁internacional	-8.30878
▁ámbito	-8.31056
▁necesidad	-8.31115
▁pregunta	-8.31359
▁todavía	-8.31743
▁bajo	-8.32152
▁europeo	-8.32317
▁días	-8.32329
▁niños	-8.32604
▁particular	-8.32609
▁artículo	-8.3262
ce	-8.33051
emos	-8.33271
▁pueblo	-8.33312
▁responsabilidad	-8.33314
▁E	-8.33657
▁respuesta	-8.33869
▁mis	-8.3393
▁sería	-8.34002
▁tu	-8.34441
▁dinero	-8.3505
▁cierto	-8.35141
las	-8.35148
▁falta	-8.36113
▁gracias	-8.36148
g	-8.36202
▁dentro	-8.36281
▁salud	-8.36305
que	-8.36314
▁largo	-8.36589
▁especialmente	-8.36813
▁familia	-8.36981
▁duda	-8.37198
▁actual	-8.37337
▁Señorías	-8.3734
▁fuera	-8.37432
▁resultado	-8.37511
...	-8.38348
▁Ahora	-8.3837
▁hombres	-8.38455
▁seguir	-8.38596
▁materia	-8.38743
▁gustaría	-8.38892
▁fe	-8.3907
▁económica	-8.39326
m	-8.39632
ga	-8.39694
▁último	-8.39871
▁hablar	-8.40368
▁paz	-8.40672
▁decisión	-8.40751
▁Qué	-8.40816
nte	-8.41479
▁pesar	-8.41606
▁Reino	-8.41612
▁Tratado	-8.41733
▁jóvenes	-8.41867
C	-8.41896
í	-8.41938
▁Presidenta	-8.42028
▁garantizar	-8.42311
▁número	-8.42477
▁empleo	-8.42557
▁libertad	-8.42645
▁energía	-8.42698
▁nacionales	-8.42796
▁través	-8.42867
▁cristianos	-8.43074
▁propuestas	-8.43334
▁medida	-8.43606
▁China	-8.43653
▁mediante	-8.43893
▁mundial	-8.4393
▁resolución	-8.43993
▁asunto	-8.44064
▁pro	-8.44288
▁economía	-8.44318
▁Creo	-8.44559
go	-8.44694
▁cuestiones	-8.44816
▁medios	-8.44832
▁nunca	-8.44956
▁muerte	-8.45119
mi	-8.45128
▁quienes	-8.45216
b	-8.45511
▁uso	-8.45705
▁nuevos	-8.45921
▁hizo	-8.4609
▁Señora	-8.46186
▁O	-8.46189
▁segundo	-8.46601
▁buena	-8.46658
▁señora	-8.4667
▁enmiendas	-8.46714
▁fueron	-8.46744
▁especial	-8.46812
▁control	-8.4683
mo	-8.47025
▁grupo	-8.4718
▁interés	-8.47218
▁base	-8.47401
▁lucha	-8.47437
▁Mi	-8.47584
▁productos	-8.47816
▁crecimiento	-8.47837
▁casi	-8.47927
▁agua	-8.48168
▁debido	-8.48493
/	-8.48779
▁guerra	-8.48779
▁quien	-8.48824
▁estoy	-8.48891
▁aplicación	-8.48935
▁puesto	-8.4903
▁Presidencia	-8.49063
▁testigos	-8.49464
▁políticos	-8.49486
▁sociedad	-8.49936
pa	-8.49978
Qué	-8.50119
▁ustedes	-8.50165
▁posición	-8.50173
▁significa	-8.50181
▁claro	-8.50643
▁idea	-8.50777
▁difícil	-8.50843
▁padres	-8.50904
▁investigación	-8.51176
▁importantes	-8.51423
▁objetivos	-8.51511
▁Hay	-8.51867
▁quisiera	-8.51897
▁pueda	-8.5193
▁historia	-8.52076
▁tenía	-8.52111
▁recursos	-8.52212
▁oportunidad	-8.52441
▁ex	-8.52523
▁Aunque	-8.52769
ti	-8.53138
▁dado	-8.53725
z	-8.54296
▁%	-8.54448
▁político	-8.54449
▁cabo	-8.54467
▁diferentes	-8.5493
▁efecto	-8.54966
▁ninguna	-8.55125
▁existe	-8.55554
▁Tierra	-8.55621
so	-8.55687
".	-8.55723
▁tomar	-8.55921
▁autoridades	-8.55972
▁Ha	-8.56021
li	-8.5617
▁ningún	-8.56212
▁proyecto	-8.56323
▁Gobierno	-8.56325
▁supuesto	-8.56448
▁alguna	-8.56717
▁orden	-8.56985
▁esos	-8.57102
▁siendo	-8.57146
▁instituciones	-8.5748
▁crear	-8.57589
h	-8.5767
▁«	-8.57875
ro	-8.57887
▁saber	-8.58101
▁tras	-8.58258
▁valor	-8.58436
▁demás	-8.58799
idad	-8.59079
▁final	-8.59302
▁da	-8.59479
▁ayudar	-8.5998
▁acción	-8.60109
▁presupuesto	-8.60355
▁espíritu	-8.60569
▁región	-8.60722
▁población	-8.60974
▁poner	-8.61479
▁sociales	-8.61579
▁calidad	-8.61753
▁siguiente	-8.61929
▁He	-8.61968
▁demasiado	-8.62225
▁Israel	-8.62425
▁mejorar	-8.62648
▁partes	-8.62714
▁éxito	-8.62817
▁decisiones	-8.62907
▁ir	-8.62988
▁sean	-8.63197
▁llegar	-8.63334
▁relaciones	-8.63455
▁plazo	-8.63483
▁evitar	-8.63805
▁según	-8.63875
▁meses	-8.63876
▁democracia	-8.64044
ten	-8.64267
▁propia	-8.64544
▁Pablo	-8.64696
▁C	-8.64774
▁público	-8.64849
▁pre	-8.65069
▁ciudad	-8.65104
▁además	-8.65374
▁amor	-8.65498
▁principios	-8.65507
tu	-8.6561
▁tierra	-8.65699
▁mí	-8.65755
▁camino	-8.65771
▁esas	-8.65939
▁casos	-8.66037
▁igual	-8.66179
▁legislación	-8.66415
▁económico	-8.66691
▁competencia	-8.66817
▁tenido	-8.67211
▁creación	-8.67225
▁ambiente	-8.67404
).	-8.67634
▁trabajadores	-8.67828
ri	-8.68002
▁mantener	-8.68101
▁compromiso	-8.68111
▁mal	-8.68112
▁sigue	-8.68267
▁luego	-8.6853
▁habían	-8.68723
▁paso	-8.69152
▁enmienda	-8.69303
▁últimos	-8.69345
ían	-8.69494
▁causa	-8.69648
▁ley	-8.69739
]	-8.69742
▁diputados	-8.69854
▁único	-8.70099
▁Le	-8.70115
dor	-8.70426
▁di	-8.70428
▁Rusia	-8.70555
pe	-8.70945
tra	-8.71039
▁corazón	-8.71141
▁palabra	-8.71319
va	-8.71517
▁hora	-8.71564
▁nacional	-8.71799
▁solución	-8.71832
▁dejar	-8.71948
▁transporte	-8.71972
▁propio	-8.72176
▁libro	-8.72222
▁presente	-8.72254
▁datos	-8.72379
▁resultados	-8.72526
▁esfuerzos	-8.72643
qué	-8.7273
▁acceso	-8.73371
▁resulta	-8.73436
▁conseguir	-8.73626
▁frente	-8.73848
si	-8.73887
▁fundamental	-8.73923
▁co	-8.74055
▁aumento	-8.74621
▁[	-8.747
▁directiva	-8.74839
▁mañana	-8.75079
▁encontrar	-8.75305
tó	-8.75521
▁puedo	-8.7573
▁hacerlo	-8.75739
▁eran	-8.7608
▁práctica	-8.76208
▁necesita	-8.7638
▁llevar	-8.7647
▁cuatro	-8.76749
ado	-8.76904
▁negociaciones	-8.76967
▁libre	-8.77115
▁”,	-8.77186
▁buen	-8.77193
▁queremos	-8.77266
▁Yo	-8.77293
▁lograr	-8.77458
er	-8.77588
▁comunicación	-8.77944
▁servicio	-8.7798
“	-8.7813
dores	-8.78146
▁miembro	-8.7834
▁alguien	-8.78516
▁obra	-8.78661
▁I	-8.79238
je	-8.7936
▁pensar	-8.79377
P	-8.80073
▁haciendo	-8.80142
ntes	-8.80156
▁tarde	-8.80303
▁deseo	-8.80424
▁zona	-8.80435
▁intereses	-8.8046
▁apoyar	-8.805
▁comercio	-8.80542
2	-8.80726
▁puedan	-8.8079
▁hacen	-8.80804
▁riesgo	-8.81196
▁10	-8.81226
con	-8.82026
▁regiones	-8.82111
▁van	-8.82127
S	-8.82223
▁allí	-8.82286
▁fondos	-8.82301
▁reducir	-8.82303
▁menudo	-8.82424
▁algún	-8.82545
▁pública	-8.82607
▁estrategia	-8.82674
ve	-8.82909
▁cosa	-8.82987
▁S	-8.83056
▁estaban	-8.83113
▁elecciones	-8.83137
▁quiere	-8.83506
▁ellas	-8.83593
in	-8.83666
▁texto	-8.83757
▁2	-8.83759
▁programas	-8.8401
k	-8.84245
▁20	-8.84247
▁aquellos	-8.8437
▁Entonces	-8.84483
▁Directiva	-8.84701
▁grupos	-8.84749
▁varios	-8.84922
▁aspectos	-8.84963
▁15	-8.8509
▁producción	-8.85122
as	-8.85128
▁asuntos	-8.85261
▁Tom	-8.85293
▁Sra	-8.85389
bo	-8.85436
▁violencia	-8.85443
▁iniciativa	-8.85757
▁clase	-8.86165
▁lado	-8.86432
▁personal	-8.86494
rán	-8.86522
▁capacidad	-8.866
▁Después	-8.86832
▁visto	-8.8706
▁alto	-8.87322
▁escrito	-8.87467
▁edad	-8.87563
▁Ma	-8.87618
▁b	-8.87641
ismo	-8.87678
▁educación	-8.87702
▁posibilidad	-8.87849
▁principal	-8.87852
ja	-8.87887
za	-8.88042
▁Cómo	-8.88176
▁actividades	-8.88264
▁Él	-8.88297
▁mismos	-8.88439
ne	-8.885
▁per	-8.88707
▁trabajar	-8.88918
▁dio	-8.8898
▁confianza	-8.89288
▁cinco	-8.89301
▁contrario	-8.89377
▁preguntas	-8.89869
▁animales	-8.89884
▁estudio	-8.89886
▁esperanza	-8.89906
▁semana	-8.90029
▁congregación	-8.90093
▁mujer	-8.90193
▁cantidad	-8.90297
▁voluntad	-8.90325
▁deberían	-8.90471
▁gestión	-8.90673
▁Cámara	-8.90691
▁única	-8.9071
▁plan	-8.9079
pi	-8.90797
▁habría	-8.91099
▁procedimiento	-8.9117
os	-8.91308
▁Eso	-8.91452
▁Naciones	-8.91642
qui	-8.91798
▁buenas	-8.91857
▁industria	-8.91971
),	-8.91977
▁necesitamos	-8.92045
al	-8.92195
▁consumidores	-8.92269
▁respeto	-8.92539
▁presidente	-8.92558
▁experiencia	-8.9265
▁aceptar	-8.92672
▁Desde	-8.92762
▁ampliación	-8.92824
du	-8.92848
▁adoptar	-8.92931
▁justicia	-8.92993
▁junto	-8.9321
▁vivir	-8.93518
res	-8.93538
▁reforma	-8.93567
▁acciones	-8.93656
▁noche	-8.93709
▁cerca	-8.93974
▁escala	-8.94154
▁serie	-8.94346
▁conjunto	-8.94443
▁Re	-8.94446
D	-8.94748
”	-8.94768
▁hubiera	-8.94789
▁tengo	-8.95273
vi	-8.95443
▁euro	-8.95456
be	-8.95461
▁mensaje	-8.95467
▁votación	-8.95677
▁fuerza	-8.95868
▁alcanzar	-8.95932
▁puntos	-8.95987
▁simplemente	-8.96069
▁esté	-8.96232
▁período	-8.96308
ré	-8.96309
▁global	-8.96663
▁ca	-8.96738
▁totalmente	-8.96835
▁luz	-8.9721
▁consecuencias	-8.97391
▁nadie	-8.97496
▁quizás	-8.97802
▁interior	-8.97854
▁segunda	-8.97888
▁hijo	-8.98147
v	-8.98238
tas	-8.9846
▁colegas	-8.98529
▁europeas	-8.98556
▁primero	-8.98563
ización	-8.98618
▁refiere	-8.98647
▁claramente	-8.98955
▁real	-8.99011
ran	-8.99142
por	-8.99157
Cómo	-8.99171
▁principales	-8.99195
▁Turquía	-8.99261
▁consecuencia	-8.99295
▁padre	-8.99297
▁razones	-8.99332
lu	-8.99561
▁Unidas	-8.99642
▁Asuntos	-9.00093
▁3	-9.00435
▁conocimiento	-9.00438
un	-9.00467
▁mar	-9.00535
▁ven	-9.00632
▁ejercicio	-9.00943
▁hermanos	-9.01008
vo	-9.01125
▁comunidad	-9.01274
▁tratar	-9.01274
▁mercados	-9.01343
f	-9.01672
▁madre	-9.01807
▁tenga	-9.02024
ble	-9.02039
▁precios	-9.02355
▁suficiente	-9.02417
▁amenaza	-9.02465
▁bastante	-9.02601
▁Cristo	-9.02947
▁cumplir	-9.02948
▁establecer	-9.03237
▁financiera	-9.03238
▁total	-9.03247
ación	-9.0328
▁ve	-9.03397
No	-9.03437
▁diálogo	-9.03466
▁votado	-9.03743
▁8	-9.03787
▁Quiero	-9.04167
▁Reglamento	-9.04181
▁motivo	-9.04208
▁seguro	-9.04308
3	-9.04624
▁vi	-9.04657
▁7	-9.04684
8	-9.04796
▁cuales	-9.0503
▁entender	-9.0521
▁P	-9.05506
▁aplicar	-9.05625
▁contexto	-9.05872
rnos	-9.05877
▁internacionales	-9.06015
▁África	-9.06043
▁valores	-9.06268
▁representa	-9.06293
▁fuerte	-9.0651
▁última	-9.06692
▁reunión	-9.0673
▁régimen	-9.06743
▁solamente	-9.06752
▁sistemas	-9.068
▁cuerpo	-9.07045
6	-9.07226
▁mano	-9.07277
▁joven	-9.07298
▁enfoque	-9.07406
▁naciones	-9.07417
▁excelente	-9.07483
B	-9.07618
▁proyectos	-9.07919
▁zonas	-9.07971
▁cambios	-9.08063
▁varias	-9.08115
»	-9.08273
▁miles	-9.08315
ya	-9.08435
▁acuerdos	-9.08688
▁fundamentales	-9.08762
Por	-9.08802
▁organización	-9.08817
▁cambiar	-9.08881
▁pasar	-9.08924
▁proteger	-9.09308
▁línea	-9.09335
▁campo	-9.0938
▁sangre	-9.09389
▁euros	-9.09512
ria	-9.09561
ni	-9.09655
▁consiguiente	-9.09815
▁financiación	-9.09873
▁fácil	-9.09885
▁recordar	-9.10213
▁Según	-9.10259
▁humana	-9.10366
▁llegado	-9.10398
▁grande	-9.1127
▁dirección	-9.11508
fi	-9.11593
▁Ya	-9.11737
▁peligro	-9.1182
O	-9.11829
▁tales	-9.11882
▁podrían	-9.11919
▁diferencia	-9.12108
▁comisión	-9.12155
4	-9.12244
▁Estoy	-9.12347
ada	-9.12536
▁sabe	-9.12575
▁Asamblea	-9.12674
▁Todos	-9.12694
–	-9.12754
7	-9.12904
▁Tribunal	-9.13147
▁deberíamos	-9.13173
▁G	-9.13583
▁sabemos	-9.13616
▁Lisboa	-9.13755
▁objeto	-9.1377
ter	-9.1379
▁In	-9.1383
▁actualmente	-9.13885
is	-9.13907
▁participación	-9.13933
bi	-9.14007
▁humanidad	-9.14068
▁presentar	-9.14477
5	-9.14615
▁pronto	-9.14739
▁mayores	-9.14769
▁Hoy	-9.14772
▁términos	-9.15154
▁12	-9.15155
▁prueba	-9.15274
▁5	-9.15283
E	-9.15558
▁podía	-9.15656
▁existen	-9.15777
▁rey	-9.15976
▁Tenemos	-9.16026
▁aspecto	-9.16152
▁18	-9.16185
▁víctimas	-9.16215
▁volver	-9.1633
▁juicio	-9.16578
▁declaración	-9.16623
▁habla	-9.1668
▁muestra	-9.16827
▁horas	-9.16928
▁19	-9.16936
▁exterior	-9.16955
▁aumentar	-9.17075
tar	-9.17268
▁escribió	-9.17365
▁esencial	-9.17446
▁resolver	-9.17545
▁pobreza	-9.17586
▁constituye	-9.17657
gi	-9.17691
▁presentado	-9.17774
▁obtener	-9.17874
▁tuvo	-9.17954
▁esfuerzo	-9.17984
ido	-9.18024
▁gobiernos	-9.18042
▁u	-9.18258
▁tendrá	-9.184
▁aquel	-9.18593
▁habrá	-9.18739
M	-9.18781
fa	-9.1883
▁fuerzas	-9.18896
▁organizaciones	-9.18897
tos	-9.19083
▁B	-9.19181
fe	-9.19209
▁Vi	-9.19342
▁esperar	-9.19368
▁propios	-9.19385
▁eficaz	-9.19419
▁somos	-9.1951
▁siglo	-9.19551
▁efectos	-9.19611
▁dificultades	-9.19835
▁resto	-9.19851
▁espacio	-9.19861
▁esposa	-9.19981
▁4	-9.20015
▁ti	-9.20026
▁Comisaria	-9.20043
rio	-9.20178
▁religión	-9.20289
▁seis	-9.20341
▁necesidades	-9.20471
▁11	-9.20554
▁propósito	-9.20587
▁verdadera	-9.20597
▁realizar	-9.20682
▁espero	-9.20893
ida	-9.20899
▁actitud	-9.21092
▁Durante	-9.21104
▁ocasión	-9.2126
▁utilizar	-9.21287
ng	-9.21391
▁marcha	-9.21489
▁amigos	-9.21651
▁Algunos	-9.21687
▁adhesión	-9.21759
ando	-9.21803
▁intervención	-9.21812
▁clara	-9.21917
▁Mundial	-9.21937
▁capital	-9.22274
▁temas	-9.22357
El	-9.2239
▁aprobación	-9.22529
N	-9.22546
▁verdadero	-9.2259
▁mucha	-9.22606
T	-9.22792
▁Alemania	-9.22802
▁reducción	-9.22929
▁F	-9.22934
po	-9.23019
▁recibir	-9.23066
▁Jesucristo	-9.23216
▁adelante	-9.23287
▁allá	-9.23668
▁considerar	-9.23721
▁permite	-9.23789
w	-9.23947
▁expresar	-9.23954
▁integración	-9.23997
▁transparencia	-9.24032
▁bueno	-9.24054
▁quieren	-9.24218
▁Hemos	-9.24345
▁pudiera	-9.24483
G	-9.24522
▁pa	-9.2468
▁pequeñas	-9.24812
▁civil	-9.24822
▁igualdad	-9.25011
ch	-9.25063
▁manos	-9.25174
▁actividad	-9.25353
▁usar	-9.2547
▁presión	-9.25483
▁alimentos	-9.25507
ista	-9.25642
x	-9.25649
▁espiritual	-9.25736
ncia	-9.25742
▁Porque	-9.2584
▁actuar	-9.25893
▁completo	-9.26005
F	-9.26024
ven	-9.26082
▁Francia	-9.26192
▁haga	-9.26311
▁apóstol	-9.26601
1	-9.26935
▁referencia	-9.26949
▁estabilidad	-9.27053
▁Palabra	-9.2726
▁permitir	-9.2727
▁Mientras	-9.27301
▁India	-9.2734
▁respecta	-9.27468
▁participar	-9.27588
▁Estos	-9.27606
▁Debemos	-9.27695
▁red	-9.27883
▁aprender	-9.2801
▁pesca	-9.28261
ir	-9.28381
▁toma	-9.28398
▁14	-9.2844
▁9	-9.28664
▁modelo	-9.28751
▁hayan	-9.28767
▁financieros	-9.28856
▁dólares	-9.28869
▁serán	-9.28883
istas	-9.28943
▁humano	-9.28962
▁Más	-9.29052
▁30	-9.29088
▁lugares	-9.29134
▁Di	-9.29214
tro	-9.29387
▁Internet	-9.29394
▁necesaria	-9.29526
▁justo	-9.29592
▁diez	-9.2965
▁lista	-9.29758
▁armas	-9.29765
▁considera	-9.29775
▁diferente	-9.29881
▁policía	-9.29889
▁tecnología	-9.29902
▁militar	-9.29904
▁mejores	-9.30108
▁formación	-9.30115
▁responder	-9.30217
▁realizado	-9.30252
▁medioambiental	-9.30362
▁terrorismo	-9.30756
▁tampoco	-9.3079
▁beneficios	-9.30872
▁siquiera	-9.30898
▁saben	-9.31071
▁ofrecer	-9.31081
▁necesitan	-9.31092
sión	-9.31108
cha	-9.31142
▁reuniones	-9.31143
▁fondo	-9.31186
▁pobres	-9.31212
▁siguen	-9.31231
▁conocer	-9.31265
▁vamos	-9.31408
▁lleva	-9.31467
",	-9.3171
miento	-9.31803
▁leer	-9.31806
I	-9.31839
▁precisamente	-9.31877
▁sostenible	-9.3189
▁Ministro	-9.31927
▁defensa	-9.31955
▁votar	-9.31975
▁desarrollar	-9.32105
▁6	-9.32321
ru	-9.32393
▁construcción	-9.32603
▁The	-9.32637
▁labor	-9.32736
▁clave	-9.32929
▁éste	-9.32982
▁preocupación	-9.33077
▁mejora	-9.3314
▁enfermedad	-9.33169
▁dis	-9.33332
▁plenamente	-9.3341
▁relativa	-9.33423
▁abordar	-9.33429
▁informes	-9.33509
▁Testigos	-9.33561
▁ojos	-9.33614
▁servir	-9.33705
▁preciso	-9.33743
▁fronteras	-9.33805
▁Comunidad	-9.33933
▁25	-9.33996
▁climático	-9.34187
▁p	-9.34444
▁implica	-9.34505
▁mil	-9.34511
▁Ba	-9.34822
▁conflicto	-9.34919
▁oportunidades	-9.34975
▁oposición	-9.35155
▁reino	-9.35265
▁inversión	-9.35269
▁actualidad	-9.35297
▁enorme	-9.3538
▁16	-9.35496
▁origen	-9.35509
men	-9.35546
▁central	-9.35596
▁evidente	-9.35635
▁ocasiones	-9.35673
▁mes	-9.35689
▁locales	-9.35714
▁satisfacción	-9.35858
▁Espero	-9.35876
ña	-9.35924
▁espera	-9.36057
▁000	-9.36084
ados	-9.36093
▁prácticas	-9.36267
▁17	-9.36284
▁Quisiera	-9.36331
▁cristiano	-9.36333
▁presencia	-9.36435
sen	-9.36476
▁dicha	-9.36499
▁centro	-9.3651
▁reformas	-9.36511
▁rápidamente	-9.36647
▁tengan	-9.36691
▁fecha	-9.36718
▁alrededor	-9.36734
▁asegurar	-9.36829
La	-9.36892
▁encuentra	-9.36898
▁Nos	-9.36974
▁comercial	-9.36996
▁puestos	-9.37025
▁pena	-9.37095
cia	-9.37286
▁auto	-9.37315
▁cultura	-9.37385
▁Ca	-9.37428
▁próximo	-9.37642
▁soy	-9.37646
lla	-9.37726
▁instrumento	-9.3779
▁inter	-9.37863
▁Te	-9.37941
▁EE	-9.38039
▁@	-9.38105
▁Estas	-9.38154
▁cuya	-9.3828
den	-9.38311
▁terreno	-9.38333
jo	-9.38363
▁escuela	-9.38367
▁tercer	-9.38515
▁expresión	-9.38522
▁naturaleza	-9.38524
▁diciembre	-9.38628
▁solidaridad	-9.38755
▁enfermedades	-9.38852
ras	-9.3886
▁semanas	-9.38902
▁sectores	-9.38986
▁instrumentos	-9.39027
▁tenían	-9.39126
DE	-9.39247
▁ba	-9.39371
▁tarea	-9.39377
▁llamado	-9.39389
▁económicos	-9.39524
▁económicas	-9.39563
▁ideas	-9.39568
mp	-9.39639
▁David	-9.3967
▁niveles	-9.39712
▁ahí	-9.39713
▁cabeza	-9.39807
▁aun	-9.39807
▁explica	-9.39808
▁carne	-9.39883
▁anterior	-9.39932
▁mostrar	-9.39965
▁par	-9.40023
▁impacto	-9.40118
▁leyes	-9.40133
▁grado	-9.40179
▁conciencia	-9.40195
▁grave	-9.4026
▁influencia	-9.40461
Risas	-9.40466
che	-9.40547
▁vigor	-9.40614
▁criterios	-9.40678
▁indica	-9.40905
amos	-9.4098
▁empezar	-9.40985
ha	-9.41008
▁partir	-9.41046
▁nuclear	-9.41327
▁Derechos	-9.41576
ver	-9.41653
man	-9.41764
ros	-9.41777
▁T	-9.41801
▁procedimientos	-9.41814
▁ésta	-9.41849
▁tiempos	-9.41932
▁li	-9.42025
▁disposiciones	-9.42089
▁Tal	-9.42172
ú	-9.42181
▁consejo	-9.42185
ándose	-9.42229
▁probablemente	-9.4228
▁cierta	-9.42313
▁República	-9.4246
U	-9.42494
▁Japón	-9.42548
▁sola	-9.42667
▁estén	-9.42726
▁ciudades	-9.42747
▁llegó	-9.42878
pu	-9.42964
▁precio	-9.43034
▁autoridad	-9.43064
▁comunitario	-9.43075
▁[...]	-9.43099
▁Muchos	-9.43155
▁promover	-9.43322
▁carga	-9.43424
▁Todo	-9.43469
▁local	-9.43586
▁reconocer	-9.436
▁carácter	-9.4363
▁contar	-9.43738
▁familias	-9.43887
▁13	-9.43888
▁formas	-9.44044
▁#	-9.44126
▁líderes	-9.44179
▁llama	-9.44454
▁Unido	-9.44625
remos	-9.44692
▁Sa	-9.44758
▁Medio	-9.44905
▁comunes	-9.45242
▁ma	-9.45343
▁Jerusalén	-9.45538
'	-9.45539
▁entrar	-9.45542
▁conclusión	-9.45558
▁circunstancias	-9.45563
▁Esa	-9.45581
▁evaluación	-9.45726
▁juego	-9.45781
sti	-9.45792
▁comerciales	-9.45793
▁perspectiva	-9.4587
▁pedir	-9.45964
▁quién	-9.45984
▁reciente	-9.46058
▁desea	-9.46092
▁lectura	-9.46103
▁Hace	-9.46108
▁completamente	-9.46315
▁financiero	-9.46356
▁mente	-9.46429
▁conformidad	-9.46468
▁dicen	-9.4649
▁estudiar	-9.46653
▁mandato	-9.46692
ró	-9.46722
▁contenido	-9.46847
▁hermano	-9.46912
▁diciendo	-9.47209
▁demanda	-9.47255
▁voz	-9.47279
▁pequeño	-9.47309
R	-9.4731
▁frecuencia	-9.47317
tado	-9.47377
▁niño	-9.47423
us	-9.47441
▁actuales	-9.4753
▁Juan	-9.47561
▁revista	-9.47671
cho	-9.47673
▁pruebas	-9.47777
▁Puede	-9.47828
▁estudiantes	-9.47845
cen	-9.47938
tiva	-9.47965
▁Nueva	-9.47973
▁cara	-9.48323
▁equilibrio	-9.48475
nta	-9.48534
▁queda	-9.48887
▁iniciativas	-9.4922
▁escuchar	-9.49256
▁pagar	-9.49279
▁redes	-9.49404
nd	-9.49509
▁asistencia	-9.49629
▁Ra	-9.49883
nes	-9.49892
▁cielo	-9.49893
▁energética	-9.49907
▁trans	-9.49942
▁ingresos	-9.49961
▁nación	-9.50012
bles	-9.50101
▁ámbitos	-9.50109
▁--	-9.50312
▁pequeños	-9.50317
▁riesgos	-9.50467
▁recientemente	-9.50532
▁ambos	-9.50675
▁prioridad	-9.50678
▁blog	-9.50692
▁pe	-9.50729
▁consumo	-9.50776
zo	-9.50818
▁ofrece	-9.5084
▁Na	-9.50914
▁recibido	-9.50977
rre	-9.51048
▁anti	-9.5111
▁sur	-9.51206
▁visita	-9.51269
▁empresa	-9.51276
▁M	-9.51482
▁hogar	-9.51543
mu	-9.51562
imos	-9.51567
▁incluir	-9.51577
▁positivo	-9.51665
▁buscar	-9.51757
▁partido	-9.51758
▁colega	-9.51758
▁Asimismo	-9.51986
▁felicitar	-9.52018
▁podamos	-9.52106
▁Mar	-9.52203
▁emisiones	-9.52258
▁fiscal	-9.52273
▁Sus	-9.52353
▁continuar	-9.52418
▁propone	-9.52433
▁señalar	-9.52545
▁cu	-9.52601
ste	-9.52646
▁condición	-9.52657
▁lejos	-9.52677
car	-9.5271
▁Fondo	-9.52712
▁motivos	-9.52727
▁presenta	-9.52754
ka	-9.52761
té	-9.52824
▁discípulos	-9.52905
▁voy	-9.52934
▁campaña	-9.5299
▁contribuir	-9.52996
▁hicieron	-9.53006
gra	-9.53067
▁natural	-9.53102
▁seres	-9.53175
▁costes	-9.532
▁impuestos	-9.53223
▁primeros	-9.53236
▁Derecho	-9.5326
era	-9.53262
▁pequeña	-9.53285
▁alta	-9.53359
su	-9.5343
▁comunitaria	-9.53634
▁tus	-9.53678
▁Conferencia	-9.53694
▁Partido	-9.53714
iera	-9.53765
▁agricultura	-9.53813
▁visión	-9.53844
▁cohesión	-9.54158
▁fa	-9.54215
▁amplia	-9.54302
pro	-9.5438
▁comentarios	-9.54384
▁necesarias	-9.54454
▁función	-9.54486
▁alcance	-9.54529
tan	-9.54541
▁D	-9.54737
9	-9.54809
▁Acuerdo	-9.54858
▁viven	-9.54874
▁junio	-9.54901
hi	-9.55099
ren	-9.55133
▁cuidado	-9.55149
▁graves	-9.55178
▁Irán	-9.55254
▁Mo	-9.55267
▁Internacional	-9.55299
▁revisión	-9.5543
▁pueblos	-9.55495
▁científicos	-9.55522
▁Sí	-9.55575
▁cree	-9.55635
▁responsable	-9.55774
▁matrimonio	-9.55855
▁reglamento	-9.55929
▁Hasta	-9.56055
▁Banco	-9.56076
▁pasa	-9.56087
▁Co	-9.56131
wa	-9.56492
▁directamente	-9.56637
iendo	-9.56647
▁ayudas	-9.56662
▁reforzar	-9.56706
▁K	-9.5673
▁prioridades	-9.56796
▁territorio	-9.56825
▁judíos	-9.56861
▁financieras	-9.56895
▁teniendo	-9.57014
▁apartado	-9.57044
▁encuentran	-9.57204
▁juntos	-9.57217
▁podido	-9.57239
▁sa	-9.57285
cer	-9.57298
00	-9.57346
▁agrícola	-9.57676
▁públicos	-9.57796
▁documento	-9.57806
▁Ella	-9.57878
▁independiente	-9.57963
▁comp	-9.57969
▁dónde	-9.58009
▁Escrituras	-9.58037
▁rápido	-9.58056
▁producto	-9.58085
▁requiere	-9.58093
▁entrada	-9.58287
▁hará	-9.5834
com	-9.58359
▁enero	-9.58362
▁asociación	-9.58375
tivo	-9.58552
▁cuyo	-9.58568
cómo	-9.5861
Es	-9.58618
▁soluciones	-9.58647
j	-9.5874
▁amplio	-9.58855
▁pocos	-9.58864
▁elementos	-9.58892
▁incluye	-9.58913
▁tratamiento	-9.58981
▁terceros	-9.59028
▁ce	-9.59055
▁York	-9.59062
▁estudios	-9.59107
▁salir	-9.59174
▁vino	-9.59196
▁Estamos	-9.59202
▁Irlanda	-9.59217
▁sub	-9.59277
▁drogas	-9.59357
▁posibilidades	-9.59358
▁movimiento	-9.59458
▁señal	-9.59532
▁Bo	-9.59581
▁principalmente	-9.59602
pre	-9.59717
▁probable	-9.59744
▁cumplimiento	-9.59869
▁ciertamente	-9.60038
▁sexual	-9.60137
▁gastos	-9.60139
▁Gran	-9.60184
▁finalmente	-9.60191
▁Grecia	-9.60314
sos	-9.60319
▁tráfico	-9.6034
▁Egipto	-9.60343
▁ra	-9.60373
▁agricultores	-9.60379
ho	-9.60388
▁50	-9.60391
tes	-9.6043
rme	-9.60439
▁demostrado	-9.6055
▁viene	-9.60567
▁marzo	-9.60616
▁aire	-9.60678
▁carta	-9.60684
▁inmigración	-9.60734
▁mitad	-9.60796
▁progreso	-9.60892
▁Satanás	-9.60919
▁representantes	-9.60919
▁ancianos	-9.60993
▁mencionado	-9.61025
▁quería	-9.61043
▁post	-9.61116
per	-9.61128
ing	-9.6113
▁existencia	-9.61234
ll	-9.61371
▁Ni	-9.61459
▁mayo	-9.61616
▁creciente	-9.61688
▁opiniones	-9.61714
mar	-9.618
▁imp	-9.61902
ero	-9.61941
▁señala	-9.62025
▁supone	-9.62063
▁intención	-9.6207
▁regional	-9.62073
▁ciento	-9.62116
gan	-9.62226
▁Seguridad	-9.62274
▁laboral	-9.62374
▁deuda	-9.62504
▁sé	-9.62581
▁análisis	-9.62595
▁demostrar	-9.6264
▁dan	-9.62696
▁hablando	-9.62746
▁candidatos	-9.62749
▁eliminar	-9.62765
▁fuente	-9.6278
▁tipos	-9.62792
ieron	-9.62795
izar	-9.62808
▁planes	-9.62813
il	-9.62969
▁so	-9.62982
▁mismas	-9.63062
▁cristiana	-9.63064
gar	-9.63142
▁Pro	-9.63173
▁coordinación	-9.63218
▁concepto	-9.63253
▁siervos	-9.63337
▁bancos	-9.63372
▁planeta	-9.63411
▁hechos	-9.63428
▁Oriente	-9.63459
▁imagen	-9.63539
▁desempleo	-9.63566
▁postura	-9.63599
▁aplica	-9.63739
▁perder	-9.63775
▁infraestructura	-9.63811
▁funcionamiento	-9.63846
UU	-9.63952
▁serio	-9.63976
▁acaba	-9.63987
▁podrá	-9.64009
▁c	-9.641
▁propuesto	-9.64116
▁artículos	-9.64171
▁intentar	-9.64241
▁pecado	-9.64279
▁tra	-9.64372
▁correcto	-9.64392
▁afirma	-9.64415
▁propias	-9.64499
▁llamar	-9.64539
▁momentos	-9.64541
▁voto	-9.64565
▁Uno	-9.64648
▁afecta	-9.64709
▁logrado	-9.6479
▁Norte	-9.648
adas	-9.64819
▁equipo	-9.64939
sta	-9.64969
ad	-9.64971
▁paquete	-9.65068
▁Ro	-9.65144
▁únicamente	-9.65249
▁legal	-9.65298
▁relativo	-9.65554
▁menor	-9.65795
▁plantea	-9.65949
▁prestar	-9.65957
▁siete	-9.65978
▁verdaderamente	-9.65997
ió	-9.66078
▁busca	-9.66096
▁concreto	-9.66118
▁examinar	-9.66161
cri	-9.66241
▁requisitos	-9.66289
▁fase	-9.66291
▁diferencias	-9.6645
▁Son	-9.66463
▁estructura	-9.66649
▁N	-9.66826
▁construir	-9.66845
▁pone	-9.66849
▁bíblico	-9.66853
▁gas	-9.66984
▁ne	-9.67007
▁disposición	-9.67043
▁exactamente	-9.67092
▁considero	-9.67271
▁discriminación	-9.67331
▁Entre	-9.67477
▁mo	-9.67519
▁comenzar	-9.67653
▁Iglesia	-9.67717
▁acontecimientos	-9.67723
▁norte	-9.67749
▁reconocimiento	-9.67777
▁creen	-9.67786
▁decidir	-9.67944
ck	-9.68022
▁septiembre	-9.68057
▁Padre	-9.68095
▁pi	-9.68132
▁viaje	-9.68278
▁pie	-9.68314
ber	-9.68328
▁habido	-9.68484
▁partidos	-9.68553
▁esposo	-9.68579
▁competitividad	-9.68625
▁conducta	-9.68711
▁responsables	-9.68711
▁informa	-9.68787
▁’.	-9.68801
▁adopción	-9.68911
▁próxima	-9.69039
▁creado	-9.69069
▁terminar	-9.69167
▁aprobado	-9.69197
▁Nuestro	-9.69202
▁inglés	-9.69254
▁interesante	-9.69298
▁firme	-9.6931
cre	-9.69351
▁debates	-9.69429
▁hubo	-9.69512
▁particularmente	-9.69643
ita	-9.69737
▁página	-9.69797
▁noviembre	-9.69801
▁relativas	-9.69859
▁Po	-9.69928
▁Ka	-9.6995
▁Da	-9.70014
▁colaboración	-9.70025
▁televisión	-9.70032
ón	-9.70226
▁distintos	-9.70373
▁comer	-9.70521
▁máximo	-9.70554
▁jurídico	-9.70574
▁noticias	-9.70667
▁aprobar	-9.70671
▁curso	-9.7071
▁petróleo	-9.70787
▁cabe	-9.70878
▁llamada	-9.7104
▁“¿	-9.71183
▁Italia	-9.71225
▁innovación	-9.71254
▁importa	-9.71268
▁baja	-9.71498
▁luchar	-9.71783
▁Asia	-9.71806
▁correcta	-9.71863
▁Fue	-9.71902
▁bo	-9.71935
sis	-9.71936
▁explicar	-9.71937
▁Está	-9.71991
or	-9.71992
▁refugiados	-9.72068
▁simple	-9.72074
▁España	-9.72165
▁administración	-9.72215
▁24	-9.7227
▁vecinos	-9.72283
▁inversiones	-9.72284
▁seguros	-9.72531
▁sitio	-9.72553
».	-9.72632
▁controlar	-9.72715
▁Li	-9.72809
▁comprender	-9.72873
▁familiar	-9.72878
▁adecuada	-9.72881
▁creer	-9.72969
▁completa	-9.73041
▁eficacia	-9.73205
▁Hijo	-9.73218
▁trabajando	-9.73229
▁cultural	-9.73245
▁Constitución	-9.73294
▁situaciones	-9.73294
▁destrucción	-9.73384
▁introducir	-9.73384
▁aguas	-9.73416
▁imposible	-9.73504
▁material	-9.73524
▁próximos	-9.73531
▁comida	-9.73552
tri	-9.7359
▁superior	-9.73611
▁discurso	-9.7362
▁independencia	-9.73653
▁prensa	-9.73654
▁hacerse	-9.73664
▁defender	-9.73714
▁pan	-9.73723
▁mala	-9.73769
▁octubre	-9.73863
dora	-9.73936
▁sucede	-9.74033
▁ciencia	-9.74041
▁complace	-9.74226
▁similar	-9.74394
▁puerta	-9.74443
▁ciertos	-9.74469
▁Desarrollo	-9.74499
cos	-9.74523
ur	-9.74566
una	-9.74655
▁obligación	-9.7468
▁Ga	-9.74703
▁Sur	-9.74754
ge	-9.7481
▁fomentar	-9.74862
▁tomado	-9.74867
▁corto	-9.7487
▁rápida	-9.75004
▁capaz	-9.7502
▁declaraciones	-9.75098
▁combatir	-9.75124
▁positiva	-9.75175
▁buenos	-9.75184
▁contribución	-9.75408
▁hacemos	-9.7552
▁asimismo	-9.7556
L	-9.75669
▁útil	-9.75734
▁ro	-9.7578
▁llevado	-9.75836
▁Política	-9.75928
▁funcionarios	-9.75961
▁conflictos	-9.75986
▁ciertas	-9.76009
▁delante	-9.76017
▁gasto	-9.76119
▁compañeros	-9.7625
▁miedo	-9.7627
▁evolución	-9.76419
▁públicas	-9.76438
bra	-9.76583
▁media	-9.76724
▁Pedro	-9.76825
▁absolutamente	-9.76864
par	-9.76866
▁potencial	-9.76891
En	-9.77024
aba	-9.77042
▁21	-9.77044
gue	-9.77178
▁compromisos	-9.77348
▁adoptado	-9.77465
▁R	-9.77534
▁U	-9.77674
▁alimento	-9.77716
V	-9.77778
▁Central	-9.77785
▁finales	-9.77788
▁fuego	-9.77814
▁celebrar	-9.77878
▁ocupa	-9.77882
▁contiene	-9.78025
▁22	-9.78042
encia	-9.78093
▁peor	-9.78099
izado	-9.78178
▁demuestra	-9.78298
▁sal	-9.7833
▁predicar	-9.78407
▁tratado	-9.78431
▁habitantes	-9.78446
▁Pa	-9.78473
▁ministerio	-9.78475
▁bienestar	-9.78514
▁larga	-9.78578
▁temor	-9.78646
▁América	-9.78695
▁moral	-9.78707
▁mencionar	-9.7878
llo	-9.78803
▁parecer	-9.78806
▁tendrán	-9.78847
▁petición	-9.79043
De	-9.7905
▁conclusiones	-9.79138
▁100	-9.79158
▁reglas	-9.7919
▁cumbre	-9.79236
▁adecuado	-9.79251
gu	-9.79358
rro	-9.79368
▁aprovechar	-9.79392
▁Cumbre	-9.79488
▁activa	-9.79608
▁cargo	-9.79627
▁llega	-9.79745
▁muertos	-9.79806
▁sabía	-9.79823
▁cerebro	-9.79964
▁alma	-9.79998
▁fuentes	-9.80001
▁iba	-9.8002
▁pérdida	-9.80059
gen	-9.80071
▁funciona	-9.80306
▁periódico	-9.80417
▁consideración	-9.80446
bu	-9.80486
▁beneficio	-9.80504
▁relacionados	-9.80623
▁basa	-9.80637
H	-9.80663
▁aquella	-9.80696
gre	-9.80748
▁diversas	-9.80767
▁método	-9.80807
▁merece	-9.80828
▁impedir	-9.8083
tru	-9.80831
▁actos	-9.80879
▁cor	-9.80938
▁Jo	-9.80969
▁error	-9.80998
▁diversos	-9.81058
▁factores	-9.81073
▁producir	-9.81092
▁Cada	-9.81136
▁Justicia	-9.81153
▁difíciles	-9.81188
▁40	-9.81216
▁man	-9.8137
▁julio	-9.81445
▁contaminación	-9.81464
▁necesarios	-9.81485
▁circulación	-9.81521
▁costa	-9.81526
▁consiste	-9.81618
▁ejecución	-9.81704
▁aproximadamente	-9.81709
▁avanzar	-9.81898
▁expertos	-9.82049
▁democrático	-9.82092
▁tecnologías	-9.82183
▁generación	-9.82194
cida	-9.82199
▁obras	-9.82386
mina	-9.82482
▁ejército	-9.82525
nda	-9.8255
▁quizá	-9.82621
▁bíblicos	-9.82674
▁libros	-9.82723
▁capaces	-9.82751
▁Comité	-9.82782
▁sabiduría	-9.82848
▁época	-9.82848
▁perdido	-9.82881
▁vidas	-9.82931
tal	-9.82966
▁productores	-9.8303
▁naturales	-9.83125
Y	-9.83125
▁hagan	-9.83125
▁depende	-9.83132
▁exige	-9.83146
▁Ese	-9.83195
▁corrupción	-9.83217
▁abril	-9.83244
▁siguientes	-9.83314
▁dura	-9.83351
▁militares	-9.83403
rra	-9.83458
▁economías	-9.83459
▁ilegal	-9.83574
▁enviar	-9.83685
▁unidad	-9.83688
como	-9.8371
▁moneda	-9.83728
▁convertido	-9.83772
▁término	-9.83895
▁ministro	-9.83895
▁web	-9.83961
Se	-9.83961
▁Luego	-9.84073
▁elección	-9.84106
▁pretende	-9.84367
▁breve	-9.84369
▁atrás	-9.84371
▁médico	-9.84402
▁razonable	-9.84435
▁decidido	-9.84471
▁vemos	-9.84485
▁vital	-9.84486
▁oficial	-9.84507
▁pacientes	-9.84513
▁preocupa	-9.84551
▁nota	-9.84586
▁amigo	-9.84675
sas	-9.8468
▁perspectivas	-9.84713
có	-9.84745
▁producido	-9.84806
▁recientes	-9.84877
▁competencias	-9.84968
▁anual	-9.85016
▁Solo	-9.85044
▁deja	-9.851
▁respuestas	-9.85128
▁figura	-9.85136
▁puso	-9.85194
▁posibles	-9.85265
▁San	-9.85332
ton	-9.85343
▁olvidar	-9.85355
▁estructurales	-9.85503
tre	-9.85534
▁produce	-9.85611
▁estuvo	-9.85713
▁estadounidenses	-9.85796
▁preocupaciones	-9.85915
▁estadounidense	-9.85947
▁encontramos	-9.8602
▁comunidades	-9.86023
▁compañías	-9.86058
▁asilo	-9.86161
▁parecen	-9.86263
▁car	-9.86279
▁trato	-9.86396
▁introducción	-9.86564
0.000	-9.86614
▁distancia	-9.86634
▁doble	-9.86644
lia	-9.86693
▁cuál	-9.86724
▁establece	-9.86753
▁avances	-9.86779
▁Puesto	-9.86833
cion	-9.86845
▁Jehovah	-9.86978
▁sanciones	-9.86984
▁Que	-9.87075
▁métodos	-9.87171
▁sol	-9.87171
▁añadir	-9.87214
▁piensa	-9.87302
▁Ucrania	-9.87317
rios	-9.87337
▁do	-9.87521
son	-9.87522
▁Nuestra	-9.87667
▁conseguido	-9.87696
▁Creador	-9.87735
▁torno	-9.87747
▁com	-9.87775
▁feliz	-9.878
▁sacar	-9.87844
▁dejado	-9.87868
▁Convención	-9.87869
▁L	-9.87954
▁respetar	-9.88053
▁corresponde	-9.88054
▁música	-9.88076
▁fi	-9.88084
▁anteriores	-9.88187
▁nucleares	-9.88218
▁éstos	-9.88284
cas	-9.88579
▁existentes	-9.88595
▁interesa	-9.88678
▁ayer	-9.88701
▁Muchas	-9.88769
▁residuos	-9.88806
▁declara	-9.88812
▁empezó	-9.88841
▁destacar	-9.88883
▁continente	-9.88981
▁hu	-9.88983
▁Kosovo	-9.89086
▁comportamiento	-9.89163
▁médicos	-9.89193
▁adoración	-9.89194
▁comprar	-9.89198
ces	-9.89207
▁suelo	-9.89283
▁protesta	-9.89316
▁propiedad	-9.89374
▁tú	-9.89403
ul	-9.89429
▁prohibición	-9.89436
▁tercera	-9.89582
▁Finalmente	-9.89647
▁generales	-9.89699
▁culpa	-9.89705
ye	-9.89714
▁facilitar	-9.89813
▁apoya	-9.8984
▁condena	-9.89919
▁oración	-9.89972
▁desempeñar	-9.90041
▁consumidor	-9.90045
▁permita	-9.90045
gos	-9.90082
▁Guerra	-9.90141
▁ocurre	-9.90386
▁dolor	-9.90422
▁peso	-9.90423
▁superar	-9.90491
▁vio	-9.905
endo	-9.90504
▁mínimo	-9.90591
ki	-9.90613
▁encima	-9.9064
▁documentos	-9.90665
▁hablado	-9.90708
▁claridad	-9.90779
▁comenzó	-9.9078
▁clima	-9.90851
▁oído	-9.90881
▁alcanzado	-9.91044
EN	-9.91059
▁Twitter	-9.91064
▁democrática	-9.91101
cta	-9.9124
▁absoluto	-9.9135
der	-9.9136
▁Ja	-9.91374
yo	-9.91386
▁cuentas	-9.91485
▁estrecha	-9.91502
▁coste	-9.91518
▁dando	-9.91532
▁materiales	-9.91539
▁ambas	-9.9158
cio	-9.91596
▁pide	-9.91684
▁Primer	-9.91777
▁santo	-9.91804
▁israelitas	-9.91815
▁obligaciones	-9.91908
▁bondad	-9.9193
▁dispuestos	-9.92005
▁cáncer	-9.92069
▁lengua	-9.92238
▁V	-9.9232
▁sentimientos	-9.92329
▁pudo	-9.924
▁vía	-9.92492
▁ta	-9.92556
▁reservas	-9.92575
▁límites	-9.92609
▁Do	-9.9263
▁ataque	-9.92633
fu	-9.9266
▁conferencia	-9.9266
▁27	-9.92676
▁Antes	-9.92787
▁mecanismo	-9.92849
▁Corea	-9.92905
▁cal	-9.92939
▁suma	-9.93006
▁proporcionar	-9.9308
▁proceder	-9.93085
▁constituyen	-9.93107
▁normal	-9.93143
▁tendría	-9.93151
▁kilómetros	-9.93155
▁refleja	-9.93159
▁23	-9.93181
▁Ex	-9.93204
▁res	-9.93317
▁daño	-9.93325
▁esperamos	-9.93336
mas	-9.9348
▁comienzo	-9.9348
▁gusta	-9.93493
▁sumamente	-9.93511
▁naturalmente	-9.93559
▁regionales	-9.93629
▁prevención	-9.93704
▁apropiado	-9.93749
▁continuación	-9.93752
▁Les	-9.93819
hu	-9.93829
▁jurídica	-9.939
ke	-9.93933
▁impuesto	-9.94
he	-9.94097
▁vive	-9.94166
rían	-9.94175
▁establecimiento	-9.94219
ábamos	-9.9431
▁'	-9.94323
▁celestial	-9.94328
▁hincapié	-9.94402
▁compartir	-9.94439
▁hambre	-9.94471
ko	-9.94494
▁dichos	-9.9455
▁constante	-9.94574
▁evidencia	-9.94698
▁suficientemente	-9.94724
▁felicidad	-9.94735
▁ataques	-9.94828
▁ocho	-9.94873
bilidad	-9.94907
▁Ley	-9.94926
▁pacto	-9.94928
▁Iraq	-9.94974
▁liberalización	-9.95188
▁convertirse	-9.95232
rlo	-9.95255
▁elemento	-9.95276
▁distintas	-9.95392
▁desean	-9.95498
▁suministro	-9.95516
via	-9.95606
▁tamaño	-9.95627
▁procede	-9.95673
▁2004	-9.95687
▁sesión	-9.95723
▁conversaciones	-9.95739
▁of	-9.9575
▁dispuesto	-9.95771
▁Aquí	-9.95899
▁desgracia	-9.95935
▁templo	-9.96076
nas	-9.96098
mer	-9.96252
it	-9.96365
▁Bruselas	-9.96415
▁Ta	-9.96613
▁permanente	-9.96624
▁Tengo	-9.96641
▁relacionadas	-9.9677
▁animal	-9.96802
▁minutos	-9.96887
▁ejemplos	-9.96933
▁especie	-9.96953
▁General	-9.97
▁factor	-9.971
▁civiles	-9.97102
▁gra	-9.97108
▁conocido	-9.97185
ji	-9.97193
▁inaceptable	-9.97322
▁asamblea	-9.97338
▁dé	-9.97441
▁tendencia	-9.97531
▁Nacional	-9.97557
▁tasa	-9.97568
▁g	-9.97582
▁Moisés	-9.97588
▁agradecimiento	-9.97589
am	-9.97623
▁igualmente	-9.97728
▁definición	-9.97741
▁establecido	-9.97805
▁fundamento	-9.97843
▁áreas	-9.97894
▁sustancias	-9.97969
▁ganar	-9.98061
▁Brasil	-9.98085
▁reto	-9.98131
▁febrero	-9.98161
▁”?	-9.9818
▁to	-9.98181
▁inmigrantes	-9.98186
▁contacto	-9.98347
▁abrir	-9.98348
▁pocas	-9.98371
▁vale	-9.98409
tica	-9.98579
▁Gracias	-9.98591
▁eterna	-9.98738
▁presentes	-9.98742
▁vehículos	-9.98929
▁recuperación	-9.98947
▁límite	-9.9901
fer	-9.99018
▁significado	-9.99029
▁Pre	-9.99133
im	-9.9918
▁determinar	-9.99213
▁profesional	-9.99224
▁monetaria	-9.9924
ab	-9.9926
▁plantear	-9.99412
▁OMC	-9.99472
▁testimonio	-9.99472
▁Ju	-9.99494
▁apenas	-9.99507
▁escribe	-9.99512
▁Necesitamos	-9.99531
▁conoce	-9.99542
▁debatir	-9.99582
▁Exteriores	-9.99601
eo	-9.99691
▁podríamos	-9.99702
▁consenso	-9.99706
▁abierto	-9.9972
▁decía	-9.99757
▁trabajos	-9.99789
▁creemos	-9.99873
mó	-9.99886
▁antigua	-9.99922
▁profundo	-9.99939
▁fraude	-9.99979
Si	-10.0002
▁crea	-10.0003
▁intento	-10.0004
▁tuvieron	-10.0004
▁muestran	-10.0014
▁fines	-10.0019
▁informar	-10.0023
▁hacía	-10.0028
▁Estrategia	-10.0037
▁utiliza	-10.0046
▁Ho	-10.0051
rri	-10.0053
▁humanitaria	-10.0053
▁carrera	-10.0057
ales	-10.0057
▁pienso	-10.0059
▁II	-10.0064
▁color	-10.0072
▁avance	-10.0075
lí	-10.0079
FR	-10.0081
▁estilo	-10.0081
▁pasos	-10.0084
▁Incluso	-10.0084
▁diversidad	-10.0084
día	-10.0085
▁judicial	-10.009
▁especiales	-10.0091
ry	-10.0098
cl	-10.0101
K	-10.0105
nu	-10.0112
▁Pues	-10.0114
tor	-10.0117
▁inmediatamente	-10.0122
▁Otro	-10.0123
▁señalado	-10.0131
▁vaya	-10.0136
▁ad	-10.0138
▁muerto	-10.0139
▁iglesia	-10.0139
▁declaró	-10.0139
▁Facebook	-10.0143
▁mesa	-10.0143
▁espirituales	-10.0144
prim	-10.0148
▁1999	-10.0161
▁Nosotros	-10.0172
▁Era	-10.0173
ac	-10.018
▁socios	-10.0183
▁Bu	-10.0188
▁institución	-10.0195
▁Sólo	-10.0199
▁pasada	-10.0199
▁sentir	-10.0203
et	-10.0204
▁terroristas	-10.0212
▁2008	-10.0219
▁original	-10.0224
bri	-10.0225
▁ejercer	-10.0228
▁basada	-10.0236
▁imponer	-10.0249
▁na	-10.0253
cía	-10.0263
▁mecanismos	-10.0264
▁pleno	-10.0267
▁bíblica	-10.0273
▁menciona	-10.0277
iza	-10.0278
▁utilización	-10.0281
▁misión	-10.0284
▁agradecer	-10.0284
ger	-10.0289
▁2000	-10.0293
▁Tiene	-10.0297
▁asumir	-10.0305
cul	-10.0307
▁periodo	-10.0307
▁extra	-10.0307
▁dimensión	-10.0319
▁dudas	-10.032
▁podrán	-10.0326
▁errores	-10.0327
▁malo	-10.0334
▁décadas	-10.034
chi	-10.0345
▁dichas	-10.0347
▁Carta	-10.0355
▁representan	-10.0361
▁sufrimiento	-10.0363
ec	-10.0372
▁popular	-10.0377
▁compañía	-10.0379
▁fracaso	-10.038
▁concluir	-10.0392
▁pido	-10.0396
▁Quizás	-10.0398
▁eficiencia	-10.04
▁enseñanza	-10.0408
sh	-10.0408
fo	-10.0411
▁digo	-10.042
▁significativa	-10.0423
til	-10.0426
▁identidad	-10.0428
▁considerable	-10.043
▁tendremos	-10.0432
▁coherente	-10.044
▁planteamiento	-10.0444
▁oír	-10.0455
▁intercambio	-10.0458
lle	-10.0459
▁guía	-10.0461
▁plena	-10.0466
▁efectiva	-10.0467
▁salvar	-10.0469
▁corre	-10.047
▁correspondiente	-10.0473
▁fiscales	-10.0479
▁puesta	-10.0485
des	-10.0493
ed	-10.0505
▁religiosos	-10.0507
▁usuarios	-10.0508
▁alguno	-10.0511
▁afectados	-10.0515
▁impresión	-10.0535
▁diario	-10.0537
▁enseñar	-10.0537
▁campos	-10.0537
▁llena	-10.0538
tura	-10.0546
▁An	-10.0561
▁consulta	-10.0563
▁2005	-10.0565
”.	-10.0569
▁disfrutar	-10.0577
▁pasó	-10.0582
▁hi	-10.0582
▁apertura	-10.0593
▁supervisión	-10.0597
▁60	-10.0603
▁industrial	-10.0607
▁antiguo	-10.0611
▁pu	-10.0616
▁controles	-10.0616
▁H	-10.0636
tivos	-10.0637
▁francés	-10.0638
▁reales	-10.0639
▁centrales	-10.065
▁líneas	-10.0652
▁tareas	-10.0658
▁idioma	-10.0663
▁escribir	-10.0666
▁género	-10.0667
▁llevan	-10.069
▁publicado	-10.0692
▁deberá	-10.0701
▁sociedades	-10.0706
▁concretas	-10.0709
▁conforme	-10.0711
5-	-10.0712
▁impulso	-10.0713
▁arte	-10.072
▁precisa	-10.0724
▁llevó	-10.0726
▁Algunas	-10.0738
▁podían	-10.0741
▁religiosa	-10.0744
▁Be	-10.0745
▁mu	-10.0748
siones	-10.0754
▁inmediato	-10.0759
▁jamás	-10.0764
ex	-10.0764
▁fuertes	-10.0768
▁subrayar	-10.0774
▁organismos	-10.0783
▁detalles	-10.0788
▁observar	-10.079
▁llamamiento	-10.0793
▁alimentaria	-10.0813
▁fortalecer	-10.0814
▁registro	-10.0816
▁consciente	-10.0817
▁fieles	-10.0818
▁isla	-10.0819
▁dije	-10.0822
ia	-10.0823
▁estará	-10.0833
ente	-10.0839
▁personales	-10.0839
▁Mu	-10.0841
▁enfrenta	-10.0846
▁pasajeros	-10.0849
ut	-10.0858
▁etc	-10.0865
▁regulación	-10.0869
▁llegue	-10.0869
▁experiencias	-10.0872
tí	-10.0878
▁Tras	-10.0882
▁vías	-10.0885
oso	-10.0888
▁afrontar	-10.0897
▁operaciones	-10.09
▁siente	-10.09
▁morir	-10.0901
io	-10.0903
▁agrícolas	-10.0907
cciones	-10.0915
Los	-10.0917
cional	-10.0921
▁To	-10.0921
▁incluido	-10.0922
▁autor	-10.0926
▁col	-10.0934
tt	-10.0942
▁Pe	-10.0962
▁pedido	-10.0964
bre	-10.0967
▁Sociedad	-10.0972
▁flexibilidad	-10.0972
▁tabaco	-10.0972
▁promesa	-10.0972
▁darle	-10.0972
▁capítulo	-10.0981
▁Organización	-10.099
▁quedado	-10.0994
▁debajo	-10.0997
nia	-10.1005
▁golpe	-10.1005
mit	-10.1006
▁segura	-10.1008
▁consideran	-10.1008
sion	-10.1009
▁Fi	-10.1031
▁opción	-10.105
▁firmemente	-10.1056
▁cientos	-10.1059
▁podremos	-10.1067
▁observación	-10.1071
▁sencillamente	-10.1075
▁presentó	-10.1076
▁Ko	-10.108
▁Man	-10.1081
▁similares	-10.1086
▁Bueno	-10.1087
▁directa	-10.109
▁meta	-10.109
▁suerte	-10.1094
ment	-10.1095
▁profundamente	-10.1102
▁virtud	-10.1102
th	-10.1111
▁hospital	-10.1117
▁elaborar	-10.1122
▁aceptable	-10.1125
▁causas	-10.1132
▁Humanos	-10.1133
▁unión	-10.1138
▁medicamentos	-10.1141
▁cuarto	-10.115
▁mundiales	-10.1155
▁últimas	-10.1163
▁□	-10.1163
dera	-10.1163
▁acabar	-10.1164
▁Afganistán	-10.1168
▁Libro	-10.1168
▁Ellos	-10.1174
▁Ar	-10.1175
▁ropa	-10.1177
▁2001	-10.1178
▁disciplina	-10.1182
▁técnica	-10.1184
rd	-10.1189
▁recomendaciones	-10.1195
tribu	-10.1198
can	-10.1199
▁prisión	-10.1203
▁tratando	-10.1203
▁Ministros	-10.1203
▁créditos	-10.1219
▁páginas	-10.1225
▁quedan	-10.1229
▁imágenes	-10.1229
▁convertir	-10.1237
▁asistir	-10.1238
▁enormes	-10.124
▁ganado	-10.1241
▁po	-10.1241
▁presupuestaria	-10.1242
▁adicionales	-10.1247
idas	-10.1249
▁continua	-10.1252
▁comentario	-10.1252
▁área	-10.1256
▁reacción	-10.1257
▁pudieran	-10.1262
▁*	-10.127
▁Per	-10.1277
▁corta	-10.1288
▁entorno	-10.1288
▁regular	-10.1295
▁formar	-10.1296
▁previsto	-10.1296
▁for	-10.1297
▁ten	-10.1297
▁adicional	-10.13
▁cielos	-10.1312
▁trabajan	-10.1313
▁velocidad	-10.1313
▁urgente	-10.1314
▁maneras	-10.1314
▁futura	-10.1314
▁bienes	-10.132
▁conscientes	-10.132
▁gana	-10.1324
▁acto	-10.1327
ig	-10.134
▁2003	-10.1342
▁Salud	-10.1342
▁alegra	-10.1346
▁menores	-10.1353
▁vistas	-10.1353
▁privado	-10.136
rias	-10.1361
▁minorías	-10.1362
▁abandonar	-10.1364
ico	-10.1366
▁divina	-10.1367
▁urgencia	-10.1367
▁Pakistán	-10.1371
▁vuelta	-10.1374
▁cualquiera	-10.1375
▁mental	-10.138
▁iniciar	-10.1384
▁Han	-10.1385
▁preparar	-10.1387
▁ciudadano	-10.1388
▁observaciones	-10.1391
▁manifiesto	-10.1394
▁ampliar	-10.1396
▁Aun	-10.1399
pen	-10.14
▁seguimiento	-10.1403
▁distribución	-10.1407
▁plantas	-10.1408
▁búsqueda	-10.1412
dic	-10.1412
▁teoría	-10.1416
▁siento	-10.1416
▁crítica	-10.1423
em	-10.1436
torio	-10.1439
▁siglos	-10.1439
▁duro	-10.1446
▁diseño	-10.1453
▁lenguaje	-10.1455
▁crucial	-10.1457
▁década	-10.146
▁aéreo	-10.1461
▁déficit	-10.1465
▁pagos	-10.1468
▁dejó	-10.1473
▁ricos	-10.1476
▁promoción	-10.1479
▁antiguos	-10.1485
▁ocurrido	-10.1493
▁interna	-10.1496
▁New	-10.1496
▁gozo	-10.1507
▁negociación	-10.1508
▁hogares	-10.1513
▁tengamos	-10.1518
▁garantía	-10.152
▁ministros	-10.1531
lar	-10.1533
▁solicitud	-10.1534
▁ho	-10.1535
▁obstáculos	-10.1541
▁cifras	-10.1545
▁cristiandad	-10.1547
rí	-10.1548
▁efectuar	-10.1553
▁28	-10.1555
▁células	-10.1565
▁evaluar	-10.1568
▁bi	-10.1571
cto	-10.1571
▁hallar	-10.1572
▁cita	-10.1574
▁perfectamente	-10.1581
▁recuerda	-10.1582
para	-10.1587
▁Cu	-10.1589
▁familiares	-10.159
▁destino	-10.159
▁ido	-10.1597
▁detrás	-10.1598
ana	-10.1598
▁noticia	-10.1598
▁permitirá	-10.1599
▁Roma	-10.1599
▁compra	-10.1602
▁negocios	-10.1605
▁fiel	-10.1607
▁Sobre	-10.1613
▁dijeron	-10.1617
zar	-10.1621
▁enseña	-10.1628
▁arma	-10.1633
ina	-10.1633
▁soberanía	-10.1639
▁Polonia	-10.1644
▁can	-10.1647
▁deseos	-10.1647
▁Pi	-10.1649
▁suficientes	-10.1649
▁comunitarias	-10.1649
▁planteado	-10.165
▁hija	-10.1665
▁revela	-10.1667
▁insta	-10.1668
▁libertades	-10.1668
▁comparación	-10.1675
▁planta	-10.1677
ones	-10.168
▁tasas	-10.1693
▁escuelas	-10.1696
▁institucional	-10.1704
▁profecía	-10.1711
▁siga	-10.1713
▁Podemos	-10.1715
▁profeta	-10.1715
▁margen	-10.1728
▁cifra	-10.1734
▁batalla	-10.1736
▁2002	-10.1738
▁altos	-10.1741
▁permiso	-10.1745
▁técnicas	-10.1751
bor	-10.176
▁sacrificio	-10.1762
▁Ambiente	-10.1764
▁considerado	-10.1765
▁calle	-10.1766
▁reconoce	-10.1766
▁extranjero	-10.1767
▁oro	-10.1769
▁derecha	-10.1769
▁superficie	-10.1782
▁semejante	-10.1786
▁Convenio	-10.1787
▁armonización	-10.1789
▁desafío	-10.1791
▁Universidad	-10.1792
▁reciben	-10.1793
▁abierta	-10.1795
▁verano	-10.18
▁numerosas	-10.1801
▁verdaderos	-10.1806
▁producen	-10.1806
▁manifestar	-10.1806
▁daños	-10.1814
▁exigir	-10.1815
ñe	-10.1836
▁marca	-10.1838
▁disponibles	-10.184
▁debía	-10.1847
▁financiar	-10.1861
▁estructuras	-10.1875
▁limitar	-10.1897
▁boca	-10.1907
▁confiar	-10.1907
▁aquellas	-10.1915
tivas	-10.192
▁extraordinaria	-10.1923
▁extremadamente	-10.1924
▁legislativo	-10.1924
▁estable	-10.1934
▁reserva	-10.1937
▁destaca	-10.1941
lan	-10.1942
▁retos	-10.1945
▁numerosos	-10.1947
▁personalmente	-10.1951
▁Mary	-10.1954
▁código	-10.1957
▁izquierda	-10.1957
▁fui	-10.1966
▁convencido	-10.1968
▁limpia	-10.1987
▁recibió	-10.199
▁elaboración	-10.1996
▁conjunta	-10.1999
▁So	-10.2003
▁dirigir	-10.2003
▁ponentes	-10.2021
J	-10.2024
▁proporciona	-10.2027
▁aumenta	-10.2041
▁consideramos	-10.2054
▁testigo	-10.2055
▁metros	-10.2057
▁profesor	-10.206
▁Agencia	-10.2066
ler	-10.2067
sco	-10.207
len	-10.2071
▁Ri	-10.2089
▁tri	-10.209
id	-10.2094
▁conceder	-10.2094
▁dignidad	-10.21
▁incremento	-10.21
▁paciente	-10.2104
▁excepción	-10.211
▁poderes	-10.2113
▁radio	-10.2116
▁México	-10.2119
▁parecía	-10.212
▁específicas	-10.212
▁paga	-10.2127
▁ventajas	-10.213
▁Usted	-10.213
▁seguido	-10.2133
▁permanecer	-10.2133
▁prácticamente	-10.2142
ciendo	-10.2144
▁delegación	-10.2148
▁medianas	-10.2158
▁Portugal	-10.2158
▁garantías	-10.2158
▁plano	-10.2162
▁profesionales	-10.2174
sto	-10.2177
▁normativa	-10.2178
▁J	-10.2182
▁calles	-10.2183
▁26	-10.2189
rt	-10.219
▁fueran	-10.2191
▁CO	-10.2192
▁reco	-10.2196
▁permitido	-10.2197
xi	-10.2197
▁analizar	-10.2205
▁Bretaña	-10.2206
▁inflación	-10.2217
Ha	-10.222
esta	-10.2221
ser	-10.2225
▁sueño	-10.2228
▁usa	-10.2233
um	-10.2236
ine	-10.2238
cal	-10.224
cido	-10.224
▁Go	-10.224
▁PIB	-10.225
▁francesa	-10.225
▁caída	-10.226
▁W	-10.2261
dra	-10.2262
▁elegir	-10.2265
▁agenda	-10.2266
▁examen	-10.227
▁parcial	-10.227
▁Hu	-10.2271
▁predicación	-10.2273
cor	-10.2274
aria	-10.2283
▁preguntó	-10.2285
▁pidió	-10.2285
▁Parece	-10.229
▁Popular	-10.2294
▁esenciales	-10.23
▁Sol	-10.2302
▁mantiene	-10.2304
▁Suecia	-10.2304
▁Fondos	-10.2313
▁deriva	-10.2317
▁crédito	-10.2325
▁video	-10.2336
▁activos	-10.2342
▁procedentes	-10.2343
▁Fa	-10.2344
dad	-10.2344
▁sucedió	-10.2346
▁PYME	-10.2348
at	-10.2351
ás	-10.2359
»,	-10.2359
▁diputado	-10.236
▁comenta	-10.2364
▁legales	-10.2367
▁carbono	-10.2368
IT	-10.2369
▁Programa	-10.2378
▁continúa	-10.238
▁sirve	-10.238
▁versión	-10.2383
▁ama	-10.2384
▁entera	-10.2392
▁órganos	-10.2395
tada	-10.2402
▁basado	-10.2411
▁Adán	-10.2415
gas	-10.2417
▁sexuales	-10.2418
▁Canadá	-10.2419
tico	-10.242
▁Gobiernos	-10.2422
▁basta	-10.2422
▁ONU	-10.2423
idos	-10.2423
▁evidentemente	-10.2427
▁pase	-10.2431
▁hermana	-10.2434
▁tomó	-10.2443
cción	-10.2447
▁promesas	-10.2448
▁entra	-10.2449
▁centros	-10.2451
▁religiosas	-10.2457
▁extranjeros	-10.2459
▁vivo	-10.2461
▁agencias	-10.2462
▁ayudará	-10.2463
▁pago	-10.2463
▁electoral	-10.2464
▁asegura	-10.2486
▁altura	-10.2489
gó	-10.2492
▁restricciones	-10.2498
▁líder	-10.2499
▁edificio	-10.2502
▁agosto	-10.2503
▁especies	-10.2506
▁permiten	-10.2515
▁partida	-10.2517
▁protestas	-10.2521
▁costo	-10.2523
▁emergencia	-10.2523
▁pensiones	-10.2528
▁física	-10.2528
▁norma	-10.2533
▁cantidades	-10.2539
▁estados	-10.2539
Quién	-10.2545
▁modificar	-10.2546
▁características	-10.2548
dia	-10.2548
▁firma	-10.2549
▁transición	-10.2553
▁seguidores	-10.2554
nal	-10.2558
dé	-10.257
▁sala	-10.257
▁sienten	-10.2578
▁:	-10.258
▁sanitaria	-10.2583
ner	-10.2585
▁determinados	-10.2586
▁eficaces	-10.2593
▁Otros	-10.2594
▁expresado	-10.2601
▁super	-10.2603
ic	-10.2607
▁fácilmente	-10.261
▁carretera	-10.261
▁progresos	-10.2613
▁reducido	-10.2613
▁relativamente	-10.2618
▁armonía	-10.2619
▁Otra	-10.262
▁bíblicas	-10.2626
▁Dado	-10.2626
▁médica	-10.2629
izada	-10.2632
▁electricidad	-10.2634
▁Du	-10.2635
▁detener	-10.2636
▁veo	-10.264
▁credibilidad	-10.2644
▁máxima	-10.2644
PL	-10.2656
▁dieron	-10.2663
▁1,	-10.2672
nto	-10.2684
▁OTAN	-10.2685
▁victoria	-10.2685
▁poblaciones	-10.2695
▁bar	-10.2703
▁publicó	-10.2705
▁individuos	-10.2706
ndi	-10.2709
▁oferta	-10.2715
ue	-10.2728
▁arriba	-10.2731
▁cambiado	-10.2732
▁pacífica	-10.2736
▁Obama	-10.2736
▁Cor	-10.2739
▁río	-10.2739
▁sexo	-10.2742
▁occidental	-10.2744
▁señores	-10.275
▁críticas	-10.2754
▁cualidades	-10.2759
▁garantiza	-10.276
▁empleados	-10.2766
▁29	-10.2767
▁éstas	-10.2771
▁mostrado	-10.2777
▁escuchado	-10.2778
▁profunda	-10.2787
▁medicina	-10.2787
▁solicita	-10.2789
▁Asociación	-10.2798
▁Hi	-10.28
▁encontrado	-10.2803
ló	-10.2807
▁Isaías	-10.2808
▁describe	-10.2823
▁Primero	-10.2825
▁preparación	-10.2828
▁habló	-10.2829
▁turismo	-10.2834
▁edificios	-10.2834
▁instancia	-10.2835
▁sólida	-10.2844
▁prevé	-10.2845
▁mantenimiento	-10.2855
▁obvio	-10.287
nt	-10.2875
ES	-10.2876
▁riqueza	-10.2876
▁du	-10.2882
▁31	-10.2883
▁incluidos	-10.2887
▁desafíos	-10.2887
(	-10.2893
▁afectan	-10.2894
▁visitar	-10.2895
▁efectivamente	-10.2898
▁publicación	-10.2905
▁Permítanme	-10.2907
▁resurrección	-10.2907
▁movilidad	-10.2912
▁periodistas	-10.2913
▁ninguno	-10.2917
idades	-10.2919
▁iglesias	-10.2922
▁conmigo	-10.2928
▁fija	-10.293
▁científica	-10.2934
▁qui	-10.2939
tergubernamental	-10.2955
tina	-10.2955
▁oficina	-10.2955
▁tradicional	-10.2967
▁invertir	-10.2975
sal	-10.2977
▁opciones	-10.298
▁Siria	-10.2981
▁Car	-10.2983
▁apóstoles	-10.2985
▁Dicho	-10.2987
ario	-10.299
ifi	-10.2991
▁prosperidad	-10.3001
▁crimen	-10.3002
20	-10.3011
▁mirar	-10.3014
▁universal	-10.3014
▁sorprendente	-10.3018
▁perfecto	-10.3038
▁ovejas	-10.3043
ura	-10.3043
▁anima	-10.3044
ctor	-10.3044
▁honor	-10.3048
▁odio	-10.305
▁concreta	-10.305
▁presupuestario	-10.3052
▁conducir	-10.3054
▁vuelto	-10.3054
▁raíz	-10.3059
ol	-10.306
▁sentencia	-10.3062
▁mercancías	-10.3064
▁clases	-10.3065
▁concretamente	-10.3069
▁británico	-10.3073
▁be	-10.3078
▁modificación	-10.3078
▁recomendación	-10.3083
▁foto	-10.3084
▁violaciones	-10.3088
ju	-10.3091
▁aprendido	-10.3091
▁recuperar	-10.3101
osa	-10.3107
aciones	-10.3111
▁Rey	-10.3113
tados	-10.3128
▁potencia	-10.3132
▁título	-10.3133
▁actuación	-10.3133
▁sufrido	-10.3133
▁intervenir	-10.3139
▁obliga	-10.3144
▁quedó	-10.315
▁2020	-10.3151
▁agentes	-10.3152
▁Com	-10.3157
▁usan	-10.3168
van	-10.317
▁culturales	-10.317
▁constitucional	-10.3171
▁Común	-10.3171
▁leche	-10.3171
▁frontera	-10.3181
▁blanco	-10.3181
▁dispuesta	-10.3182
▁hablamos	-10.3183
▁quedar	-10.3184
rte	-10.319
▁explotación	-10.319
▁decidió	-10.3193
▁deseamos	-10.3196
▁exteriores	-10.3202
▁ponga	-10.3202
▁seguirá	-10.3203
▁estima	-10.321
▁guerras	-10.3216
▁cuándo	-10.3219
▁censura	-10.3219
▁satisfacer	-10.3222
▁María	-10.3224
▁Tampoco	-10.3225
▁básicos	-10.3225
▁violación	-10.3229
ció	-10.3231
▁John	-10.3235
▁aborda	-10.3237
▁Países	-10.3243
▁sufrir	-10.3246
▁accidente	-10.3247
▁aumentado	-10.3251
▁70	-10.3252
▁i	-10.3255
ou	-10.3269
▁fruto	-10.327
▁palestinos	-10.327
▁liberación	-10.3271
▁constantemente	-10.3277
▁ritmo	-10.3279
▁histórica	-10.3284
▁existir	-10.3289
▁comunitarios	-10.329
▁definitiva	-10.329
ín	-10.3293
▁alemán	-10.3295
▁esperan	-10.33
▁claras	-10.3301
▁preguntar	-10.3302
toria	-10.3304
▁Londres	-10.3306
0	-10.331
▁presentación	-10.3313
st	-10.3315
▁revolución	-10.3317
▁impulsar	-10.3317
▁expresa	-10.3326
▁estratégica	-10.3328
▁Ke	-10.3331
min	-10.3332
▁flota	-10.3344
▁cuánto	-10.3345
▁and	-10.3347
▁debo	-10.3355
▁elevado	-10.3357
▁Señoría	-10.3359
▁sufren	-10.3362
▁toca	-10.3362
▁casas	-10.3363
▁soldados	-10.3365
▁piensan	-10.3368
▁oficiales	-10.3371
▁Diablo	-10.3371
▁doy	-10.3374
▁ocurrió	-10.3374
gui	-10.3376
▁historias	-10.3386
mon	-10.3388
▁llegaron	-10.3389
▁alcohol	-10.3392
▁publicidad	-10.3393
▁alternativa	-10.3396
▁Australia	-10.3399
▁go	-10.34
▁venir	-10.3401
▁arreglo	-10.3402
▁resistencia	-10.3404
▁moderna	-10.3407
▁director	-10.3408
▁cuáles	-10.3409
▁Lu	-10.3411
▁guarda	-10.3413
▁rural	-10.3418
▁árboles	-10.3426
▁genera	-10.3434
▁captura	-10.3437
▁disponible	-10.3441
ificación	-10.3442
▁tuve	-10.345
▁tanta	-10.3452
▁rapidez	-10.3453
▁totalidad	-10.3455
▁accidentes	-10.3458
dó	-10.3461
▁costos	-10.3464
▁adultos	-10.3464
▁procesos	-10.347
▁“¡	-10.3473
▁escena	-10.3476
▁80	-10.3476
▁trabajado	-10.3479
▁universo	-10.3487
▁idiomas	-10.3487
▁Chipre	-10.3498
▁tradicionales	-10.3506
CE	-10.3507
▁2006	-10.3511
▁sentía	-10.3518
▁relato	-10.3525
▁Abrahán	-10.3531
▁investigaciones	-10.3532
▁rechazar	-10.3534
▁llegan	-10.3534
▁directrices	-10.3536
▁definir	-10.3537
lin	-10.3538
▁triste	-10.3542
▁publicaciones	-10.3555
▁libres	-10.3561
▁enemigos	-10.357
▁gobernanza	-10.357
▁persecución	-10.357
sin	-10.357
▁personalidad	-10.3572
▁inclusión	-10.3576
▁comprobar	-10.3576
▁1998	-10.3576
▁Debido	-10.3581
▁Babilonia	-10.3582
▁operación	-10.3583
▁positivos	-10.3584
▁alcanza	-10.3587
és	-10.3588
▁desastre	-10.3593
▁vo	-10.3596
▁Amsterdam	-10.3609
▁provoca	-10.361
▁Nunca	-10.3617
▁futuras	-10.3619
dió	-10.3622
▁sesiones	-10.3622
doras	-10.3624
▁contempla	-10.3636
bil	-10.3641
▁termina	-10.3641
▁viva	-10.3648
Cuál	-10.3656
▁exigencias	-10.3663
▁sincero	-10.3663
▁mezcla	-10.3665
▁Bi	-10.3669
▁ri	-10.3671
▁ausencia	-10.3671
▁oral	-10.3677
▁efectivo	-10.3688
▁refiero	-10.3688
▁f	-10.3689
▁repercusiones	-10.3693
▁silencio	-10.3702
▁identificar	-10.3704
▁Bulgaria	-10.3705
▁gusto	-10.3705
ua	-10.3705
▁funciones	-10.3713
▁exclusivamente	-10.3715
▁Sal	-10.3717
▁salida	-10.372
▁porcentaje	-10.3722
▁corriente	-10.373
▁"¿	-10.373
▁investigadores	-10.3732
▁murió	-10.3733
pon	-10.374
zi	-10.3745
▁rurales	-10.3747
▁promedio	-10.375
▁elaborado	-10.3756
▁acepta	-10.3758
▁español	-10.3758
▁entrevista	-10.376
▁Balcanes	-10.3761
ld	-10.3765
▁sacerdotes	-10.3766
▁mostró	-10.3767
▁haría	-10.3767
mb	-10.3772
▁Actualmente	-10.3773
▁solucionar	-10.3778
▁decirle	-10.3782
▁integridad	-10.3785
▁proponer	-10.3786
▁ponen	-10.3797
▁decirlo	-10.3802
▁jefe	-10.3805
▁sensación	-10.3813
▁2013	-10.3813
▁poca	-10.3815
este	-10.382
▁lu	-10.3821
▁argumentos	-10.3832
▁ONG	-10.3835
▁justa	-10.3836
▁tome	-10.384
nica	-10.384
▁plataforma	-10.3841
▁Mediterráneo	-10.3847
▁exceso	-10.3847
▁Ne	-10.3873
▁Pacto	-10.3876
▁Ciertamente	-10.3878
▁lenguas	-10.3879
▁haberse	-10.3882
aron	-10.3891
▁nueve	-10.3893
▁transmitir	-10.3899
▁formular	-10.3903
ea	-10.3909
▁utilizan	-10.3911
▁organizar	-10.3915
▁equilibrado	-10.3916
▁inmediata	-10.3918
dio	-10.3919
▁regresar	-10.3919
▁aprecia	-10.392
▁posiciones	-10.3926
▁oradores	-10.393
▁abajo	-10.3932
▁textos	-10.3933
▁explicó	-10.3934
▁aceptado	-10.3934
▁añadido	-10.3939
▁rescate	-10.3939
▁Sería	-10.3943
cí	-10.3944
▁discusión	-10.3945
▁enfrentan	-10.3947
?"	-10.3947
▁inicio	-10.3948
▁pos	-10.3948
▁sencilla	-10.3952
port	-10.3958
▁serían	-10.396
▁dirigentes	-10.396
▁ruido	-10.396
▁desarrollado	-10.3962
▁Oriental	-10.3962
▁indispensable	-10.3962
▁tragedia	-10.3962
▁Occidente	-10.3968
▁gloria	-10.3968
▁Había	-10.3974
▁incluida	-10.3976
▁Bar	-10.3988
tur	-10.3991
▁pesquera	-10.3991
▁memoria	-10.3991
sor	-10.3994
▁Gaza	-10.4
▁cre	-10.4008
▁estatuto	-10.4009
eran	-10.401
▁cerrar	-10.401
▁representante	-10.4013
▁cristianas	-10.4013
rica	-10.4015
▁anteriormente	-10.4024
▁amar	-10.4027
▁individuales	-10.4027
▁vigilancia	-10.4033
▁hubiese	-10.4033
▁Wi	-10.4036
fund	-10.4043
ica	-10.4055
▁Serbia	-10.4056
▁suministra	-10.4058
▁diga	-10.406
▁notable	-10.4061
▁Wa	-10.4065
▁fenómeno	-10.4069
ez	-10.407
▁destruir	-10.4073
▁Ru	-10.4075
pos	-10.4076
▁insistir	-10.4079
▁prevenir	-10.4091
W	-10.4095
▁1997	-10.4103
▁chinos	-10.4105
ide	-10.4106
▁expectativas	-10.4109
ie	-10.4111
▁recuerdo	-10.4112
▁pies	-10.4118
▁Schengen	-10.412
▁negocio	-10.4123
▁2011	-10.4134
▁víctima	-10.4135
▁piel	-10.4139
▁organizado	-10.4145
▁presta	-10.415
▁argumento	-10.4153
▁madera	-10.4156
▁renovables	-10.4158
▁estaría	-10.4163
▁favorable	-10.4164
▁oriental	-10.4169
▁directivas	-10.417
ff	-10.4171
▁explicación	-10.4172
▁globalización	-10.4173
▁encuentro	-10.4173
▁intervenciones	-10.4173
▁parecido	-10.4173
▁fotos	-10.4175
▁africanos	-10.4176
▁Bajos	-10.4176
▁matar	-10.4183
▁superintendente	-10.4185
▁presentadas	-10.4186
▁lógica	-10.419
▁Comercio	-10.4191
▁subsidiariedad	-10.4191
▁exportaciones	-10.4192
bla	-10.4194
▁falsa	-10.4195
▁privilegio	-10.4195
▁Georgia	-10.4197
▁Ti	-10.4202
ificado	-10.4204
▁Siempre	-10.4204
ct	-10.4207
▁griega	-10.4209
▁dará	-10.421
▁recibe	-10.4214
▁seno	-10.4219
▁Rumanía	-10.4221
▁masiva	-10.4222
▁mantenido	-10.4227
▁Interior	-10.4231
▁pensando	-10.4233
▁buscando	-10.4233
▁avanzada	-10.4235
▁enviado	-10.4238
▁revisar	-10.4238
▁caer	-10.4243
▁delincuencia	-10.4244
▁celebración	-10.4249
▁PPE	-10.4257
udi	-10.4257
lá	-10.4258
▁mira	-10.4268
▁terrible	-10.4274
▁resultar	-10.4275
▁demuestran	-10.4278
▁reconocido	-10.428
▁Sé	-10.4282
stra	-10.4289
icos	-10.4296
▁brinda	-10.4298
▁apoyado	-10.4302
▁entendimiento	-10.4304
▁votos	-10.4305
▁peces	-10.4306
▁eficiente	-10.431
▁chino	-10.432
▁pasando	-10.432
▁delitos	-10.432
cado	-10.4322
▁malas	-10.4327
▁empleos	-10.4331
▁creó	-10.4333
▁individual	-10.4335
▁raza	-10.4338
▁pensamiento	-10.434
▁inicial	-10.4344
▁infantil	-10.4346
▁posterior	-10.4347
▁Debe	-10.4349
▁dada	-10.4352
iéndose	-10.4359
▁calcula	-10.4362
▁llamó	-10.4364
▁griego	-10.4365
▁lamentable	-10.437
▁Testigo	-10.4371
dar	-10.4373
▁usando	-10.4375
▁ga	-10.4377
▁cuyos	-10.4378
▁correctamente	-10.4379
▁congregaciones	-10.4389
▁sacerdote	-10.4389
▁elegido	-10.4396
eta	-10.4405
Con	-10.4408
▁indican	-10.441
▁pensamos	-10.4413
▁señales	-10.4413
▁Tu	-10.4417
▁manifestantes	-10.4419
▁herramientas	-10.4422
▁subvenciones	-10.4425
▁invita	-10.4429
▁funcionar	-10.443
▁ofrecen	-10.4431
▁200	-10.4432
dri	-10.4435
▁gubernamentales	-10.4439
▁incluyendo	-10.4443
▁Ve	-10.4447
ud	-10.4447
’	-10.4448
arse	-10.4449
ual	-10.4457
▁Atalaya	-10.4462
▁apunta	-10.4462
▁generar	-10.4464
▁Ésta	-10.4474
▁suele	-10.4478
▁encuesta	-10.448
▁Ac	-10.448
▁determinación	-10.4483
▁reglamentos	-10.4485
▁exportación	-10.4488
▁relativos	-10.4488
▁automóvil	-10.4491
▁liberal	-10.4501
bro	-10.4501
▁sentado	-10.4503
▁obligados	-10.4505
▁tantas	-10.4506
▁viajar	-10.4507
▁incrementar	-10.4507
▁blogger	-10.4508
▁pescadores	-10.451
▁rea	-10.4515
ena	-10.4519
▁Times	-10.4519
▁Todas	-10.4522
▁alemana	-10.4523
▁buques	-10.4524
tion	-10.4528
▁peligroso	-10.4528
▁calendario	-10.4529
gua	-10.4531
▁duración	-10.454
▁Salmo	-10.4551
fra	-10.4552
damente	-10.4553
▁contribuido	-10.456
ante	-10.4563
▁chi	-10.4567
▁Queremos	-10.4567
▁Socialista	-10.4569
▁cometido	-10.4569
▁d	-10.457
▁parlamentaria	-10.4571
▁Va	-10.4571
▁Cuba	-10.4571
▁Lamentablemente	-10.4572
▁Resulta	-10.4572
▁cama	-10.458
ios	-10.4583
▁crímenes	-10.459
▁instalaciones	-10.459
▁abarca	-10.4591
▁frase	-10.4592
▁presentan	-10.46
▁aparece	-10.4603
▁ru	-10.4607
▁transparente	-10.462
▁conversación	-10.4621
▁conservar	-10.4622
▁aves	-10.4623
▁Pueblo	-10.4628
▁respeta	-10.4631
vas	-10.4632
eros	-10.4637
▁estuviera	-10.4646
▁periodista	-10.4651
▁religiones	-10.4652
▁secreto	-10.4657
▁respaldo	-10.4659
▁bu	-10.466
▁repetir	-10.4671
▁árabe	-10.4676
▁hablan	-10.4682
▁doctor	-10.4683
▁prepara	-10.4688
mbre	-10.4689
▁causado	-10.4692
▁pregunto	-10.4696
▁indicar	-10.4697
▁mantenerse	-10.4703
▁movimientos	-10.4707
▁placer	-10.4708
▁estadísticas	-10.4708
▁importar	-10.4708
▁doctrina	-10.4708
▁declarado	-10.4709
▁centra	-10.4714
▁pedimos	-10.4715
▁ánimo	-10.4715
▁liderazgo	-10.4721
▁agradezco	-10.4721
ves	-10.4731
Ma	-10.4741
▁contribuye	-10.4743
▁bloggers	-10.4743
▁variedad	-10.4746
ible	-10.4746
▁venta	-10.4747
▁dificultad	-10.475
▁Sabemos	-10.4756
tando	-10.4758
▁suelen	-10.4759
land	-10.4761
▁verse	-10.4762
▁extrema	-10.4764
áramos	-10.4769
▁estímulo	-10.4771
▁científico	-10.4771
▁escenario	-10.4772
▁convencer	-10.4784
▁toneladas	-10.4792
pri	-10.4793
▁Bush	-10.4796
▁islas	-10.4806
▁paraíso	-10.4809
▁500	-10.4811
◆	-10.4815
▁nacimiento	-10.4822
▁abuso	-10.4823
▁Naturalmente	-10.4828
▁advertencia	-10.4829
▁emprender	-10.4835
▁ayudó	-10.4835
▁forman	-10.4843
ño	-10.4844
▁peligros	-10.4847
▁Del	-10.4849
▁occidentales	-10.485
▁ruso	-10.4851
▁José	-10.4853
tieron	-10.4858
▁comprometido	-10.4859
▁deberán	-10.4864
▁significativo	-10.4866
▁considerando	-10.4868
▁primeras	-10.4869
▁bienvenida	-10.4872
5%	-10.4882
▁Verde	-10.4883
▁Palestina	-10.4885
▁confirma	-10.4887
▁incluyen	-10.4891
sia	-10.4893
▁mío	-10.4897
▁concretos	-10.4898
▁Barroso	-10.4904
▁tribunal	-10.4905
▁millón	-10.4917
▁estatales	-10.492
▁activo	-10.4927
PT	-10.4934
▁amenazas	-10.4938
▁competitiva	-10.4942
▁oportuno	-10.4949
▁salarios	-10.4952
▁cercano	-10.4955
▁participantes	-10.497
▁hice	-10.4972
▁felices	-10.4974
▁quiera	-10.498
▁conocimientos	-10.4988
▁organizada	-10.499
▁árbol	-10.4993
▁afectadas	-10.4997
Me	-10.4999
rie	-10.5003
▁Gu	-10.5009
▁interpretación	-10.501
▁trate	-10.501
able	-10.501
we	-10.501
▁peticiones	-10.5013
▁lección	-10.5014
▁ACP	-10.5019
▁halla	-10.5022
▁registra	-10.5023
▁juventud	-10.5039
▁obtenido	-10.5045
▁teléfono	-10.505
▁Inglaterra	-10.5053
▁laborales	-10.5053
▁añade	-10.5054
▁permitan	-10.5057
íamos	-10.5058
▁sucedido	-10.5058
▁tortura	-10.5058
▁Cuentas	-10.506
▁creencias	-10.5061
▁presentada	-10.5062
cada	-10.5063
▁pareja	-10.5063
▁concede	-10.5064
▁resoluciones	-10.5065
▁específica	-10.5066
▁masa	-10.5071
▁Putin	-10.5072
▁Austria	-10.5078
▁asesinato	-10.5078
▁eliminación	-10.5082
▁etiqueta	-10.5086
ela	-10.5087
▁emplea	-10.5089
tamos	-10.5091
▁cuesta	-10.5092
▁Je	-10.5093
▁muchedumbre	-10.5097
▁cadena	-10.5103
▁2012	-10.5103
▁Copenhague	-10.5103
▁resultó	-10.5103
▁humanas	-10.5106
▁representación	-10.5109
▁Agricultura	-10.511
▁tratan	-10.511
▁asignación	-10.5113
▁ventaja	-10.5117
▁industriales	-10.5119
▁ungidos	-10.5131
▁relacionado	-10.5137
▁ilegales	-10.5143
▁conveniente	-10.5143
var	-10.5147
▁puertas	-10.5148
▁deber	-10.515
▁mejoras	-10.5153
▁recién	-10.5156
▁debatiendo	-10.5156
▁agradable	-10.5156
▁intenta	-10.5159
▁limitado	-10.5161
▁darse	-10.5163
▁Considero	-10.5169
▁jugar	-10.5169
▁específicos	-10.5171
▁sinceramente	-10.5172
ático	-10.5174
pli	-10.5177
▁Pleno	-10.5182
▁eres	-10.5187
▁90	-10.519
ite	-10.5197
▁aumentando	-10.5201
▁ponerse	-10.5201
au	-10.5211
▁orientación	-10.5216
▁cuidar	-10.5228
cial	-10.5229
▁cubrir	-10.523
▁fijar	-10.523
▁dedicar	-10.5238
dis	-10.5239
▁existente	-10.5249
▁patente	-10.525
▁inteligente	-10.5255
▁afirmar	-10.5259
▁Daniel	-10.5261
▁enseñanzas	-10.5261
▁oraciones	-10.5261
▁energético	-10.5262
▁cuotas	-10.5263
▁aclarar	-10.5266
▁penal	-10.5267
▁necesariamente	-10.5268
▁2010	-10.5269
▁piedra	-10.5276
▁discutir	-10.5281
vis	-10.5289
▁temporal	-10.5291
▁generaciones	-10.5291
pul	-10.5294
▁exclusión	-10.5294
▁esperando	-10.5294
▁película	-10.5296
▁determinadas	-10.5297
▁recompensa	-10.53
▁terrestre	-10.5302
▁posiblemente	-10.5307
rlos	-10.5308
▁histórico	-10.5309
siva	-10.5313
▁aprendizaje	-10.5314
▁informó	-10.532
▁lleno	-10.5329
▁1996	-10.5334
▁paciencia	-10.5341
▁trabaja	-10.5347
▁organismo	-10.535
▁Ben	-10.5361
▁apoyamos	-10.5363
▁presiones	-10.5366
▁proporción	-10.5367
▁destacado	-10.5374
▁seriamente	-10.5375
▁verde	-10.5378
▁Ki	-10.5379
jan	-10.538
▁Salomón	-10.5387
▁sobrevivir	-10.5387
▁resulte	-10.5387
▁tradición	-10.5387
▁ci	-10.5391
▁venido	-10.5393
▁alimenta	-10.5394
▁intelectual	-10.54
rma	-10.5401
tán	-10.5402
ología	-10.5405
▁recurso	-10.5405
▁sucesos	-10.5406
▁35	-10.5409
ris	-10.5413
▁dedicado	-10.5415
▁contratos	-10.5424
▁creencia	-10.543
pare	-10.543
▁específico	-10.5431
▁complejo	-10.5431
▁Watch	-10.5434
▁tierras	-10.5435
mica	-10.5435
▁rep	-10.5437
▁bajos	-10.5438
▁sencillo	-10.5441
▁compara	-10.5444
▁convirtió	-10.5447
▁traducción	-10.5447
▁Soy	-10.5448
ándonos	-10.5449
▁incluya	-10.5451
▁etiquetado	-10.5452
▁beneficia	-10.5462
▁fomenta	-10.5467
▁Nadie	-10.5468
▁celebrado	-10.5476
▁increíble	-10.5478
▁religioso	-10.5479
▁utilizando	-10.548
pres	-10.5481
▁cambia	-10.5501
rla	-10.5501
▁auténtica	-10.5501
▁negativa	-10.5503
▁parezca	-10.5515
▁Tanto	-10.5519
▁comité	-10.5521
▁sentimiento	-10.5522
▁tensión	-10.5523
▁2009	-10.5526
▁viviendo	-10.5528
▁sólido	-10.5535
▁importaciones	-10.5535
▁descubrir	-10.5537
Aplausos	-10.5542
▁descubierto	-10.5542
▁Éste	-10.5542
cé	-10.5544
mento	-10.5544
▁directo	-10.5545
▁privada	-10.5547
▁limita	-10.5547
▁etapa	-10.5555
▁lluvia	-10.5556
▁sitios	-10.556
▁causar	-10.5562
▁británica	-10.5562
▁referente	-10.5569
▁deporte	-10.557
▁im	-10.5577
▁levantar	-10.5578
▁facilita	-10.5581
▁cer	-10.5595
▁Existe	-10.5596
▁Pienso	-10.5596
▁ciclo	-10.5596
▁entero	-10.5598
plica	-10.5598
▁2,	-10.5603
ego	-10.5613
mor	-10.5616
tera	-10.563
▁recurrir	-10.5632
▁azúcar	-10.5637
▁democráticos	-10.5638
▁hago	-10.5647
▁sigan	-10.5651
▁bendiciones	-10.5651
▁agencia	-10.5652
▁ángeles	-10.5653
▁cuantos	-10.5653
▁pecados	-10.5654
▁concentración	-10.5655
▁sucursal	-10.5658
entes	-10.5659
▁Día	-10.5661
▁estatal	-10.5664
▁come	-10.5665
▁categoría	-10.5666
▁independientes	-10.567
▁manifestaciones	-10.5672
▁33	-10.5672
▁supera	-10.5674
▁tribunales	-10.568
▁darles	-10.568
▁Ber	-10.5683
▁bosques	-10.5692
▁rechazo	-10.5692
▁unanimidad	-10.5692
▁inferior	-10.5693
cua	-10.5697
▁banco	-10.5701
▁detalle	-10.5702
▁reunir	-10.5703
▁utilizado	-10.5706
▁consejos	-10.5711
▁Defensor	-10.5713
▁esperanzas	-10.5718
▁constitución	-10.572
ani	-10.5726
▁catástrofe	-10.5729
▁aleja	-10.5729
▁tratados	-10.573
▁2007	-10.5735
diendo	-10.5738
▁preparado	-10.5739
▁candidato	-10.5743
▁fu	-10.5745
▁muchísimo	-10.5748
▁referido	-10.5748
▁combustible	-10.575
▁realiza	-10.5759
▁desearía	-10.5762
▁provocar	-10.5762
cra	-10.5769
RO	-10.5775
▁correo	-10.5777
▁regla	-10.5778
Esta	-10.5781
▁salvo	-10.5785
ríamos	-10.5787
▁aprobada	-10.5792
▁realización	-10.5794
▁ambiental	-10.5804
▁reconstrucción	-10.581
▁vuelve	-10.5815
▁pobre	-10.582
iéramos	-10.5821
▁interno	-10.5826
ist	-10.5826
▁avión	-10.5826
▁comprensión	-10.5831
01	-10.5834
▁ayudado	-10.5835
▁comisiones	-10.5839
▁coloca	-10.584
▁ju	-10.5841
▁alternativas	-10.5849
▁intenciones	-10.5852
▁Nuevo	-10.5854
shi	-10.5854
▁foro	-10.5857
▁Mateo	-10.5861
▁herramienta	-10.5863
▁Poco	-10.5873
▁multitud	-10.5873
▁tira	-10.5876
▁Global	-10.5879
▁aprecio	-10.5879
”,	-10.5882
▁practica	-10.589
▁físico	-10.5892
▁imaginar	-10.5893
az	-10.5901
▁Todavía	-10.5909
▁activistas	-10.5912
▁Sha	-10.5914
▁1990	-10.5916
▁aprobó	-10.5923
mita	-10.5931
osos	-10.5933
sgraciadamente	-10.5935
▁pura	-10.5937
▁visible	-10.5937
▁modelos	-10.594
▁seguimos	-10.5944
▁premio	-10.5944
ster	-10.5949
▁injusticia	-10.5951
▁Allí	-10.5951
▁exposición	-10.5952
ienta	-10.5954
▁instrucciones	-10.5958
▁satisfactoria	-10.5979
ñas	-10.5983
▁gases	-10.5985
▁Fe	-10.5988
▁tuviera	-10.5989
▁aportar	-10.599
▁temperatura	-10.5993
▁Plan	-10.5996
-20	-10.6001
▁emocional	-10.6003
▁individuo	-10.6007
▁Ci	-10.6009
▁aparte	-10.6014
▁respondió	-10.6015
ndido	-10.6017
▁delito	-10.602
▁mas	-10.6021
▁Pública	-10.6022
▁estrategias	-10.6024
ice	-10.6025
▁próximas	-10.6026
pó	-10.6027
▁decisivo	-10.6029
▁responde	-10.6032
▁señaló	-10.6033
▁lamento	-10.6035
▁the	-10.6041
▁Eva	-10.6042
▁mon	-10.6043
▁índice	-10.6043
▁reacciones	-10.6044
▁débil	-10.6045
▁entusiasmo	-10.605
op	-10.6056
▁solar	-10.6059
▁barreras	-10.6062
▁energías	-10.6064
▁vivimos	-10.6065
▁nu	-10.6071
▁provocado	-10.6072
ly	-10.6077
▁toman	-10.6078
▁negar	-10.6078
▁absoluta	-10.6083
▁Judá	-10.6086
▁acceder	-10.609
▁adoptadas	-10.609
▁desempeña	-10.6092
▁limitada	-10.6092
▁colectiva	-10.6093
▁mensajes	-10.6096
▁querido	-10.6099
wi	-10.6104
aban	-10.6106
▁cariño	-10.6108
▁brillante	-10.611
▁malos	-10.6114
▁•	-10.6115
▁famoso	-10.6115
▁división	-10.6116
▁encanta	-10.6117
▁Ad	-10.6118
▁em	-10.612
▁trataba	-10.6121
▁océano	-10.6122
▁salvación	-10.6132
tin	-10.6134
▁escritor	-10.6135
▁bases	-10.6135
zca	-10.6146
▁aspira	-10.6149
▁aceite	-10.6151
én	-10.6152
▁blogs	-10.6155
▁cierre	-10.6158
▁primavera	-10.6158
▁sorpresa	-10.6165
▁acusa	-10.6166
."	-10.6166
▁conjuntamente	-10.6166
bia	-10.6166
▁reca	-10.6167
▁adecuadas	-10.6169
▁ocasiona	-10.6174
▁preocupante	-10.6176
▁estarán	-10.6177
▁presidencia	-10.6181
▁anciano	-10.6182
ino	-10.6185
▁reflexionar	-10.6187
▁democráticas	-10.6188
▁disponer	-10.6195
▁universidad	-10.6196
▁Investigación	-10.6202
▁conocen	-10.6202
▁motor	-10.6204
▁considere	-10.6207
▁internet	-10.6209
▁entrega	-10.621
mba	-10.6214
▁expresó	-10.6216
▁mapa	-10.6222
▁Congreso	-10.6223
▁volumen	-10.6223
▁contesta	-10.6225
▁vienen	-10.6225
eña	-10.6226
▁útiles	-10.6226
▁●	-10.6238
val	-10.6238
mis	-10.6242
▁estudiante	-10.6242
▁conservación	-10.6243
▁ratificación	-10.6247
▁mor	-10.6247
▁Mor	-10.6253
▁envió	-10.6257
▁normalmente	-10.6258
▁diría	-10.6262
▁contribuyentes	-10.6263
▁ciudadanía	-10.6267
pas	-10.6272
▁adquirir	-10.6274
▁cristianismo	-10.6274
▁permitió	-10.6274
▁vacío	-10.6274
▁1995	-10.6275
▁manifestado	-10.6276
icia	-10.628
▁planea	-10.6283
vin	-10.6287
▁cosecha	-10.6289
▁Salón	-10.629
▁pese	-10.6293
▁Croacia	-10.6296
▁decirles	-10.6299
▁Job	-10.6305
▁legislativa	-10.6307
▁fiesta	-10.6308
▁perfecta	-10.6308
▁sirven	-10.6309
▁empezaron	-10.6309
▁publica	-10.6313
▁extraño	-10.6315
osas	-10.6316
▁Estrasburgo	-10.6318
▁aporta	-10.6322
▁reflexión	-10.6326
dura	-10.6327
▁observa	-10.6327
▁exista	-10.6327
▁ignora	-10.6327
▁reina	-10.6331
▁transfronteriza	-10.6333
▁intentando	-10.6337
▁equipos	-10.6338
siste	-10.6341
▁previa	-10.6341
mbra	-10.6343
▁alega	-10.635
▁Mat	-10.6355
▁desierto	-10.6362
▁provincia	-10.6362
▁cumplido	-10.6364
▁Dr	-10.6368
▁pensamientos	-10.637
▁Revelación	-10.637
▁maravilloso	-10.637
▁española	-10.6371
▁obviamente	-10.6374
jas	-10.6377
▁viola	-10.6379
▁vender	-10.6381
sol	-10.6381
ek	-10.6382
rle	-10.6382
jos	-10.6391
▁Informe	-10.6393
▁lanza	-10.6393
▁participa	-10.64
forma	-10.6401
▁siguió	-10.6401
▁sorprende	-10.6403
ent	-10.6403
▁calor	-10.6409
▁lamentablemente	-10.6412
▁fútbol	-10.6414
▁acordado	-10.6414
▁hiciera	-10.6416
▁caminos	-10.6422
izados	-10.6427
▁Líbano	-10.6429
▁admitir	-10.6429
lea	-10.6431
▁Dos	-10.6433
▁extremo	-10.6435
▁automóviles	-10.6438
▁sana	-10.6438
▁Ante	-10.6439
▁ilustra	-10.6443
han	-10.6444
▁nombres	-10.6444
cita	-10.6445
▁asociaciones	-10.6445
ento	-10.6448
▁tren	-10.6449
▁cola	-10.6452
dero	-10.6456
▁denuncia	-10.6457
▁adapta	-10.6458
▁mutuo	-10.6459
▁opina	-10.6463
▁Próximo	-10.6474
▁veinte	-10.6474
▁alegría	-10.6474
▁digital	-10.6475
▁valioso	-10.6476
▁logro	-10.6478
▁coherencia	-10.6496
▁copia	-10.6497
▁corregir	-10.6504
▁amistad	-10.6505
▁comparte	-10.6506
▁cuestiona	-10.6509
▁Sudáfrica	-10.6511
▁abre	-10.6518
▁criaturas	-10.6519
▁vivos	-10.652
vir	-10.6521
▁requisito	-10.6525
▁Presupuestos	-10.6526
▁Belarús	-10.6526
▁codecisión	-10.6526
▁convierte	-10.6528
▁Mis	-10.6531
▁obligado	-10.6532
▁territorios	-10.6536
▁determinado	-10.6538
▁orar	-10.6543
▁Van	-10.6543
▁carece	-10.6552
▁l	-10.6552
▁técnicos	-10.6554
▁aplican	-10.6554
▁bendición	-10.6556
▁ahorro	-10.6564
▁crecer	-10.6564
▁retirar	-10.6566
▁imagina	-10.657
▁musulmanes	-10.6571
EL	-10.6571
teo	-10.6573
▁pasan	-10.6575
▁alerta	-10.6576
▁teníamos	-10.6585
▁círculo	-10.6586
▁/	-10.6588
▁apariencia	-10.6594
bio	-10.6595
Re	-10.6596
▁rojo	-10.6607
▁adopte	-10.6611
▁juzgar	-10.6613
nea	-10.6617
▁externa	-10.6624
▁digno	-10.6624
iz	-10.6628
▁rendimiento	-10.6631
▁virus	-10.6632
▁minoría	-10.6632
▁cláusula	-10.6632
▁mantienen	-10.6633
▁aplicarse	-10.6647
▁industrias	-10.6648
▁CE	-10.6654
▁negociar	-10.6656
▁estuvieron	-10.6657
▁israelíes	-10.6659
ías	-10.6661
tía	-10.6666
▁estrechamente	-10.6668
▁destinadas	-10.6669
▁suceder	-10.6669
▁carbón	-10.6669
▁destinados	-10.6671
▁beber	-10.6674
▁regímenes	-10.6677
ev	-10.6681
▁dispone	-10.6683
▁Niza	-10.6689
▁Social	-10.6691
ula	-10.6693
▁brevemente	-10.67
▁pertenece	-10.67
rico	-10.6704
▁Ministerio	-10.6707
▁Estaba	-10.6708
▁animar	-10.6709
▁fuese	-10.6709
▁azul	-10.6712
▁débiles	-10.6714
▁violenta	-10.6715
▁buscan	-10.6721
▁técnico	-10.6725
▁permítanme	-10.673
▁1914	-10.6731
del	-10.6731
▁divino	-10.6732
ito	-10.6732
▁Tan	-10.6733
tón	-10.6735
▁interesados	-10.6737
oc	-10.6738
▁Cha	-10.6738
▁dominio	-10.6746
▁audiencia	-10.6746
▁uniforme	-10.6746
▁llevando	-10.6747
▁capitales	-10.6749
▁católicos	-10.6755
▁empieza	-10.6757
▁operadores	-10.6757
▁fijado	-10.6757
▁esperaba	-10.6759
▁prestado	-10.6762
▁electrónico	-10.6764
▁Vo	-10.6765
cojo	-10.6771
▁cuentan	-10.6774
▁depresión	-10.6777
▁préstamos	-10.6777
▁gira	-10.6778
Dónde	-10.6784
▁participan	-10.6788
fin	-10.6788
▁abusos	-10.679
▁considerarse	-10.6795
▁Pu	-10.6797
▁retirada	-10.6797
▁rusos	-10.6798
▁activamente	-10.6808
▁agrega	-10.6812
tiendo	-10.6812
ah	-10.6814
▁resuelto	-10.6815
▁racional	-10.6816
▁cri	-10.6818
▁equilibrada	-10.6823
▁aquello	-10.6825
▁emb	-10.6826
▁falla	-10.6831
▁colabora	-10.6835
▁Euro	-10.6838
▁corte	-10.6843
▁bebé	-10.6851
▁solicitar	-10.6852
ced	-10.6854
▁metas	-10.6855
▁intentado	-10.6857
▁constructiva	-10.6861
▁sabio	-10.6867
▁sonido	-10.6867
▁realista	-10.6871
▁constituir	-10.6874
▁vulnerables	-10.6876
▁damos	-10.6877
▁materias	-10.6878
ñ	-10.6878
▁capa	-10.688
▁funcione	-10.6882
▁droga	-10.6882
pin	-10.6882
▁habitual	-10.6887
▁realizados	-10.6887
▁usado	-10.6891
▁cultivar	-10.6891
▁prometido	-10.6892
▁Respect	-10.6892
▁pérdidas	-10.6893
pt	-10.6896
▁dirigida	-10.6897
▁presupuestos	-10.6901
▁vieron	-10.6902
▁entendido	-10.6902
▁2:	-10.6908
▁logra	-10.6909
▁legislativas	-10.6912
▁origina	-10.6913
▁distrito	-10.6916
▁atender	-10.6921
mado	-10.6928
▁excesiva	-10.6929
rado	-10.693
▁estábamos	-10.6931
▁vea	-10.6933
▁mantenga	-10.6935
▁estimular	-10.694
▁logros	-10.6941
▁suya	-10.6945
tero	-10.6946
▁primas	-10.6947
▁empeora	-10.6947
▁experimentado	-10.6948
▁probar	-10.6955
▁ge	-10.6959
▁inteligencia	-10.6963
▁requieren	-10.6968
▁32	-10.697
▁publicar	-10.6973
lidad	-10.6978
▁papa	-10.6981
▁enfrentamos	-10.6985
▁Jeremías	-10.6986
▁limitaciones	-10.6989
▁viento	-10.6994
▁tradiciones	-10.6994
▁merecen	-10.6996
▁limpio	-10.7007
▁burocracia	-10.7017
▁profundidad	-10.7017
▁básicas	-10.7018
▁integrado	-10.7023
▁priva	-10.7031
▁Tratados	-10.7033
▁pidiendo	-10.7034
bar	-10.7037
▁Hungría	-10.7049
▁renta	-10.7056
▁criterio	-10.7056
▁finanzas	-10.7057
▁negro	-10.7058
▁ocurrir	-10.7061
▁tropas	-10.7065
▁muertes	-10.7068
▁globales	-10.7069
▁informado	-10.7072
▁socio	-10.7073
▁pilar	-10.7076
▁capacidades	-10.7077
▁relacionada	-10.7079
▁puedes	-10.7081
san	-10.7084
▁lleve	-10.7085
▁negra	-10.7086
▁carreteras	-10.7086
lé	-10.7088
▁legitimidad	-10.7089
▁ruego	-10.7089
▁voluntarios	-10.7096
▁diseñado	-10.7097
▁detallada	-10.71
▁sabido	-10.7104
ticos	-10.7106
rec	-10.7108
ano	-10.711
▁encargado	-10.7111
▁expansión	-10.7112
▁fomento	-10.7113
▁analiza	-10.7116
▁Tower	-10.712
▁gobernante	-10.7121
▁emisión	-10.7128
▁obligatorio	-10.7129
▁enormemente	-10.7135
▁dejan	-10.7135
▁montaña	-10.7146
Mi	-10.7147
▁Protocolo	-10.7152
▁gasta	-10.7156
▁combinación	-10.7156
▁relieve	-10.716
▁multi	-10.7168
▁auténtico	-10.7168
▁caja	-10.7172
▁habitación	-10.7172
▁Chi	-10.7175
▁cobertura	-10.7176
▁conlleva	-10.7176
▁costumbre	-10.7178
▁Ce	-10.7179
▁barcos	-10.7183
▁viendo	-10.7187
nge	-10.719
▁Marruecos	-10.7192
▁guardia	-10.7192
▁echar	-10.7199
ral	-10.72
▁conciliación	-10.72
▁venga	-10.7203
▁Noé	-10.7206
▁federal	-10.7208
▁estructural	-10.7209
uda	-10.721
▁dólar	-10.7211
▁Or	-10.7213
▁pasaje	-10.7213
▁reyes	-10.7223
▁resultan	-10.7224
▁domingo	-10.7224
▁levanta	-10.7228
▁hermosa	-10.7232
▁castigo	-10.7232
▁orientaciones	-10.7241
▁residencia	-10.7241
▁modificaciones	-10.7243
▁barco	-10.7247
_	-10.7248
▁Nigeria	-10.7248
▁vuelva	-10.7248
▁básicamente	-10.725
▁pedirle	-10.7251
▁lógico	-10.7252
▁procura	-10.7252
leg	-10.7254
▁presupuestarias	-10.7257
▁escrita	-10.7257
mé	-10.7262
▁Estabilidad	-10.7263
▁belleza	-10.7264
▁sistemática	-10.7264
▁declarar	-10.727
▁tuvimos	-10.7271
▁Federal	-10.7273
▁angustia	-10.7273
▁marítimo	-10.7273
Puede	-10.7275
▁lecciones	-10.7284
▁3:	-10.7287
▁aborto	-10.7289
ele	-10.7296
▁Grupos	-10.7297
▁ideal	-10.7301
Te	-10.7303
▁ampliamente	-10.7305
rar	-10.7305
ár	-10.7311
▁críticos	-10.7312
:“	-10.7314
▁Latina	-10.7316
▁visados	-10.7318
▁misericordia	-10.7321
▁Centro	-10.7321
▁volvió	-10.7321
▁terminado	-10.7324
▁predica	-10.7331
▁minuto	-10.7333
▁estudia	-10.7335
▁inversores	-10.7339
▁ja	-10.7342
▁emplear	-10.7343
▁franceses	-10.7345
▁intenso	-10.7346
▁árabes	-10.7347
▁británicos	-10.7348
▁Uds	-10.7354
50	-10.7356
▁sentirse	-10.7359
▁impulsa	-10.7361
▁bilaterales	-10.7362
▁exacto	-10.7362
▁debilita	-10.7362
▁seguramente	-10.7364
▁viejo	-10.7367
▁amorosa	-10.7368
Despertad	-10.737
▁Hong	-10.7372
pec	-10.7372
cel	-10.7375
▁dirigido	-10.7383
ib	-10.7384
200	-10.7384
▁convergencia	-10.7386
▁Aún	-10.7386
▁pensado	-10.7388
ang	-10.7389
▁intentos	-10.7391
ío	-10.7393
▁formal	-10.7397
▁jurídicos	-10.7397
▁usuario	-10.7399
▁Pen	-10.7401
▁promete	-10.7402
▁influir	-10.7403
▁moderno	-10.7408
▁incentivos	-10.741
▁productividad	-10.7411
▁cárcel	-10.7414
▁desarrollados	-10.7415
▁300	-10.7416
▁protege	-10.7419
▁Tenía	-10.7421
▁procedente	-10.7423
▁negativo	-10.7424
▁excelentes	-10.7427
▁produjo	-10.7427
▁regula	-10.743
▁dependencia	-10.743
▁cultivo	-10.7434
▁párrafo	-10.7435
dy	-10.7439
▁referéndum	-10.7444
▁condenado	-10.7444
ze	-10.7446
▁complicado	-10.7448
▁junta	-10.7451
▁cumple	-10.7456
▁revistas	-10.746
▁futuros	-10.7461
▁detención	-10.7466
▁incluidas	-10.7468
▁unir	-10.7468
▁calma	-10.7474
▁adolescentes	-10.7475
▁Esperamos	-10.7476
bur	-10.7478
gh	-10.7479
▁viernes	-10.7493
cent	-10.7493
▁diaria	-10.7494
▁apropiada	-10.7498
▁ronda	-10.7505
▁ingreso	-10.751
▁inundaciones	-10.7511
▁Am	-10.7512
▁afirman	-10.7518
▁regularidad	-10.7524
▁hablaba	-10.7524
▁prohibir	-10.7526
▁subraya	-10.7534
▁Escuela	-10.7534
▁prudente	-10.7534
▁imperio	-10.7534
▁traer	-10.754
▁importe	-10.7543
▁rendir	-10.7543
▁canal	-10.7545
▁adecuadamente	-10.7545
▁Puedo	-10.7546
▁pastor	-10.7547
▁dinámica	-10.7551
▁prójimo	-10.7551
▁rostro	-10.7551
▁imprescindible	-10.7559
▁Control	-10.7559
▁hagamos	-10.7561
▁consideraciones	-10.7564
mpe	-10.7567
▁empresarios	-10.757
DA	-10.7575
▁Energía	-10.7576
▁planificación	-10.7578
▁claros	-10.7583
▁retraso	-10.7592
▁cruza	-10.7593
▁comentó	-10.7593
▁poniendo	-10.7598
▁básica	-10.7599
▁justifica	-10.7599
▁Jurídicos	-10.7601
▁fumar	-10.7602
▁llamados	-10.7602
yan	-10.7608
▁peligrosas	-10.7609
▁inclina	-10.7612
▁compensación	-10.7612
▁privados	-10.7612
▁contraste	-10.7617
▁juez	-10.7617
OS	-10.762
imiento	-10.7623
▁observadores	-10.7625
▁interlocutores	-10.7629
▁manifiesta	-10.7633
▁preparados	-10.764
▁odia	-10.764
▁voluntaria	-10.7641
▁Demócratas	-10.7643
▁Ge	-10.7644
▁contestar	-10.7645
lli	-10.7646
▁israelí	-10.7648
▁Macedonia	-10.7651
▁católica	-10.7651
▁enemigo	-10.7651
▁duradera	-10.7652
▁conecta	-10.7657
▁vieja	-10.766
lica	-10.7663
▁nacido	-10.7669
▁separa	-10.7669
▁judiciales	-10.7671
▁unilateral	-10.7676
▁administra	-10.7687
venta	-10.7688
▁niña	-10.7691
▁Finlandia	-10.7693
▁conocida	-10.7694
▁asegurarnos	-10.7699
▁Evidentemente	-10.7701
▁bautismo	-10.7701
▁Agenda	-10.7702
▁notar	-10.7703
▁obedecer	-10.7703
▁Res	-10.7708
▁Instituto	-10.771
tá	-10.771
▁extender	-10.771
▁BCE	-10.7711
▁ética	-10.7712
ador	-10.7714
▁continuo	-10.7718
▁PAC	-10.7719
▁salió	-10.772
▁cartas	-10.7722
▁llevaron	-10.7724
▁incertidumbre	-10.7727
RA	-10.7728
▁transferencia	-10.7729
▁turno	-10.773
▁posee	-10.7732
▁FMI	-10.7736
▁echa	-10.7737
▁acelerar	-10.7742
▁respaldar	-10.7742
▁discapacidad	-10.7744
▁siguiendo	-10.7747
▁excepcional	-10.7747
▁caracteriza	-10.775
▁velar	-10.775
▁precedentes	-10.775
▁aplicado	-10.7752
▁manifestación	-10.7753
▁Kong	-10.7754
▁equivalente	-10.7755
q	-10.7755
▁madres	-10.7758
▁Túnez	-10.7761
▁Debería	-10.7762
gamos	-10.7762
▁viable	-10.7762
▁Grande	-10.7763
▁estrellas	-10.7765
▁concesión	-10.7769
▁solía	-10.7775
▁recomienda	-10.7778
▁decisiva	-10.7778
▁firmado	-10.7783
▁fabricantes	-10.7791
▁dioses	-10.7791
ley	-10.7793
▁cumplen	-10.7799
quién	-10.7809
▁confirmar	-10.7809
▁anuales	-10.7811
▁creía	-10.7812
▁Mundo	-10.7821
▁adaptación	-10.7827
gada	-10.7832
▁aparentemente	-10.7833
▁montañas	-10.7836
▁clientes	-10.7837
▁extraordinario	-10.7846
▁énfasis	-10.7846
▁dispara	-10.7848
▁resumen	-10.7849
▁parlamentario	-10.785
▁reacciona	-10.7851
▁comienza	-10.7854
▁antigüedad	-10.7854
▁afuera	-10.7863
▁cha	-10.7864
▁acusaciones	-10.7866
▁cónyuge	-10.7867
▁temer	-10.787
▁Libia	-10.7872
parti	-10.7876
▁selección	-10.788
▁k	-10.7885
▁sagrado	-10.7889
▁tienes	-10.7889
nce	-10.7891
▁recoge	-10.7893
▁Podría	-10.7894
▁identifica	-10.7895
▁sostenibilidad	-10.7897
▁moda	-10.7899
vio	-10.7903
▁cooperar	-10.7904
▁celebra	-10.7905
▁asociados	-10.7905
eron	-10.7906
▁parlamentos	-10.7906
▁pensaba	-10.7906
▁Apoyo	-10.7906
▁repente	-10.7906
▁Santa	-10.7909
▁compañero	-10.791
public	-10.7913
▁abandona	-10.7914
▁hicimos	-10.7914
▁conocemos	-10.7916
▁Bien	-10.7919
▁encarga	-10.792
▁autorización	-10.792
quí	-10.7922
▁lectores	-10.7923
▁escasez	-10.7923
▁investigar	-10.7925
▁sacrificios	-10.7926
▁órgano	-10.7928
▁flor	-10.7928
▁invernadero	-10.7932
▁rusa	-10.7932
elo	-10.7933
ot	-10.7935
▁salvaje	-10.7935
▁empresarial	-10.7936
▁solicitado	-10.7937
amiento	-10.7938
▁Están	-10.7943
▁muro	-10.7945
▁reclama	-10.7945
▁sepa	-10.7948
▁sentimos	-10.7949
▁elevados	-10.7949
▁conserva	-10.7949
▁debidamente	-10.795
▁Voices	-10.7958
▁Pueden	-10.7962
rg	-10.7962
▁alemanes	-10.7966
▁escucha	-10.797
▁terremoto	-10.7972
▁tendrían	-10.7973
▁temprano	-10.7975
▁lealtad	-10.7975
▁mata	-10.7976
▁sano	-10.7977
nar	-10.7989
▁viajes	-10.7991
▁lanzar	-10.7994
puesta	-10.7997
▁quiénes	-10.7999
▁regreso	-10.8001
▁denominado	-10.8003
▁peligrosa	-10.8006
▁pescado	-10.8014
▁dicta	-10.8015
▁marítima	-10.8018
▁contribuciones	-10.8018
▁obligar	-10.8021
▁sugerencias	-10.8021
▁elimina	-10.8022
▁sede	-10.8023
▁interesadas	-10.8026
▁misioneros	-10.8027
▁aceptación	-10.8027
bs	-10.8029
▁puertos	-10.8031
rm	-10.8035
▁Za	-10.8039
▁Creemos	-10.8042
▁escapar	-10.8044
▁agrava	-10.8047
▁ira	-10.8052
▁3,	-10.8055
▁dedicación	-10.8059
▁cero	-10.806
▁cultiva	-10.806
▁terminó	-10.8062
▁excusa	-10.8062
▁seamos	-10.8064
nza	-10.8064
▁leído	-10.8064
▁bio	-10.8068
▁representar	-10.8069
▁Voy	-10.807
▁Moscú	-10.8071
▁bandera	-10.8071
▁obligatoria	-10.8071
▁habilidad	-10.8076
▁estando	-10.8077
dre	-10.8077
▁conduce	-10.8078
▁Mercado	-10.808
ü	-10.8084
▁residentes	-10.8086
▁tomando	-10.8086
▁práctico	-10.8087
▁caza	-10.809
▁puente	-10.8092
▁parlamentarios	-10.8093
▁símbolo	-10.8095
▁alimentación	-10.8096
ese	-10.8096
fr	-10.8101
▁gen	-10.8101
▁adoptada	-10.8102
▁conexión	-10.8106
NL	-10.8106
▁ocupación	-10.8113
▁rodea	-10.8113
▁Timoteo	-10.8114
▁Tra	-10.8114
▁polvo	-10.8115
cien	-10.8118
30	-10.812
▁Bélgica	-10.8123
▁inevitable	-10.8131
▁Servicio	-10.8132
om	-10.8136
▁unida	-10.8138
▁demostró	-10.8141
ER	-10.8146
▁universidades	-10.8148
▁periódicos	-10.8148
▁radical	-10.8149
02	-10.8151
▁fo	-10.8154
▁tendencias	-10.8154
▁asambleas	-10.8155
mático	-10.8155
ega	-10.8157
▁don	-10.8158
▁adoptó	-10.8158
▁conviene	-10.816
rina	-10.8163
dición	-10.8167
▁anunció	-10.8167
▁apruebe	-10.8167
cuál	-10.8169
▁básico	-10.8176
▁Mesías	-10.8176
rig	-10.8177
▁decirse	-10.8178
▁recon	-10.8178
▁tantos	-10.8181
▁hermanas	-10.8191
▁incidente	-10.8194
▁permitiría	-10.82
▁parque	-10.8204
▁saca	-10.8204
ivo	-10.8206
tima	-10.8206
pero	-10.8206
▁cumplan	-10.8211
▁Constitucional	-10.8212
▁confusión	-10.8212
▁comenzaron	-10.8214
▁Miembro	-10.822
▁pudieron	-10.8221
tis	-10.8222
▁supervivencia	-10.8229
▁Prodi	-10.8238
▁creando	-10.8238
▁escándalo	-10.8238
▁sábado	-10.8238
▁balance	-10.8238
▁sección	-10.8239
nder	-10.8241
lógico	-10.8242
▁Verdes	-10.8245
▁maestros	-10.8247
▁Colombia	-10.8247
▁hermoso	-10.8247
▁vayan	-10.8249
ima	-10.8252
▁aconseja	-10.8253
prende	-10.8254
▁justos	-10.8254
▁disfruta	-10.8254
RE	-10.8259
▁ataca	-10.8259
▁satisface	-10.8261
▁catástrofes	-10.8263
eza	-10.8264
ien	-10.8269
▁colegio	-10.8274
▁justificar	-10.8279
▁UU	-10.8284
gel	-10.8287
▁esclavo	-10.8288
▁dependen	-10.8291
▁divorcio	-10.8292
▁excesivo	-10.8292
osamente	-10.8292
chu	-10.8293
▁crítico	-10.8293
▁italiano	-10.8293
▁insuficiente	-10.8293
▁morales	-10.8296
▁Sch	-10.8298
▁películas	-10.8298
▁enfrentarse	-10.8299
▁Proverbios	-10.8301
▁ecológica	-10.8301
pone	-10.8302
▁sugiere	-10.8303
▁esfera	-10.8308
▁Luxemburgo	-10.831
▁iban	-10.8311
▁previo	-10.8311
▁Berlín	-10.8319
▁X	-10.8319
▁seria	-10.832
▁iniciado	-10.8321
▁Jacob	-10.8328
▁gravedad	-10.8329
▁aplicable	-10.8334
▁queja	-10.8335
▁hacían	-10.8336
▁institucionales	-10.8336
▁máquina	-10.8339
sign	-10.8339
▁tienda	-10.834
▁Económica	-10.8345
▁destinado	-10.835
antes	-10.835
▁micro	-10.8354
▁internos	-10.8354
▁culturas	-10.8354
▁filosofía	-10.8354
▁plaga	-10.8355
jar	-10.8357
▁anuncio	-10.8357
▁Washington	-10.8363
▁tensiones	-10.8364
▁afirmación	-10.8365
▁organiza	-10.8365
▁Existen	-10.8368
▁específicamente	-10.8368
▁implicados	-10.8371
▁demandas	-10.8375
▁conocía	-10.8375
▁Representante	-10.8376
▁comunicar	-10.8382
▁juegos	-10.8383
▁necesitaba	-10.8384
▁pagan	-10.8384
cimiento	-10.8395
▁Im	-10.8399
tic	-10.8399
lecomunicaciones	-10.84
▁pul	-10.8401
▁simplificación	-10.8401
tir	-10.8404
▁soportar	-10.8408
▁Autoridad	-10.8409
▁atmósfera	-10.8409
▁tribulación	-10.8409
▁convierta	-10.8411
lio	-10.8412
mbo	-10.8421
▁eléctrica	-10.8427
▁huelga	-10.8427
▁consigo	-10.8427
▁regresa	-10.8429
▁Har	-10.843
▁actores	-10.843
▁cien	-10.8436
▁cabal	-10.8437
▁reside	-10.8441
▁Económicos	-10.8444
ear	-10.8447
▁cura	-10.845
▁amoroso	-10.8453
▁aviones	-10.8454
▁tono	-10.8458
▁murieron	-10.8463
▁emociones	-10.8463
▁obstáculo	-10.8467
▁Marco	-10.8468
▁pusieron	-10.847
▁Col	-10.8473
▁reaccionar	-10.8475
▁nuevamente	-10.8476
▁siervo	-10.8476
▁lento	-10.8477
▁t	-10.8482
▁llegada	-10.8483
▁Occidental	-10.8486
▁Dinamarca	-10.849
▁jueves	-10.849
▁precursor	-10.8491
▁denomina	-10.8492
▁querer	-10.8498
▁cercana	-10.8499
cti	-10.8501
▁comunicaciones	-10.8502
▁juzga	-10.8504
▁Año	-10.8504
▁derrota	-10.8506
▁reputación	-10.8509
▁encarcela	-10.8516
▁vean	-10.8516
▁invitación	-10.8517
▁raíces	-10.8518
▁comprende	-10.8522
▁palestino	-10.8523
▁flexible	-10.8523
tismo	-10.8523
▁motiva	-10.8527
▁Navidad	-10.8527
▁techo	-10.853
dan	-10.8531
▁procesa	-10.8536
▁critica	-10.8539
icio	-10.8539
▁ayudan	-10.8539
▁diera	-10.8543
▁secundaria	-10.8545
▁deficiencias	-10.8546
▁hallan	-10.855
▁preservar	-10.8551
▁recesión	-10.8554
▁cuadro	-10.8554
▁celebrada	-10.856
▁digna	-10.8564
▁VIH	-10.8573
table	-10.8573
▁lunes	-10.8574
▁ventana	-10.8577
rías	-10.858
mbi	-10.8581
▁1994	-10.8582
▁ojo	-10.8583
▁sospecha	-10.8592
▁esencia	-10.8594
▁garantice	-10.8594
▁positivas	-10.8595
▁colores	-10.8595
▁ecus	-10.8602
▁pelea	-10.8607
dieron	-10.8609
▁folleto	-10.861
▁laboratorio	-10.861
▁hebreo	-10.861
mana	-10.8613
▁comentar	-10.8616
▁salario	-10.8619
▁negativos	-10.8622
▁profesores	-10.8626
▁Comunicación	-10.8628
▁represión	-10.8628
▁hor	-10.8628
▁parientes	-10.8632
▁equivocado	-10.8635
▁aéreas	-10.8635
rón	-10.8635
▁excepciones	-10.8637
▁debida	-10.8638
mite	-10.8638
▁adecuados	-10.8641
▁policial	-10.8643
▁incorporar	-10.8646
arios	-10.8646
iente	-10.8648
▁vendrá	-10.865
▁Soviética	-10.8656
▁racismo	-10.8656
▁Bosnia	-10.8656
▁pude	-10.8657
lec	-10.8659
▁campañas	-10.8661
▁interesantes	-10.8664
amente	-10.8666
ik	-10.8669
reo	-10.8669
▁arriesga	-10.8674
▁votantes	-10.8676
▁45	-10.868
▁atractivo	-10.8684
▁olvida	-10.8685
▁Comisarios	-10.8695
▁impide	-10.8698
ben	-10.87
▁dictadura	-10.8703
anos	-10.8703
▁criminales	-10.8703
guen	-10.8706
▁Ali	-10.8708
Pa	-10.8709
Al	-10.871
▁facilidad	-10.8712
▁decenas	-10.8712
TE	-10.8716
▁rechazado	-10.8719
▁tránsito	-10.8721
▁felicito	-10.8722
▁judío	-10.8729
▁superiores	-10.8734
▁recortes	-10.8736
▁doce	-10.8738
▁Secretario	-10.874
▁migración	-10.874
▁exigen	-10.874
▁Au	-10.8743
▁continúan	-10.8746
▁esclavos	-10.8748
Dios	-10.8748
▁oh	-10.8749
▁inspirado	-10.875
▁tele	-10.8753
▁1:	-10.8761
▁transformación	-10.8763
▁poderoso	-10.8766
▁acumula	-10.877
▁contraria	-10.8771
▁deseable	-10.8775
tividad	-10.8775
▁fortalecimiento	-10.8777
▁entiendo	-10.878
▁sale	-10.8781
▁severa	-10.8783
▁comenzado	-10.8787
▁gobernación	-10.8787
▁reglamentación	-10.8787
▁Mujer	-10.8787
▁rico	-10.8788
▁celebrará	-10.8788
uro	-10.8791
▁espada	-10.8792
▁territorial	-10.8792
▁ayude	-10.8796
▁Fundamentales	-10.8805
▁comparto	-10.8805
tista	-10.8806
▁finalidad	-10.881
▁estrictas	-10.8812
▁París	-10.8815
▁umbral	-10.8815
▁espalda	-10.8815
▁peligrosos	-10.8817
sí	-10.8819
▁Santiago	-10.8824
▁oye	-10.8825
▁literalmente	-10.883
▁orgullo	-10.8832
▁demora	-10.8833
▁legítima	-10.8834
▁Irak	-10.8834
▁describir	-10.8836
▁contienen	-10.8842
▁delicado	-10.8843
▁predijo	-10.8843
uc	-10.8846
▁tomen	-10.8847
▁daba	-10.885
▁dirige	-10.8853
▁aprovecha	-10.8862
▁Sudán	-10.8862
▁transportes	-10.8862
▁dueño	-10.8872
▁escasa	-10.8874
▁simplificar	-10.8874
▁andar	-10.8875
▁precursores	-10.8876
▁harán	-10.8878
▁compasión	-10.8881
▁recibieron	-10.8881
▁quince	-10.8881
▁objetos	-10.8882
▁competente	-10.8883
▁extraña	-10.8893
▁apoyan	-10.8895
bol	-10.8896
▁libremente	-10.8897
▁intensa	-10.89
▁vivienda	-10.8901
▁indicó	-10.8903
▁Ab	-10.8907
▁humildad	-10.8909
▁surgir	-10.891
▁colaborar	-10.8913
▁rebaño	-10.8919
▁ambicioso	-10.8921
▁cuerpos	-10.8922
▁modernos	-10.8923
▁bal	-10.8923
▁cobra	-10.8926
▁invierno	-10.8928
▁desacuerdo	-10.8928
▁tercio	-10.8929
▁genética	-10.8938
▁turco	-10.894
▁gastar	-10.8941
▁trató	-10.8943
▁modos	-10.8945
▁ocupar	-10.8946
▁cotidiana	-10.8947
▁distinto	-10.895
her	-10.895
vía	-10.8951
▁contribuyen	-10.8953
▁mag	-10.8954
▁ayudarnos	-10.8956
▁acogida	-10.8957
▁IVA	-10.8958
▁rein	-10.896
▁honra	-10.896
▁enfrentar	-10.8962
▁llamadas	-10.8962
liza	-10.8964
▁0,	-10.8967
▁jardín	-10.8967
▁Jefes	-10.8968
▁afectar	-10.8969
cios	-10.8976
Está	-10.8978
vid	-10.8979
▁dedica	-10.8979
ts	-10.8984
▁cuán	-10.8985
▁prisioneros	-10.8985
▁encontró	-10.8986
▁misterio	-10.8986
▁alimentar	-10.8987
deci	-10.8992
met	-10.8994
▁frío	-10.8995
▁vergüenza	-10.8997
▁distinta	-10.8998
▁maravillosa	-10.8998
▁consta	-10.8998
▁cubierta	-10.9
▁frecuentemente	-10.9001
▁ambientales	-10.9004
▁combustibles	-10.9012
▁privadas	-10.9012
▁treinta	-10.9015
▁recogida	-10.9015
▁5:	-10.9016
▁verdades	-10.9017
▁licencia	-10.9018
▁continuamente	-10.9026
stro	-10.9036
▁4:	-10.9039
▁cuantas	-10.9043
▁quedaron	-10.9048
▁ajuste	-10.9049
▁italiana	-10.9053
▁comporta	-10.9058
▁liberar	-10.9058
▁subir	-10.9059
▁exigencia	-10.9061
▁transfronterizo	-10.9063
▁orador	-10.9068
▁Dis	-10.9071
▁cla	-10.9073
▁nombrado	-10.9074
▁humilde	-10.9077
▁vigila	-10.908
▁circuito	-10.9082
▁belga	-10.9082
▁mueve	-10.9082
▁interroga	-10.9083
▁Lucas	-10.9084
▁viaja	-10.9089
▁contamina	-10.9089
▁oscuridad	-10.9092
▁alianza	-10.9092
▁transcurso	-10.9092
▁políticamente	-10.9099
▁potencias	-10.9101
▁destruye	-10.9101
▁voces	-10.9102
▁vuelo	-10.9106
▁fórmula	-10.9111
jen	-10.9119
▁Indonesia	-10.9121
▁correr	-10.9121
iana	-10.9126
▁vol	-10.9126
▁tocante	-10.9126
▁produzca	-10.9127
▁Barcelona	-10.9131
▁creciendo	-10.9131
reestructuración	-10.9132
▁oculta	-10.9138
lig	-10.9139
▁desastres	-10.9139
▁Gra	-10.914
▁centenares	-10.9143
▁Deseo	-10.9143
▁trabajador	-10.9146
▁abandonado	-10.9146
▁hable	-10.9148
▁manejar	-10.9148
terinstitucional	-10.915
▁Ello	-10.9151
▁acompaña	-10.9158
mia	-10.9158
▁fortaleza	-10.916
▁marcado	-10.9161
▁llaman	-10.9165
▁registrado	-10.9174
▁Cre	-10.9176
▁poderosa	-10.9176
▁Cultura	-10.9179
jó	-10.9183
▁adorar	-10.9187
▁exponer	-10.9189
pie	-10.9193
▁bancario	-10.9193
▁estratégico	-10.9195
▁leal	-10.9196
▁ferroviario	-10.9209
▁literatura	-10.9209
▁geográfica	-10.9209
ólogos	-10.9209
▁entró	-10.9209
▁evita	-10.921
▁ben	-10.9211
scar	-10.9216
zó	-10.9221
die	-10.9222
▁EL	-10.9223
▁desigualdad	-10.9225
25	-10.9227
▁protocolo	-10.9228
▁derivados	-10.923
vino	-10.923
▁arena	-10.9233
▁oportuna	-10.9238
▁flores	-10.9245
▁sienta	-10.9245
ores	-10.9246
▁incendios	-10.925
▁Casi	-10.9251
▁impresionante	-10.9254
▁vivía	-10.9256
▁citar	-10.9259
▁desempeñan	-10.9261
▁firmeza	-10.9262
▁ocupado	-10.9264
▁enseñó	-10.9268
nio	-10.927
▁estemos	-10.9274
▁sumo	-10.9277
▁infancia	-10.9277
▁Pesca	-10.9278
▁presupuestarios	-10.9282
▁caliente	-10.9282
▁aldea	-10.9285
cito	-10.9286
▁minas	-10.9287
▁disminución	-10.9287
hor	-10.9288
▁Inter	-10.9295
▁crean	-10.9296
▁cólera	-10.9297
▁pacífico	-10.9297
▁limpieza	-10.9297
izo	-10.93
▁votaciones	-10.93
▁cerrado	-10.9302
▁llegará	-10.9303
▁invisible	-10.9307
▁descubrimiento	-10.9308
▁acontecimiento	-10.9315
▁tocar	-10.932
▁cargas	-10.932
▁contribuirá	-10.9321
dí	-10.9324
▁inicia	-10.9324
▁sensible	-10.9325
▁tecnológica	-10.9327
for	-10.9327
▁redacción	-10.9327
cina	-10.9328
▁afectado	-10.9331
▁seguía	-10.9333
▁experimenta	-10.9333
▁estimados	-10.9334
▁gobernantes	-10.9336
▁reconozca	-10.9337
▁transacciones	-10.9337
▁prioritario	-10.9338
▁celebró	-10.9338
▁ajusta	-10.9341
▁profecías	-10.9342
▁magnitud	-10.9347
▁reviste	-10.9347
▁piso	-10.9354
▁refugio	-10.9354
Ca	-10.9355
▁Protección	-10.9357
timo	-10.9357
▁quitar	-10.9357
▁aboga	-10.9364
▁niñas	-10.9364
▁empezando	-10.9367
▁mutua	-10.9367
▁aprueba	-10.9368
▁supuestamente	-10.9372
▁equivocada	-10.9373
▁fiable	-10.9378
▁tor	-10.9379
▁cuidadosamente	-10.938
▁querían	-10.9386
▁Oficina	-10.9387
▁gobernar	-10.9387
▁gestionar	-10.9387
▁mediado	-10.939
▁suministrar	-10.9394
▁conductores	-10.9396
▁utilidad	-10.9397
▁Dijo	-10.9401
▁dios	-10.9405
▁café	-10.9417
03	-10.9419
▁temo	-10.942
ag	-10.9424
▁duplica	-10.9427
▁abundante	-10.9427
tz	-10.9432
▁monte	-10.9432
▁monta	-10.9434
▁cruel	-10.9436
▁perturba	-10.9437
▁trampa	-10.9437
▁ascenso	-10.9437
▁discusiones	-10.9447
▁dejando	-10.9447
reg	-10.9447
▁devoción	-10.9449
tadas	-10.9454
▁brecha	-10.9457
▁parlamento	-10.9457
▁multiplica	-10.9457
▁eco	-10.9457
▁altamente	-10.9458
viv	-10.9459
▁sustancia	-10.9459
vert	-10.9461
▁vencer	-10.9462
▁bosque	-10.9467
▁estimula	-10.9473
▁expediente	-10.9477
▁maestro	-10.9477
▁libra	-10.9479
▁períodos	-10.948
▁imitar	-10.9484
▁llegamos	-10.9485
▁descanso	-10.9487
▁cuarta	-10.9487
▁ocupan	-10.9491
éis	-10.9494
▁entiende	-10.9495
▁Betel	-10.9497
▁alza	-10.9498
▁altas	-10.9502
▁Deberíamos	-10.9502
▁avanzado	-10.9503
▁Somos	-10.9503
bel	-10.9509
▁participado	-10.9518
▁discursos	-10.9519
▁cocina	-10.9519
▁debatido	-10.9519
▁otorga	-10.952
▁quita	-10.9523
▁autores	-10.9525
▁suyo	-10.9525
Que	-10.9527
▁blanca	-10.9527
▁opuesto	-10.9529
criba	-10.953
▁resaltar	-10.9534
▁entidades	-10.9535
quen	-10.9537
▁Yugoslavia	-10.9537
▁partidarios	-10.9539
▁sustituir	-10.954
▁someter	-10.9544
▁presos	-10.9545
tino	-10.9545
▁empecé	-10.9547
▁mérito	-10.9547
▁satisfecho	-10.9549
▁vínculos	-10.9553
▁mejorado	-10.9554
har	-10.9555
▁Robert	-10.9558
net	-10.956
▁saludable	-10.9563
▁ceremonia	-10.9568
▁Acta	-10.9569
▁ejerce	-10.9571
▁hecha	-10.9572
▁mencionó	-10.9578
▁establecidos	-10.9582
▁Exterior	-10.9585
▁perro	-10.9587
▁mueren	-10.9588
▁estudiando	-10.9589
▁Ver	-10.9591
ier	-10.9592
▁LA	-10.9595
▁We	-10.9598
▁dormir	-10.9598
▁vacaciones	-10.96
▁favorecer	-10.96
culo	-10.9602
mada	-10.9604
▁aparecen	-10.9608
▁Toda	-10.9608
▁Blanco	-10.9608
▁separación	-10.9616
▁pen	-10.9617
ándolo	-10.9618
▁aniversario	-10.9619
▁salmista	-10.9629
▁san	-10.963
▁demasiada	-10.9632
▁expuesto	-10.9634
▁integrar	-10.9634
▁cambió	-10.9639
▁entran	-10.9647
▁compuesto	-10.965
▁Cuál	-10.965
▁dieta	-10.9652
▁alternativos	-10.9659
▁introducido	-10.966
▁emergentes	-10.966
▁habilidades	-10.9665
▁pertenecen	-10.9666
▁ejemplar	-10.9667
▁competitivo	-10.967
▁abiertamente	-10.9671
tores	-10.9671
▁4,	-10.9671
▁34	-10.9673
▁Sea	-10.9673
▁plantean	-10.9676
ku	-10.9678
▁envía	-10.9679
▁vestir	-10.9681
ál	-10.9681
▁firmes	-10.9684
▁Fo	-10.9685
▁entraña	-10.9685
▁querría	-10.9686
▁Ter	-10.9687
▁químicos	-10.9689
▁mono	-10.9689
▁empezado	-10.969
▁estrecho	-10.969
▁recoger	-10.9691
▁Quizá	-10.9694
▁aclara	-10.9697
▁oficinas	-10.9697
▁definido	-10.9701
lico	-10.9703
▁sueco	-10.9704
▁aplique	-10.9709
▁piloto	-10.9711
▁Dicha	-10.9712
▁Ku	-10.9713
gió	-10.9714
▁vinculante	-10.9716
▁profundas	-10.9723
fica	-10.9723
▁llevaba	-10.9725
▁riquezas	-10.9731
▁molesta	-10.9732
▁modifica	-10.9736
▁vínculo	-10.9736
▁indicado	-10.9737
Le	-10.9741
▁controversia	-10.9742
▁provisional	-10.9742
cieron	-10.9745
ónica	-10.9746
▁Par	-10.9751
▁departamento	-10.9752
▁ambición	-10.9752
▁aviación	-10.9753
▁medir	-10.9753
mal	-10.9755
▁generalmente	-10.9759
▁culpable	-10.9762
▁basura	-10.9763
ug	-10.9767
▁2009,	-10.9768
▁respalda	-10.9774
▁experimentar	-10.9775
tine	-10.9778
▁fra	-10.9779
▁transporta	-10.9779
▁aceptó	-10.9783
▁herencia	-10.9783
▁cultivos	-10.9787
▁múltiples	-10.9789
▁amable	-10.9793
est	-10.9797
▁especula	-10.9799
▁2000,	-10.9799
▁asegurarse	-10.9801
▁Argentina	-10.9804
▁instrucción	-10.9804
▁consuelo	-10.9804
▁Claro	-10.9804
▁semillas	-10.9806
▁provecho	-10.9807
▁puerto	-10.981
eg	-10.981
ene	-10.9812
▁brutal	-10.9817
▁indicadores	-10.9818
▁inspirada	-10.9821
▁alivio	-10.9825
flu	-10.9826
▁á	-10.9828
▁proveedores	-10.9831
▁cámara	-10.9831
▁informal	-10.9831
illas	-10.9833
kov	-10.9843
puesto	-10.9844
▁solicitudes	-10.9845
▁Mon	-10.9846
▁remedio	-10.9846
▁demonios	-10.9846
▁genéticamente	-10.9846
ciente	-10.9847
▁norteamericanos	-10.9848
▁regalo	-10.9852
▁37	-10.9854
▁computadora	-10.9855
ora	-10.9856
▁vosotros	-10.9856
▁cap	-10.9859
▁falsos	-10.986
▁capacita	-10.9862
▁Será	-10.9864
▁sustenta	-10.9864
iga	-10.9874
▁perjudicial	-10.9874
▁avanza	-10.9875
ándola	-10.9875
rin	-10.9876
▁irlandés	-10.9877
▁perjudica	-10.988
▁renunciar	-10.988
▁mínima	-10.9884
▁quedarse	-10.9886
▁comprensible	-10.9888
▁primordial	-10.9888
▁electrónica	-10.9888
▁logró	-10.9888
▁Aquel	-10.9889
▁apreciar	-10.989
▁disponemos	-10.9894
▁define	-10.9897
▁resistir	-10.9898
▁constructivo	-10.9898
▁innecesaria	-10.9898
▁magnífico	-10.9898
▁debían	-10.9901
▁señoras	-10.9901
▁Alto	-10.9902
▁números	-10.9904
▁comparten	-10.9906
▁realizan	-10.9906
▁propuso	-10.9909
▁suprimir	-10.9909
ética	-10.991
▁semejantes	-10.9911
sha	-10.9911
▁unido	-10.9912
▁presidenciales	-10.9912
▁referendo	-10.9919
▁%.	-10.992
cioso	-10.9923
▁letra	-10.9925
▁gui	-10.9928
▁sombra	-10.9931
▁pronuncia	-10.9934
▁gesto	-10.9937
Cuando	-10.9938
SV	-10.9939
▁desaparecido	-10.994
▁dejaron	-10.9941
▁Debo	-10.9943
▁perdió	-10.9943
▁consolidación	-10.9944
▁monedas	-10.9944
▁estándares	-10.9946
qu	-10.9949
▁costumbres	-10.9949
▁comparar	-10.995
▁devolver	-10.995
▁consecución	-10.9951
▁patrimonio	-10.9951
▁estación	-10.9952
Hay	-10.9956
▁particulares	-10.9962
▁china	-10.9963
▁enfermos	-10.9963
mil	-10.9971
▁traducir	-10.9972
dado	-10.9973
▁referirme	-10.9974
▁coordinar	-10.9977
▁obligada	-10.9982
tiene	-10.9983
▁propósitos	-10.9983
▁Dice	-10.9983
▁Suiza	-10.9989
▁Realmente	-10.999
Yo	-10.9991
▁desplaza	-10.9995
▁ruta	-10.9998
▁bajas	-11.0003
▁manifest	-11.0006
▁ejecutar	-11.0009
▁rechaza	-11.0012
▁tiendas	-11.0012
vier	-11.0013
▁jueces	-11.0014
▁beneficiarse	-11.0018
COM	-11.0025
5.000	-11.0025
▁contactos	-11.0027
▁populares	-11.0028
▁preguntan	-11.0034
▁disminuir	-11.0036
▁otoño	-11.0036
▁Mc	-11.0038
▁hijas	-11.0044
▁adaptar	-11.0046
▁legítimo	-11.0046
▁Costa	-11.0049
▁relata	-11.005
tió	-11.005
▁observado	-11.006
lizar	-11.0065
▁George	-11.0078
▁advierte	-11.0078
▁abundancia	-11.0079
forme	-11.0083
▁injusta	-11.0089
biendo	-11.0089
▁192	-11.009
▁formulado	-11.0092
▁firmar	-11.0094
▁inicuo	-11.0099
▁2010,	-11.0101
▁transformar	-11.0106
▁equivale	-11.0107
▁veremos	-11.0108
▁Estructurales	-11.011
▁compatible	-11.011
▁ejecutivo	-11.011
▁satélite	-11.011
▁decimos	-11.0112
▁largas	-11.0114
más	-11.0116
▁cine	-11.0117
▁lujo	-11.0127
▁Tienen	-11.0128
▁civilización	-11.0128
▁defensores	-11.013
ak	-11.0132
▁destruido	-11.0132
▁entregar	-11.0133
▁Transportes	-11.0133
▁separado	-11.0136
▁pon	-11.0138
ivos	-11.0139
▁empleado	-11.0141
▁verá	-11.0142
▁apoye	-11.0143
▁especifica	-11.0143
▁vigente	-11.0144
▁realizada	-11.0149
▁vivido	-11.0153
▁crece	-11.0159
▁posteriormente	-11.016
▁esclavitud	-11.0164
▁reduce	-11.0164
▁vecino	-11.0165
▁proclama	-11.0169
▁ángel	-11.0173
▁Em	-11.0174
▁aeropuertos	-11.0175
▁inmensa	-11.0175
▁desarrolla	-11.0175
▁bonos	-11.0175
▁modernización	-11.0176
eño	-11.0176
▁completar	-11.0177
mino	-11.0177
He	-11.0179
ira	-11.0179
▁ahorrar	-11.0183
▁extensión	-11.0186
▁pensé	-11.0186
▁opone	-11.0189
▁generado	-11.019
▁esposas	-11.0192
▁preste	-11.0197
▁1992	-11.0197
▁reconocen	-11.0199
▁urgentemente	-11.0199
▁Acojo	-11.0201
fir	-11.0201
▁sufre	-11.0203
▁Paz	-11.0204
▁sucediendo	-11.0205
▁inteligentes	-11.0205
▁expresiones	-11.0207
▁integrada	-11.0216
▁cometer	-11.0216
▁transforma	-11.0218
itario	-11.0223
▁tormenta	-11.0223
▁involucra	-11.0225
lante	-11.0228
▁Val	-11.0228
▁banda	-11.0234
▁EEB	-11.0235
vol	-11.0236
97	-11.0236
▁Eslovaquia	-11.024
▁convicción	-11.0251
▁argumenta	-11.0251
▁administrativa	-11.0254
▁renuncia	-11.0254
▁Sta	-11.0255
▁Ser	-11.0257
▁adopten	-11.0258
▁ferrocarril	-11.0259
▁iraní	-11.0259
▁complejidad	-11.0262
▁concedido	-11.0262
▁composición	-11.0262
▁negativas	-11.0264
▁bebidas	-11.0265
vie	-11.0272
▁irlandesa	-11.0273
▁transmisión	-11.0273
▁mirada	-11.0274
▁trae	-11.0279
▁sanitarios	-11.0279
▁visitantes	-11.028
▁hábitos	-11.0282
▁competentes	-11.0282
ración	-11.0288
iano	-11.0289
▁bautizado	-11.029
uni	-11.0291
dita	-11.0291
▁precisión	-11.0294
vel	-11.0297
▁citado	-11.0297
ún	-11.0299
▁definitivamente	-11.0303
▁dictamen	-11.0306
▁nació	-11.0307
▁36	-11.0308
if	-11.0309
▁salido	-11.031
▁patentes	-11.0315
▁temprana	-11.0316
▁llevará	-11.0316
▁espacial	-11.0316
activo	-11.0317
Lo	-11.032
▁donantes	-11.0321
▁sirva	-11.0321
▁funcionan	-11.0326
▁Defensa	-11.0327
▁lleguen	-11.0328
sul	-11.0333
Un	-11.034
▁asigna	-11.0342
▁pertinentes	-11.0345
▁anticipa	-11.0348
▁barato	-11.0349
▁Cierto	-11.036
▁reveló	-11.036
▁coche	-11.0361
▁flujo	-11.0364
▁abra	-11.0365
lina	-11.0367
▁anda	-11.0368
▁justamente	-11.0368
pal	-11.037
▁categorías	-11.037
▁griegos	-11.037
▁Declaración	-11.0371
▁parecida	-11.0371
▁supresión	-11.0371
dro	-11.0372
▁preocupados	-11.0372
▁reflejan	-11.0374
▁unirse	-11.0375
▁desarrollando	-11.0377
▁Báltico	-11.0382
▁acordar	-11.0386
▁leemos	-11.0387
▁actitudes	-11.0387
▁jurídicas	-11.0393
▁egoísta	-11.0393
▁servido	-11.0394
▁deseado	-11.0395
▁deseaba	-11.0396
▁accesible	-11.0404
▁ambiciosa	-11.0404
▁muestre	-11.0404
▁extiende	-11.0405
▁apela	-11.0406
▁temores	-11.0408
▁casarse	-11.0409
ure	-11.0412
▁escolar	-11.0413
▁apareció	-11.0415
bul	-11.0435
▁impone	-11.0435
▁saque	-11.0436
▁satisfactorio	-11.0437
▁nombramiento	-11.0437
▁hallado	-11.0438
▁cuadra	-11.0438
▁luchando	-11.044
▁internas	-11.0442
▁conocidos	-11.0444
adores	-11.0445
▁preocupan	-11.0447
▁Acción	-11.045
▁coopera	-11.0454
▁tolerancia	-11.046
▁relaja	-11.046
▁destinada	-11.0461
▁hojas	-11.0465
▁celo	-11.0469
▁calentamiento	-11.0471
▁plazos	-11.0471
▁quiso	-11.0475
▁marina	-11.0477
▁contamos	-11.0477
pl	-11.0478
▁reitera	-11.0491
▁autonomía	-11.0493
▁Consumidor	-11.0493
▁rumbo	-11.0493
▁inseguridad	-11.0494
▁perfil	-11.0495
▁evento	-11.0499
▁disfrutan	-11.0504
▁dirigidas	-11.0508
▁iguales	-11.0514
▁vídeo	-11.0515
▁dificulta	-11.0517
▁5,	-11.0518
▁alarmante	-11.0518
▁peores	-11.0519
zos	-11.0519
ham	-11.0519
▁muchacha	-11.0525
▁condenar	-11.0526
▁refuerzo	-11.0526
▁(@	-11.0529
▁públicamente	-11.0529
gro	-11.0529
▁ganancias	-11.053
sur	-11.0531
▁aportación	-11.0535
▁concluye	-11.0538
▁veía	-11.0542
ísima	-11.0543
▁Can	-11.0545
▁finalizar	-11.0546
▁químicas	-11.0547
▁actúe	-11.0549
▁controla	-11.0557
▁bolsa	-11.056
▁borde	-11.056
▁descubrió	-11.056
▁averiguar	-11.0569
▁realizando	-11.0569
▁estipula	-11.0571
▁islámico	-11.0571
▁Veamos	-11.058
▁creíble	-11.0583
▁singular	-11.0583
▁bloqueo	-11.0586
siderablemente	-11.0588
▁presentará	-11.0593
▁EEUU	-11.0597
▁2.	-11.0598
▁6:	-11.0599
▁Resolución	-11.0605
▁núcleo	-11.0605
▁excede	-11.0606
fia	-11.0607
▁vota	-11.0608
▁procurar	-11.0611
▁burla	-11.0612
▁terrorista	-11.0613
▁Vicepresidente	-11.0616
▁desventaja	-11.0616
rial	-11.0617
▁California	-11.0629
▁piden	-11.063
genera	-11.0634
▁Cal	-11.0635
▁asesina	-11.0636
cierto	-11.0638
▁Vamos	-11.0641
eb	-11.0642
▁Checa	-11.0642
▁liberales	-11.0644
▁Monetarios	-11.0646
rga	-11.0649
▁amado	-11.0653
▁encaminadas	-11.066
▁Bangladesh	-11.0662
▁acervo	-11.0662
▁consolidar	-11.0665
▁Vol	-11.0665
▁cargos	-11.0666
▁flujos	-11.0669
▁compleja	-11.067
▁Regional	-11.0673
▁ofrezca	-11.0673
▁Segunda	-11.0673
▁atraer	-11.0675
▁condiciona	-11.0678
▁pata	-11.0678
▁Libertades	-11.068
▁pantalla	-11.0684
▁verán	-11.0688
▁interpreta	-11.0689
AR	-11.0691
▁poli	-11.0692
▁emitir	-11.0696
▁Europol	-11.0696
▁alentar	-11.0698
4-0	-11.0698
▁violentos	-11.0705
ducto	-11.0706
▁Kar	-11.0708
▁sueca	-11.0708
▁queridos	-11.071
▁brazos	-11.071
ude	-11.0711
▁conmemora	-11.0718
▁conquista	-11.0719
▁unidos	-11.0719
▁acoger	-11.0726
▁75	-11.0727
▁pagado	-11.0735
tienda	-11.0737
▁pondrá	-11.0737
▁aliados	-11.0741
▁edifica	-11.0744
fli	-11.0745
▁Asunto	-11.0751
ión	-11.0753
▁gato	-11.0754
▁remo	-11.0759
MA	-11.0759
▁baño	-11.0763
▁arresto	-11.0764
▁Chile	-11.0771
▁inestabilidad	-11.0775
ust	-11.0778
▁ofreció	-11.0779
▁máquinas	-11.0784
▁Paul	-11.0788
▁judía	-11.0788
▁romper	-11.0792
hab	-11.0798
▁delicada	-11.0798
▁bomba	-11.0798
▁adquirido	-11.0798
▁funda	-11.0799
))	-11.08
▁quedará	-11.0801
▁acá	-11.0801
▁consultar	-11.0807
▁Empleo	-11.081
▁desarrolle	-11.081
dónde	-11.0811
▁paro	-11.0814
Tiene	-11.082
▁disputa	-11.0821
Demócrata	-11.0821
▁Obviamente	-11.0821
▁horror	-11.0822
▁empa	-11.0822
▁refieren	-11.0824
▁masivo	-11.083
▁síntomas	-11.0831
▁concierne	-11.0833
▁diplomática	-11.0833
▁prima	-11.0838
fen	-11.0842
▁justificada	-11.0844
▁arruina	-11.0844
▁recomenda	-11.0846
▁400	-11.085
izadas	-11.0851
▁salga	-11.0852
▁estableció	-11.0868
CI	-11.088
▁colocar	-11.0881
▁cumpla	-11.0881
▁miras	-11.0882
▁abastecimiento	-11.0891
▁marido	-11.0891
▁aeropuerto	-11.0891
▁homosexuales	-11.0895
▁antiguas	-11.0897
▁tela	-11.09
▁competir	-11.0902
▁reunido	-11.0902
▁vehículo	-11.0903
form	-11.0903
rece	-11.0907
▁Otras	-11.091
▁canales	-11.091
▁presiona	-11.0913
▁Google	-11.0914
▁Recientemente	-11.0914
▁hierba	-11.0914
▁japoneses	-11.0914
▁tentación	-11.0914
▁restablecer	-11.0916
safortunadamente	-11.0916
▁parejas	-11.0917
▁preparada	-11.0919
▁proviene	-11.0919
▁explora	-11.0919
▁sentí	-11.0921
▁terror	-11.0922
▁examina	-11.0923
▁anunciado	-11.0924
▁figuran	-11.0924
org	-11.0925
▁gradual	-11.0927
anza	-11.0928
ológica	-11.0935
▁produciendo	-11.0937
▁prohibido	-11.0937
▁ocurra	-11.0937
fina	-11.094
▁esencialmente	-11.0946
▁operativo	-11.0948
▁permítame	-11.0949
▁Segundo	-11.0949
▁elevada	-11.0949
▁guiar	-11.0954
▁tomamos	-11.0954
ep	-11.0954
▁convencidos	-11.0957
▁2007,	-11.0963
▁administrativos	-11.0965
▁determina	-11.0968
▁rara	-11.0983
▁importación	-11.0984
▁Birmania	-11.0984
▁compartimos	-11.0984
▁compartido	-11.0984
▁escoger	-11.0984
▁secreta	-11.0988
▁romanos	-11.0991
pica	-11.0991
▁sindicatos	-11.0994
bal	-11.0995
pol	-11.0996
▁usó	-11.0996
▁canción	-11.0999
▁habita	-11.1008
▁cría	-11.101
▁darnos	-11.1013
▁Wo	-11.1013
▁reporta	-11.1017
▁consiga	-11.1017
—	-11.1018
▁extranjera	-11.1021
▁roca	-11.1022
uta	-11.1023
▁sujeta	-11.1024
tales	-11.1028
ólogo	-11.103
▁Galaad	-11.1031
▁biblioteca	-11.1031
▁sobresaliente	-11.1031
▁leales	-11.1032
▁perdiendo	-11.1033
▁atacar	-11.1034
▁expone	-11.1035
▁▪	-11.1043
▁aguantar	-11.1046
▁llenar	-11.1047
cular	-11.1047
▁serias	-11.105
▁seguirán	-11.1051
▁plaza	-11.1051
▁islam	-11.1051
▁nacionalidad	-11.1053
▁frutos	-11.1053
▁Che	-11.1054
▁cubre	-11.1056
▁estaremos	-11.1064
▁visitas	-11.1064
▁humanitario	-11.1066
▁suave	-11.1068
tel	-11.1071
▁Haití	-11.1078
▁responda	-11.1078
▁entrenamiento	-11.1078
▁deudas	-11.1083
▁mía	-11.1083
ici	-11.1084
dilla	-11.1087
▁Corte	-11.1089
▁mención	-11.1092
▁estricta	-11.1095
▁titulado	-11.11
▁oeste	-11.1101
▁cualificada	-11.1102
▁genocidio	-11.1102
▁multilateral	-11.1105
▁sentar	-11.1107
▁inde	-11.1108
In	-11.111
▁piedras	-11.1111
▁tribu	-11.1111
▁gubernamental	-11.1112
▁acabo	-11.1114
▁complicada	-11.1116
▁aplicando	-11.1117
▁Pas	-11.1119
▁aproxima	-11.1119
▁aliviar	-11.112
chas	-11.1123
▁combate	-11.1126
socia	-11.1126
▁eficazmente	-11.1133
▁abogado	-11.1137
DO	-11.1139
▁daña	-11.1142
▁continúe	-11.1142
▁viejos	-11.1143
▁EU	-11.1143
▁amiga	-11.1148
▁convencida	-11.1149
▁descripción	-11.1155
▁desaparecer	-11.1156
▁lamenta	-11.1156
▁cuida	-11.116
cosa	-11.116
▁anuncia	-11.116
▁distinción	-11.1161
▁epidemia	-11.1161
10	-11.1161
▁1993	-11.1162
▁turca	-11.1164
▁caminar	-11.1168
▁urbano	-11.117
CA	-11.1172
▁imposición	-11.1173
▁evoluciona	-11.1175
▁aumente	-11.1176
▁maldad	-11.1177
▁investiga	-11.1181
▁capítulos	-11.1184
▁ventas	-11.1184
▁añadió	-11.1185
▁logre	-11.1186
Las	-11.1187
▁tomaron	-11.1191
▁extraer	-11.1191
ísimo	-11.1194
pia	-11.1195
▁probabilidad	-11.1196
▁Fu	-11.1196
▁contrato	-11.1208
▁ideología	-11.1209
▁complementa	-11.1215
ei	-11.1216
▁fría	-11.122
▁errónea	-11.1221
▁concentra	-11.1222
dito	-11.1225
▁falsas	-11.1225
▁existía	-11.1226
▁intensificar	-11.1229
spo	-11.1234
▁tarjeta	-11.1238
▁pelo	-11.124
▁comunista	-11.1241
▁Monetaria	-11.1245
▁alegro	-11.1245
▁contribuya	-11.1245
▁preparativos	-11.1246
▁explota	-11.1246
cabe	-11.1247
▁enferma	-11.1249
▁mora	-11.1251
▁prevista	-11.1252
▁muda	-11.1253
Podría	-11.1256
▁eleva	-11.1256
▁recuerde	-11.1257
▁informaciones	-11.1257
▁normales	-11.126
ético	-11.1262
bati	-11.1263
▁sintió	-11.1268
▁injusto	-11.1269
▁presionar	-11.127
scribir	-11.1271
▁compro	-11.1272
TA	-11.1272
▁150	-11.1272
▁Alianza	-11.1275
▁establezca	-11.1275
▁criminal	-11.1278
▁raro	-11.1278
▁incorrecto	-11.1281
▁Albania	-11.1281
▁alabanza	-11.1281
▁visual	-11.1281
▁cerrada	-11.1281
▁inmoralidad	-11.1284
▁acaban	-11.1284
▁Congo	-11.1292
▁ocurriendo	-11.1293
▁índole	-11.1293
▁receta	-11.1294
▁verlo	-11.1295
▁relaciona	-11.1298
▁TV	-11.1303
▁Kenia	-11.1306
ños	-11.1307
ob	-11.1308
▁Cualquier	-11.1308
blemente	-11.1308
▁navega	-11.131
▁clasifica	-11.1312
▁sor	-11.1313
▁Bajo	-11.1317
▁compartida	-11.1317
▁sostener	-11.1317
RI	-11.1318
▁piense	-11.1323
▁pendientes	-11.1324
UE	-11.1327
▁artificial	-11.1328
▁Presupuestario	-11.1329
▁tesoro	-11.1329
▁apliquen	-11.1331
▁manda	-11.1334
mine	-11.1335
▁bas	-11.1335
mática	-11.1339
▁hospitales	-11.1342
▁acostumbra	-11.1344
▁indígenas	-11.135
▁oponen	-11.135
▁tuit	-11.135
ney	-11.1351
▁consigue	-11.1354
▁difusión	-11.1366
▁Cooperación	-11.1378
▁Ginebra	-11.1378
▁Maastricht	-11.1378
▁jornada	-11.1378
▁prometió	-11.1378
▁Unos	-11.1381
jes	-11.1381
▁sostiene	-11.1384
▁comunicado	-11.1387
▁coalición	-11.139
▁traduce	-11.139
▁VI	-11.14
▁sensibilidad	-11.1402
▁arroz	-11.1402
stre	-11.1406
▁falso	-11.141
▁salen	-11.1414
▁profesión	-11.1414
▁trono	-11.1415
▁artistas	-11.1417
▁identificación	-11.1423
versa	-11.1423
▁inquietud	-11.1426
▁africana	-11.1427
▁surgido	-11.1427
moni	-11.1429
▁valiosa	-11.1436
Jehová	-11.1438
▁World	-11.1439
▁reconoció	-11.1439
▁oscuro	-11.1439
▁preventiva	-11.1439
▁Islam	-11.1439
▁compensar	-11.1439
▁trabajaba	-11.1441
▁orientada	-11.1442
itas	-11.1443
mentos	-11.1444
by	-11.1448
▁gradualmente	-11.1449
▁Lituania	-11.1451
▁certeza	-11.1451
▁playa	-11.1451
▁Trinidad	-11.1451
▁eurozona	-11.1452
▁abogados	-11.1454
▁desplazamiento	-11.1455
▁centrarse	-11.1455
▁fabricación	-11.1457
diante	-11.1459
▁clero	-11.1463
▁repetidas	-11.1463
▁humilla	-11.1463
▁interesado	-11.1465
▁exacta	-11.1466
fic	-11.1471
▁fabrica	-11.1472
▁estrictamente	-11.1474
tom	-11.1474
▁introduce	-11.1476
▁plato	-11.1476
▁comunica	-11.1477
▁bombas	-11.1477
▁gravemente	-11.1483
▁desear	-11.1483
▁Pacífico	-11.1488
▁Probablemente	-11.1488
▁convincente	-11.1488
▁pretexto	-11.1488
▁Pon	-11.1489
ticas	-11.149
dez	-11.149
▁estuve	-11.1491
▁consultas	-11.1491
verdad	-11.1492
15	-11.1494
▁católico	-11.1498
▁acudir	-11.15
▁contratación	-11.15
▁escritos	-11.1502
▁ríos	-11.1504
▁guardar	-11.1504
▁profetas	-11.1506
▁armamento	-11.151
▁deterioro	-11.1513
▁perjuicio	-11.1513
▁enseñado	-11.1514
▁caro	-11.1517
▁rigurosa	-11.1525
▁grasa	-11.1526
▁hotel	-11.1526
▁basadas	-11.1527
▁bancaria	-11.153
llar	-11.1532
▁simples	-11.1536
▁optimista	-11.1537
▁virtual	-11.1537
dente	-11.1538
▁contemplar	-11.1544
▁electrónicos	-11.1545
▁lágrimas	-11.1545
▁desempeñado	-11.1547
▁estrés	-11.155
▁Teniendo	-11.155
▁abuelo	-11.155
▁drama	-11.155
▁ciego	-11.155
▁favorablemente	-11.1558
▁objetiva	-11.1562
▁enfermo	-11.1573
▁ignorar	-11.1573
▁PE	-11.1574
▁gratitud	-11.1574
▁bestia	-11.1575
ski	-11.1575
▁je	-11.1575
▁perdón	-11.1575
▁socava	-11.1576
▁tribus	-11.1584
▁pesquero	-11.1586
tiempo	-11.1586
Z	-11.1586
▁inició	-11.1587
▁piadosa	-11.1587
▁2010.	-11.1588
▁desleal	-11.1591
▁únicos	-11.1591
▁acompañado	-11.1598
▁torre	-11.1598
▁construido	-11.1599
▁abiertos	-11.1607
▁aislado	-11.1608
ará	-11.161
▁criatura	-11.1611
▁lograrlo	-11.1613
▁afronta	-11.1615
12	-11.1615
▁formulación	-11.1617
▁Gi	-11.1618
▁Sociales	-11.1621
▁acoge	-11.1621
▁Educación	-11.1624
▁válido	-11.1624
▁ADN	-11.1624
▁situado	-11.1625
gir	-11.1626
▁boda	-11.1633
▁quieran	-11.1633
▁extranjeras	-11.1634
▁neutral	-11.1635
Su	-11.1636
▁cubierto	-11.1637
▁vestido	-11.1637
▁1970	-11.1638
▁mamá	-11.1639
▁egipcios	-11.1644
sola	-11.1646
▁infierno	-11.1649
▁maniobra	-11.1649
▁suspensión	-11.1649
▁cayó	-11.1649
▁pregunte	-11.1649
▁charla	-11.165
▁hielo	-11.165
▁Hubo	-11.1653
▁movi	-11.1653
▁Red	-11.1655
▁granja	-11.1658
▁intensidad	-11.1662
sk	-11.1664
▁generalizada	-11.1668
▁haremos	-11.1669
ini	-11.1674
▁afirmó	-11.1674
▁ultra	-11.1674
▁propaganda	-11.1675
▁sida	-11.1677
MI	-11.1678
▁imagin	-11.1681
fue	-11.1681
▁perdonar	-11.1686
Cuánto	-11.1686
▁campamento	-11.1687
tones	-11.1688
▁domina	-11.169
▁radica	-11.169
▁perjudiciales	-11.169
▁armonizar	-11.1691
▁absten	-11.1692
▁imita	-11.1693
▁sustancial	-11.1695
▁pinta	-11.1697
rca	-11.1697
neros	-11.1697
todo	-11.1698
▁Católica	-11.1699
▁biológica	-11.17
ular	-11.1702
▁intentan	-11.1703
▁constata	-11.1707
▁hacerle	-11.171
▁emocionante	-11.1712
▁Vietnam	-11.1712
▁Arabia	-11.1712
▁presa	-11.1719
▁volverá	-11.1721
▁elevar	-11.1721
▁tuvieran	-11.1725
▁brindar	-11.1726
▁dientes	-11.1728
▁preguntarle	-11.173
▁surgen	-11.1732
émonos	-11.1736
pan	-11.1737
ö	-11.1737
▁portuguesa	-11.1737
▁horrible	-11.1737
▁tarda	-11.1737
▁preferencia	-11.1739
▁reformar	-11.174
▁Ustedes	-11.174
▁puro	-11.1742
▁corona	-11.1742
▁juguetes	-11.1745
▁electorales	-11.1745
gente	-11.1746
▁For	-11.1747
▁cambie	-11.175
▁proliferación	-11.1751
▁financia	-11.1754
▁Bel	-11.1757
bí	-11.1758
▁Primera	-11.1761
▁desprende	-11.1761
▁heridas	-11.1762
▁agrada	-11.1762
▁juvenil	-11.1762
▁siguieron	-11.1762
▁localidad	-11.1763
ificar	-11.1769
▁valle	-11.1773
▁estuvieran	-11.1774
▁debatimos	-11.1776
▁considerables	-11.1777
▁liber	-11.178
imi	-11.1783
+	-11.1788
▁Corintios	-11.1788
▁1991	-11.1788
▁1980	-11.1789
▁acelera	-11.179
pra	-11.1793
▁contenidos	-11.1793
▁continuará	-11.1795
▁hábito	-11.1802
▁química	-11.1802
60	-11.1803
güe	-11.1807
nada	-11.1808
▁ilustración	-11.181
▁recibimos	-11.1813
▁aislamiento	-11.1813
▁blancos	-11.1814
▁beneficiar	-11.1816
▁sometido	-11.1816
▁hechas	-11.1816
▁solicitantes	-11.1817
▁adaptarse	-11.1819
▁resultante	-11.1821
▁favorece	-11.1825
▁2009.	-11.1826
▁ó	-11.1826
▁advirtió	-11.1826
▁incapacidad	-11.1827
▁estrella	-11.1832
▁utilizarse	-11.1835
nega	-11.1838
uri	-11.1839
▁dotar	-11.1844
zan	-11.1846
▁centrar	-11.1846
cara	-11.1848
▁culpables	-11.1848
▁satisfechos	-11.1849
▁socialistas	-11.185
ara	-11.1851
▁bicicleta	-11.1851
▁biodiversidad	-11.1851
▁doméstica	-11.1851
▁despertar	-11.1852
▁reloj	-11.1852
▁daría	-11.1853
▁tecnológico	-11.1854
▁utilizada	-11.1855
▁millas	-11.1856
,000	-11.1856
▁Aquello	-11.1859
▁conservadores	-11.1859
▁aprobadas	-11.1859
grande	-11.1859
▁Considere	-11.1864
▁infecta	-11.1864
▁manteniendo	-11.1864
▁caído	-11.1864
▁distinguir	-11.1865
▁seguida	-11.1866
▁exclusiva	-11.1867
▁culto	-11.1877
▁precedente	-11.1881
▁arca	-11.1881
ty	-11.189
▁patrón	-11.189
▁ofrecido	-11.1891
▁realizó	-11.1891
▁suceda	-11.1892
▁inocentes	-11.1897
Q	-11.1899
▁suponer	-11.1903
▁respeten	-11.1905
▁agrado	-11.1913
▁habiendo	-11.1913
ñi	-11.1914
▁columna	-11.1915
▁Kha	-11.1918
▁anunciar	-11.1919
▁conceptos	-11.1923
▁gigante	-11.1927
▁componentes	-11.1928
Sa	-11.1928
▁reconciliación	-11.1928
▁heridos	-11.193
▁adopta	-11.1938
▁realizadas	-11.1938
▁obediencia	-11.1941
▁jefes	-11.1946
▁Pri	-11.1946
CC	-11.1947
▁aceptan	-11.1948
▁corrientes	-11.1948
gun	-11.1948
▁robo	-11.1949
▁creada	-11.1954
mul	-11.1954
▁negros	-11.1955
▁versículo	-11.1958
▁olvidado	-11.196
▁Mil	-11.1961
▁formado	-11.1964
▁habida	-11.1968
tener	-11.1968
▁rota	-11.1969
▁destina	-11.1972
▁Pese	-11.1974
▁Ob	-11.1979
▁Génesis	-11.198
▁retrasos	-11.1981
▁temen	-11.1983
▁ocultar	-11.1984
▁mover	-11.1987
▁económicamente	-11.1988
▁escritores	-11.1992
cidad	-11.1992
▁Filipinas	-11.1993
▁pongan	-11.1993
▁posteriores	-11.1995
▁visado	-11.1998
mple	-11.2
▁americanos	-11.2
2000	-11.2005
▁escogido	-11.2006
▁nieve	-11.2006
▁confiable	-11.2006
▁norteamericana	-11.2006
▁admite	-11.2007
imo	-11.2009
tuvo	-11.2011
▁haré	-11.2014
▁anula	-11.2016
▁dimensiones	-11.2019
▁reparto	-11.2019
▁Recuerdo	-11.2019
▁fósiles	-11.2021
eva	-11.2023
▁integral	-11.203
ov	-11.2031
cultura	-11.2033
▁perros	-11.2038
ige	-11.2041
▁Chechenia	-11.2045
▁asiento	-11.2045
▁combina	-11.2048
▁romano	-11.205
fre	-11.2051
▁insectos	-11.2053
▁limpiar	-11.2055
▁intercambios	-11.2055
▁Ezequiel	-11.2058
▁oxígeno	-11.2058
▁conozca	-11.2058
▁Santo	-11.2058
▁juega	-11.2058
tención	-11.206
▁barrio	-11.206
▁Trans	-11.2061
▁hallaba	-11.2061
▁mínimas	-11.2062
▁horario	-11.2064
▁Media	-11.2064
▁negociado	-11.2069
CS	-11.207
llado	-11.2071
▁comienzos	-11.2072
kh	-11.2075
▁practicar	-11.2076
IS	-11.2078
▁africano	-11.2079
▁inspiración	-11.2088
▁enlace	-11.2091
▁trasladar	-11.2092
▁pierde	-11.2093
▁Muy	-11.2096
ard	-11.2097
▁pudiéramos	-11.2097
▁manipula	-11.2104
▁Singapur	-11.211
▁perseguir	-11.211
▁ref	-11.211
▁sabían	-11.2116
▁Estudi	-11.2118
bli	-11.2122
▁famosa	-11.2123
▁2006,	-11.2128
vu	-11.2129
kin	-11.2132
▁hoja	-11.2134
gran	-11.2135
▁sequía	-11.2137
aj	-11.2138
▁mandó	-11.2138
▁SIDA	-11.214
▁explicaciones	-11.2141
▁dirá	-11.2143
▁activista	-11.2143
▁veras	-11.2147
▁blogueros	-11.2153
▁aman	-11.2157
04	-11.216
▁altera	-11.2161
▁Martin	-11.2161
▁vecindad	-11.2163
▁esperado	-11.2164
▁encontraba	-11.2172
eno	-11.2173
▁CA	-11.2174
▁hacernos	-11.2174
posición	-11.2175
▁ansiedad	-11.2176
▁cautela	-11.2176
▁exhaustiva	-11.2176
▁1989	-11.2176
tándose	-11.2178
temos	-11.218
▁Pat	-11.2182
▁dejen	-11.2185
▁aprendí	-11.2185
▁decían	-11.2186
Cuándo	-11.2189
▁huevos	-11.219
▁surge	-11.219
▁provisión	-11.219
rup	-11.2191
▁consideraba	-11.2193
▁rasgos	-11.2193
▁fuimos	-11.2198
▁dulce	-11.2202
ON	-11.2202
▁decide	-11.2205
▁programación	-11.2206
▁suscita	-11.2209
▁fábrica	-11.221
▁razonables	-11.2211
▁Atlántico	-11.2215
▁hipocresía	-11.2215
▁contradicción	-11.2215
ñó	-11.2217
▁contener	-11.2219
▁complejos	-11.2221
):	-11.2221
▁Ana	-11.2222
ándoles	-11.2223
▁cuota	-11.2224
▁coordinada	-11.2224
▁viviendas	-11.2226
line	-11.2228
▁castiga	-11.2228
▁club	-11.2229
▁excepto	-11.2229
puede	-11.2229
▁quinto	-11.2229
Todo	-11.223
▁revelado	-11.2239
▁Junto	-11.2243
▁selva	-11.2244
▁restaurar	-11.2246
▁construye	-11.2246
▁Industria	-11.2248
mov	-11.2251
▁decidí	-11.2253
▁opera	-11.2254
▁hub	-11.2256
▁móviles	-11.2268
▁News	-11.2268
▁traje	-11.2268
▁vuelven	-11.227
▁preocupado	-11.2273
▁titulares	-11.2277
ática	-11.2281
▁establecidas	-11.2282
▁constatar	-11.2282
▁alarma	-11.2283
▁participen	-11.2283
▁fortalece	-11.2283
▁milagros	-11.2284
▁asesinatos	-11.2286
▁Des	-11.2287
▁Cuánto	-11.229
▁respete	-11.2292
▁Departamento	-11.2295
▁austeridad	-11.2295
▁hablo	-11.2295
▁48	-11.2306
▁franco	-11.2308
▁punta	-11.2312
▁poderosos	-11.2316
▁bloguero	-11.2318
igu	-11.2319
mí	-11.2322
▁prestación	-11.2322
▁unánime	-11.2325
▁pas	-11.2326
▁desigualdades	-11.2326
vita	-11.233
▁aceptada	-11.2333
▁avanzando	-11.2333
mientos	-11.2333
▁reforzada	-11.2335
▁cuello	-11.2335
▁electores	-11.2337
▁bebés	-11.2341
▁órdenes	-11.2349
▁Crecimiento	-11.2349
▁barata	-11.2349
lón	-11.2351
▁arrestado	-11.2354
▁circunstancia	-11.2359
AS	-11.236
▁llevarse	-11.2361
▁cincuenta	-11.2362
▁continuidad	-11.2362
▁examine	-11.2362
▁plástico	-11.2362
▁Comp	-11.2364
▁dedicada	-11.2365
mpo	-11.2367
▁costoso	-11.2369
▁confirmado	-11.2372
▁prenda	-11.2374
▁coincide	-11.2374
rados	-11.2375
▁Turismo	-11.2377
▁debió	-11.2378
▁prácticos	-11.2378
▁restaurante	-11.2379
▁Bible	-11.2381
▁humo	-11.2386
▁Simplemente	-11.2389
▁bilateral	-11.2389
cro	-11.2391
▁pida	-11.2392
▁explotaciones	-11.2392
▁espiritualmente	-11.2393
FI	-11.2397
▁conozco	-11.2402
▁pareció	-11.2403
▁6,	-11.2406
▁imperativo	-11.2407
▁piezas	-11.2407
▁2000.	-11.2414
ali	-11.2415
▁dirigió	-11.2416
▁fiebre	-11.2416
▁posesión	-11.2416
▁Escocia	-11.2416
libera	-11.2417
▁cena	-11.2419
▁regularmente	-11.2419
▁actúa	-11.2427
▁Venezuela	-11.2429
▁exactitud	-11.2429
▁obediente	-11.2429
▁deficiente	-11.243
▁liga	-11.2431
▁bloque	-11.2433
▁implicadas	-11.2434
Pero	-11.2438
▁Estatuto	-11.2443
▁terribles	-11.2445
▁sensibles	-11.2445
▁Yemen	-11.2447
▁traza	-11.245
▁carecen	-11.2452
96	-11.2455
gráfica	-11.2456
▁problemática	-11.2456
▁devastador	-11.2457
▁adversa	-11.2457
▁democratización	-11.2457
ef	-11.2458
▁detenidos	-11.2458
▁Libre	-11.2459
ibles	-11.2459
▁parlamentarias	-11.2462
▁deposita	-11.2463
▁cálculos	-11.2464
▁dominante	-11.2466
▁Bas	-11.2467
▁quieres	-11.2467
▁Cabe	-11.2468
▁explosión	-11.247
▁proseguir	-11.247
▁Algo	-11.2474
▁use	-11.2475
▁salvaguardar	-11.2476
▁fuma	-11.2477
▁grano	-11.2478
tú	-11.2479
11	-11.2482
▁administrativas	-11.2482
▁magnífica	-11.2484
▁irrita	-11.2484
▁asesor	-11.2487
▁esforzarse	-11.2489
▁aparatos	-11.249
pta	-11.2491
▁remunera	-11.2491
▁considerada	-11.2496
▁obispo	-11.2497
▁arrastra	-11.2497
▁positivamente	-11.2501
▁Bre	-11.2506
▁llevada	-11.2507
ándole	-11.2509
▁autobús	-11.2511
▁embarazo	-11.2511
▁multinacionales	-11.2514
lf	-11.2515
dina	-11.2518
▁Ji	-11.2519
▁frustración	-11.2524
▁duradero	-11.2525
▁’?	-11.2528
▁coches	-11.2534
▁propiedades	-11.2535
▁determinada	-11.2536
▁invitar	-11.2538
▁diseñar	-11.2538
izó	-11.2544
▁vuelos	-11.2545
AN	-11.2547
▁ambiciosos	-11.2549
▁prever	-11.255
▁encuentre	-11.255
▁antecedentes	-11.2552
▁transmite	-11.2553
▁vimos	-11.2555
▁Foto	-11.2555
▁justas	-11.2556
▁detenidamente	-11.2556
▁preparando	-11.2557
▁calificación	-11.2558
plan	-11.2563
▁aumentó	-11.2566
▁sufriendo	-11.2566
▁Guinea	-11.2566
▁ambiciones	-11.2566
▁consentimiento	-11.2567
gia	-11.2568
fren	-11.2571
▁legalmente	-11.2574
▁sueños	-11.2578
▁japonés	-11.2579
▁prohíbe	-11.2579
▁asciende	-11.2579
▁Mesa	-11.2583
▁juntas	-11.2583
▁resultará	-11.2585
▁diagnóstico	-11.2593
▁asesino	-11.2593
▁Dentro	-11.2593
▁ésa	-11.2593
ub	-11.2594
bró	-11.2596
▁corren	-11.2602
▁reciba	-11.2605
▁Tailandia	-11.2607
▁trágico	-11.2607
▁reciban	-11.2608
▁lector	-11.2609
let	-11.2611
ija	-11.2611
▁Penal	-11.2616
▁recupera	-11.2617
▁elegidos	-11.2618
▁salva	-11.2619
▁dramática	-11.2621
▁diré	-11.2624
▁navegación	-11.2627
▁otorgar	-11.2632
▁Lin	-11.2633
▁reducida	-11.2634
▁renovación	-11.2634
▁archi	-11.2636
▁utilizados	-11.2638
▁mutuamente	-11.2648
▁Taiwán	-11.2648
▁corazones	-11.2648
▁permanece	-11.2648
▁Casa	-11.2648
ate	-11.2649
▁suicida	-11.2649
Considera	-11.265
ándome	-11.2658
▁alumnos	-11.2662
▁percepción	-11.2663
▁mínimos	-11.2666
minó	-11.2666
▁macho	-11.2667
▁componente	-11.2668
▁funcionario	-11.2669
▁detallado	-11.2671
▁acusado	-11.2671
▁Habla	-11.2672
▁excesivamente	-11.268
▁Papa	-11.2686
▁perseguido	-11.269
▁2015	-11.2691
▁colectivo	-11.2692
stan	-11.2693
▁Doha	-11.2693
yu	-11.2696
igo	-11.2698
▁Supremo	-11.2704
▁agrupa	-11.2704
▁inútil	-11.2704
▁llegara	-11.2705
▁vinculada	-11.2707
▁descendencia	-11.2708
▁afectada	-11.2711
dico	-11.2713
▁publicada	-11.2714
▁42	-11.2717
▁té	-11.2717
▁prestigio	-11.2717
poli	-11.2718
▁editor	-11.2719
▁Malta	-11.2721
uer	-11.2721
▁criticar	-11.2722
/2	-11.2725
▁históricos	-11.2727
▁She	-11.2728
▁aplicables	-11.2732
▁beneficiarios	-11.2733
ama	-11.2737
▁referencias	-11.2742
taron	-11.2745
▁contestó	-11.2745
▁caos	-11.2746
▁Ciudad	-11.2747
▁humor	-11.2748
▁debilidad	-11.2749
▁aspiraciones	-11.2751
▁basan	-11.2753
▁pasaba	-11.2754
▁libera	-11.2755
▁expresamente	-11.2757
ministr	-11.2758
▁basarse	-11.2759
▁Precisamente	-11.2759
▁encontré	-11.2759
▁luces	-11.2761
▁excluye	-11.277
▁dictador	-11.2772
▁plata	-11.2773
▁empezamos	-11.2773
▁evaluaciones	-11.2774
▁EN	-11.2785
▁legislatura	-11.2787
▁respondido	-11.2787
▁inminente	-11.2787
▁opresión	-11.2787
▁jubilación	-11.2791
▁ejemplares	-11.2791
▁desagradable	-11.2793
▁dejará	-11.2798
vida	-11.2801
▁vaso	-11.2803
▁preguntado	-11.2804
▁teléfonos	-11.2805
mann	-11.2807
▁apresura	-11.2808
▁llamamos	-11.2808
tante	-11.2808
▁presidencial	-11.2808
▁mirando	-11.2808
cepción	-11.281
▁38	-11.2812
▁soberano	-11.2815
▁PSE	-11.2816
▁camina	-11.2819
ram	-11.2819
▁vivían	-11.282
ingún	-11.282
▁asignar	-11.2821
▁cualidad	-11.2822
▁publicadores	-11.2823
▁ejércitos	-11.2827
▁absurdo	-11.2829
▁retórica	-11.2829
▁cambiando	-11.283
▁móvil	-11.283
▁Qui	-11.2832
▁extensa	-11.2834
▁Ven	-11.2835
ip	-11.2835
ponga	-11.2842
▁Ze	-11.2843
▁curiosidad	-11.2844
▁parábola	-11.2844
▁aumentará	-11.285
▁asignado	-11.2854
▁sometida	-11.2854
▁acero	-11.2854
gur	-11.2858
▁reflejar	-11.2859
jera	-11.286
▁valoración	-11.2861
itos	-11.2862
▁energéticos	-11.2869
▁Milenio	-11.2872
▁espectacular	-11.2872
▁rigor	-11.2872
▁pertinente	-11.2877
▁fotografía	-11.2877
▁misiones	-11.2878
▁detectar	-11.2879
▁recto	-11.288
▁tienden	-11.2882
▁aparición	-11.2886
▁prominente	-11.2886
▁pornografía	-11.2886
ándolos	-11.2887
▁apoyando	-11.2887
▁agradecido	-11.2891
▁engaña	-11.2892
▁favorables	-11.2892
▁precursora	-11.2893
▁Lamento	-11.2893
▁asuma	-11.2896
▁académico	-11.29
▁obtuvo	-11.29
▁Decisión	-11.29
▁romaní	-11.2901
▁novia	-11.2902
▁derrama	-11.2904
▁nacionalismo	-11.2904
▁espacios	-11.2906
05	-11.2908
▁equivoca	-11.2909
▁aprendiendo	-11.2913
▁miércoles	-11.2914
▁alentador	-11.2915
▁dedicados	-11.2915
▁acontec	-11.2915
▁ocuparse	-11.2916
▁videos	-11.2921
▁reunirse	-11.2922
▁Myanmar	-11.2928
▁paisaje	-11.2928
▁discrepa	-11.2928
▁empuja	-11.2928
▁Rural	-11.2929
▁abusa	-11.2931
▁serios	-11.2932
▁benefician	-11.2933
ME	-11.2934
▁roja	-11.2935
gor	-11.2936
▁atentados	-11.2939
%	-11.2941
fal	-11.2942
▁húngaro	-11.2943
▁suicidio	-11.2943
▁Pronto	-11.2945
Co	-11.2946
▁caballo	-11.2947
▁cálculo	-11.2949
▁Ayer	-11.2953
▁concepción	-11.2954
▁empeño	-11.2957
▁refuerza	-11.2957
▁invoca	-11.2958
▁sabor	-11.2959
ata	-11.2961
▁delincuentes	-11.2963
▁niega	-11.2966
▁emplean	-11.2966
▁imaginación	-11.2969
▁convenios	-11.2973
▁2008.	-11.2974
▁progresar	-11.2978
▁Quién	-11.2981
¿	-11.2985
▁espectáculo	-11.2985
▁inmunidad	-11.2985
▁pintura	-11.2985
▁demográfico	-11.2986
▁luna	-11.2986
▁maneja	-11.2989
tarse	-11.2992
▁gal	-11.2994
13	-11.2995
▁soviético	-11.3
▁vela	-11.3004
▁pasará	-11.3005
▁modificados	-11.3008
fan	-11.3011
▁contenta	-11.3013
▁fla	-11.3014
▁cancela	-11.3014
▁muere	-11.3015
▁diver	-11.3017
▁huir	-11.3018
▁sientan	-11.3019
▁American	-11.3023
▁convierten	-11.3024
▁bajar	-11.3026
▁muchacho	-11.3027
▁Evangelio	-11.3028
▁adoradores	-11.3029
▁sabrá	-11.3029
▁montón	-11.3029
▁padece	-11.3029
▁abiertas	-11.3031
▁Quería	-11.3041
▁impulsado	-11.3042
▁homenaje	-11.3043
▁obtenga	-11.3043
▁Blog	-11.3049
bos	-11.3049
SA	-11.3052
▁listas	-11.3053
cir	-11.3055
▁Samuel	-11.3057
▁canadiense	-11.3057
▁ilumina	-11.3057
19	-11.3058
▁Perú	-11.306
▁bacterias	-11.3064
▁experimento	-11.3065
▁disfrute	-11.3066
▁denominada	-11.3071
▁apoyen	-11.3071
▁situada	-11.3072
tida	-11.3075
▁"¡	-11.3078
▁ejecuta	-11.3083
▁potenciales	-11.3084
▁regocija	-11.3087
▁causan	-11.3087
▁incumplimiento	-11.3087
▁Bra	-11.3092
▁centrado	-11.3093
▁llegando	-11.3094
▁justificación	-11.3096
▁llamaba	-11.3098
▁asocia	-11.3099
▁causó	-11.31
▁pesqueros	-11.3102
Cristianos	-11.3103
▁pared	-11.3105
▁DE	-11.3108
▁dividido	-11.3115
▁turistas	-11.3115
▁socialdemócrata	-11.3116
▁entrado	-11.3119
▁huesos	-11.3129
▁maravilla	-11.3129
▁derrotero	-11.313
uso	-11.313
▁arroja	-11.313
▁valorar	-11.3133
▁paralelo	-11.3141
ow	-11.3144
▁llegué	-11.3144
▁diputada	-11.3144
▁abrió	-11.3144
▁viuda	-11.3146
▁pieza	-11.3147
Ve	-11.315
▁directas	-11.3152
▁disponen	-11.3153
▁defectos	-11.3154
▁usada	-11.3157
▁atractiva	-11.3158
▁hierro	-11.3158
▁Saúl	-11.3159
▁acepte	-11.3159
▁poseen	-11.3159
▁pecho	-11.3163
▁bur	-11.3165
cero	-11.3166
eja	-11.3166
ona	-11.3168
bert	-11.3172
▁neuro	-11.3172
▁subyacente	-11.3174
▁Significa	-11.3175
dul	-11.3175
▁pretenden	-11.3185
▁Watchtower	-11.3188
▁colapso	-11.3188
▁supervisar	-11.3188
chen	-11.3188
▁ceder	-11.3191
▁fotografías	-11.3197
str	-11.3197
▁brazo	-11.3198
just	-11.3198
▁legislativos	-11.3199
17	-11.32
▁envuelto	-11.3202
▁táctica	-11.3202
▁válida	-11.3202
▁intermedia	-11.3202
▁inicuos	-11.3203
▁tejido	-11.3213
▁consum	-11.3213
▁formula	-11.3215
▁Armenia	-11.3217
▁w	-11.3217
▁razonamiento	-11.3218
lie	-11.322
▁separar	-11.322
▁españoles	-11.3222
▁ayudando	-11.3222
▁lleven	-11.3223
▁produzcan	-11.3223
▁cumpl	-11.3226
▁integr	-11.3228
cau	-11.3229
▁Afortunadamente	-11.3231
▁desprecia	-11.3231
▁disponibilidad	-11.3231
▁gratuita	-11.3231
▁disponga	-11.3232
Acaso	-11.3233
▁Dan	-11.3235
▁pedía	-11.3244
▁oficialmente	-11.3246
▁cuarenta	-11.3246
▁lidera	-11.3249
▁liberado	-11.325
▁edición	-11.3259
▁externos	-11.3259
▁economistas	-11.326
▁trágica	-11.3261
▁Timor	-11.3262
▁Varios	-11.3263
▁mancha	-11.3263
▁preguntarse	-11.3264
gida	-11.3265
inter	-11.3267
▁cometidos	-11.3267
▁lentamente	-11.3269
▁Quienes	-11.327
▁ratificado	-11.327
▁genes	-11.327
▁cable	-11.3274
úl	-11.3275
▁entretenimiento	-11.3276
.500	-11.3276
prendieron	-11.3276
▁relatos	-11.3277
sumi	-11.3278
▁UN	-11.3285
▁norteamericano	-11.3288
jer	-11.3288
▁limitación	-11.3288
lista	-11.3288
▁reemplaza	-11.3289
▁reemplazar	-11.3292
▁vas	-11.3294
▁terrestres	-11.33
▁felicita	-11.3302
▁monetario	-11.3305
▁detrimento	-11.3305
▁surgió	-11.3306
roga	-11.331
▁radicales	-11.3316
▁culmin	-11.3319
▁implicar	-11.332
lam	-11.3324
▁tr	-11.3326
gio	-11.3328
▁olvidemos	-11.3329
▁mentales	-11.3334
▁software	-11.3335
▁almacenamiento	-11.3335
▁mantuvo	-11.3337
▁conductor	-11.3338
▁interpretar	-11.3341
▁quedaba	-11.3342
▁dijera	-11.3344
▁pilares	-11.3345
▁$	-11.3345
▁practican	-11.3348
▁persigue	-11.3349
▁tomarse	-11.335
pendi	-11.3354
▁tumba	-11.3354
zu	-11.3355
ila	-11.3357
▁socialista	-11.3358
▁Europeos	-11.3358
▁artes	-11.3358
illa	-11.3363
▁definitivo	-11.3364
▁japonesa	-11.3364
▁productiva	-11.3364
▁temporada	-11.3364
▁...	-11.3364
▁soporta	-11.3365
▁casualidad	-11.3366
iste	-11.3367
▁favorito	-11.3369
▁penales	-11.3372
▁moralidad	-11.3373
▁aumentan	-11.3375
▁detenido	-11.3378
▁Premio	-11.3379
▁Ambos	-11.338
▁Q	-11.3381
▁escolares	-11.3382
▁primaria	-11.3387
▁55	-11.3388
▁electo	-11.3389
Para	-11.3391
▁climática	-11.3394
▁conciudadanos	-11.3394
▁continuó	-11.3394
▁Paraíso	-11.3394
▁pregunté	-11.3394
▁milenio	-11.3394
▁honradez	-11.3394
▁instante	-11.3396
▁mencionados	-11.3397
iv	-11.3402
▁nominal	-11.3402
▁engaño	-11.3404
zón	-11.3406
▁envejecimiento	-11.3409
▁concesiones	-11.3409
▁recogido	-11.3409
▁cuerda	-11.3409
ai	-11.3409
▁multa	-11.3409
▁retorno	-11.3415
▁incorpora	-11.3417
▁silla	-11.3418
40	-11.3419
▁mera	-11.342
gie	-11.3423
▁Ed	-11.3423
▁aplasta	-11.3424
equilibr	-11.3424
▁matanza	-11.3424
▁pesada	-11.3426
▁tolerar	-11.3427
erg	-11.3427
▁sanidad	-11.3428
▁realice	-11.3429
▁creyentes	-11.343
ple	-11.3438
▁concluido	-11.3439
▁sorprendido	-11.3439
▁atribuye	-11.3439
▁busque	-11.3439
▁criar	-11.3441
▁carencia	-11.3441
▁interiores	-11.3445
▁establecen	-11.3449
▁valiente	-11.3453
▁Información	-11.3454
▁lingüística	-11.3454
▁túnel	-11.3454
fico	-11.3455
▁financiado	-11.3455
▁oídos	-11.3457
▁sujetos	-11.3457
▁experimentos	-11.346
▁Rom	-11.3462
▁amo	-11.3466
▁Chris	-11.3469
▁enseguida	-11.3469
▁sufrió	-11.3469
illos	-11.3469
▁Z	-11.347
▁obtiene	-11.3471
▁efectuado	-11.3473
▁eje	-11.3474
tarios	-11.3475
▁excluir	-11.3484
▁irregularidades	-11.3484
▁nombrar	-11.3486
fl	-11.3488
▁estrictos	-11.3488
▁respira	-11.3489
▁compras	-11.349
ller	-11.3496
▁rebeldes	-11.3497
▁transposición	-11.35
▁orilla	-11.3501
▁12:	-11.3502
▁chicos	-11.3506
▁mentalidad	-11.3508
▁2011,	-11.351
▁convoca	-11.3512
▁padecen	-11.3514
▁productivo	-11.3514
▁voluntario	-11.3515
▁docena	-11.3517
▁presidi	-11.3518
▁descarga	-11.3522
▁venía	-11.3523
▁quejas	-11.3524
▁vacía	-11.3526
mane	-11.3526
▁Mari	-11.3527
▁gobernador	-11.3527
▁instar	-11.353
▁ocupe	-11.353
▁registros	-11.3536
▁cigarrillos	-11.3537
ny	-11.3539
Va	-11.3541
▁honrado	-11.3542
▁diplomacia	-11.3544
flex	-11.3548
▁vuelvan	-11.3549
▁chinas	-11.3549
ph	-11.3549
▁lanzado	-11.3552
Vi	-11.3554
▁Alimentaria	-11.3559
▁creatividad	-11.356
▁proponemos	-11.356
▁relevante	-11.356
▁característica	-11.356
▁privilegios	-11.3564
▁Ol	-11.3566
ería	-11.3566
▁indicación	-11.357
▁tratamos	-11.3573
▁incrementa	-11.3574
▁líquido	-11.3574
▁pasaporte	-11.3574
▁2012,	-11.3576
▁producirse	-11.3578
ight	-11.3584
▁Nada	-11.3585
▁agujero	-11.3589
▁horizontal	-11.3589
▁aparta	-11.359
▁basándose	-11.3591
▁65	-11.3592
▁Herman	-11.3592
af	-11.3594
2%	-11.3606
▁intente	-11.3609
▁partículas	-11.3611
▁suceso	-11.3611
▁consiguió	-11.3611
▁seriedad	-11.3611
▁nubes	-11.3612
▁aparato	-11.3613
▁proteínas	-11.3615
▁Tres	-11.3617
▁incidentes	-11.362
▁corrupto	-11.362
▁ése	-11.362
poner	-11.3624
▁carro	-11.3624
▁listo	-11.3628
contra	-11.3631
▁fracasado	-11.3632
Esto	-11.3634
human	-11.3635
▁consideró	-11.3637
▁iraníes	-11.3638
▁eventos	-11.3643
▁cua	-11.3644
▁hicieran	-11.3647
▁espectro	-11.365
▁filtra	-11.365
▁eficientes	-11.3651
end	-11.3652
▁ocupados	-11.3652
▁cata	-11.3653
▁explotar	-11.3653
▁lanzamiento	-11.3653
▁transparentes	-11.3655
▁proveer	-11.3657
▁Tercer	-11.3657
grama	-11.3663
⁠	-11.3666
▁prioritaria	-11.3666
▁preguntarnos	-11.3668
▁adolescente	-11.3668
▁deberes	-11.3668
▁defiende	-11.3669
▁Wall	-11.367
▁canta	-11.3672
▁computadoras	-11.3672
▁sacrifica	-11.3677
▁indios	-11.3679
▁Kyoto	-11.3681
▁exhaustivo	-11.3681
▁entablar	-11.3681
▁oscura	-11.3681
▁dióxido	-11.3682
▁vigilar	-11.3683
▁asumido	-11.3683
▁célula	-11.3684
▁Sara	-11.3687
▁comunistas	-11.3689
▁ofrenda	-11.3697
▁reiterar	-11.3699
▁decenio	-11.37
▁significar	-11.37
▁escapa	-11.3701
▁francamente	-11.3701
▁pronunciar	-11.3704
▁volar	-11.3704
7%	-11.3711
▁creían	-11.3717
▁unidades	-11.3718
▁Aparte	-11.372
▁mostraron	-11.3723
16	-11.3724
marca	-11.3725
berg	-11.3726
▁digan	-11.3726
▁billones	-11.3727
▁desaparición	-11.3727
▁erradicar	-11.3727
▁reducciones	-11.3727
▁hombro	-11.3727
¡	-11.373
▁Rev	-11.373
dministraciones	-11.3732
real	-11.3732
Cuáles	-11.3735
▁ecológico	-11.3736
▁comen	-11.3739
▁empiece	-11.3742
▁secundario	-11.3742
▁inquietudes	-11.3744
▁alegre	-11.3745
terra	-11.3746
▁metal	-11.3747
▁costas	-11.3747
▁tratarse	-11.3752
▁obedece	-11.3755
▁provechoso	-11.3755
▁Todopoderoso	-11.3758
▁implementar	-11.3761
▁abordado	-11.3764
▁cruzar	-11.3779
▁brote	-11.3789
▁contigo	-11.3789
▁compre	-11.3792
▁aérea	-11.3793
▁plenaria	-11.3794
▁armados	-11.3795
▁regulador	-11.3798
▁comparable	-11.3798
▁sepan	-11.3798
▁innecesario	-11.3804
▁termine	-11.3804
▁muerta	-11.3804
▁documenta	-11.3809
▁precipit	-11.3809
▁incorporación	-11.381
yer	-11.3815
▁ampliada	-11.3817
▁Etiopía	-11.382
▁penetra	-11.382
▁divide	-11.382
▁lazos	-11.382
▁Gar	-11.3822
▁mero	-11.3824
vista	-11.3826
▁literal	-11.3826
▁subsidios	-11.3826
rito	-11.3827
▁recibí	-11.3828
▁realizarse	-11.3829
ther	-11.3831
▁pega	-11.3832
lice	-11.3832
▁Hitler	-11.3835
▁potente	-11.3836
▁cristal	-11.3836
▁Anna	-11.3838
▁somete	-11.3847
tia	-11.3848
▁tremenda	-11.3851
▁serpiente	-11.3851
▁escuche	-11.3853
▁perdona	-11.3853
▁veamos	-11.3853
▁descendientes	-11.3855
▁viajeros	-11.3856
▁Monetario	-11.3856
▁automáticamente	-11.3857
▁senda	-11.3857
▁modernas	-11.3857
▁piensen	-11.3859
▁perjudicar	-11.386
▁cláusulas	-11.3865
▁rato	-11.3866
▁desconocido	-11.3867
▁divisiones	-11.3867
▁perfección	-11.3867
▁ultraperiférica	-11.3867
▁Piense	-11.3867
▁diariamente	-11.387
cord	-11.3876
gri	-11.3879
▁Sri	-11.3879
▁Peticiones	-11.3882
▁pudimos	-11.3882
▁predecir	-11.3882
▁deportes	-11.3886
▁vali	-11.3886
▁decidida	-11.3888
dicó	-11.3892
vale	-11.3897
▁meridional	-11.3898
▁Lanka	-11.3899
▁insiste	-11.3899
▁educativo	-11.3904
▁acompañada	-11.391
▁duras	-11.3911
▁camiones	-11.3914
▁utilizó	-11.3914
▁Cuerpo	-11.3914
▁informados	-11.3914
▁presentaron	-11.3916
▁llora	-11.3919
▁experto	-11.392
▁capitalismo	-11.3926
▁verdaderas	-11.3928
▁paredes	-11.3928
pio	-11.3929
▁Camboya	-11.3929
▁OLAF	-11.3929
▁Recuerde	-11.3929
▁burbuja	-11.3929
▁permitía	-11.3929
aunque	-11.3932
▁St	-11.3933
▁utilice	-11.3934
tiza	-11.3935
▁físicos	-11.3935
▁toque	-11.3939
▁papá	-11.3945
▁acabe	-11.3945
▁pierda	-11.3946
▁movilizar	-11.3948
▁tendríamos	-11.3951
volu	-11.3952
▁asociada	-11.3952
▁trastornos	-11.3952
▁jugadores	-11.3953
OR	-11.3953
▁previstas	-11.3953
ografía	-11.3953
oma	-11.3958
▁neg	-11.3959
▁tiende	-11.3959
▁calamidad	-11.3961
▁acarrea	-11.3961
▁moderado	-11.3961
▁Igualmente	-11.3965
▁déficits	-11.3965
▁controlado	-11.3967
▁encontrarse	-11.3967
▁v	-11.3968
tuvimos	-11.3971
▁Bal	-11.3974
▁irá	-11.398
▁frenar	-11.3982
gal	-11.3984
ejo	-11.3985
▁mando	-11.3989
▁Mal	-11.3989
▁califica	-11.3989
▁preferencias	-11.3991
▁Azerbaiyán	-11.3992
▁Josué	-11.3992
▁contrarrestar	-11.3992
▁americano	-11.3995
▁podíamos	-11.3997
▁secretario	-11.3998
--	-11.4003
▁implicación	-11.4006
▁plurianual	-11.4008
▁atañe	-11.4008
▁resucitado	-11.4009
▁designa	-11.4011
▁contaminantes	-11.4011
▁UEM	-11.4014
▁implicaciones	-11.4015
▁mina	-11.4016
▁dominar	-11.4016
▁celular	-11.4024
▁alcalde	-11.4024
esto	-11.4024
▁basados	-11.4026
vuelve	-11.4027
▁movilización	-11.4027
▁revelan	-11.4032
▁fiscalidad	-11.4034
▁Agradezco	-11.404
▁Imperio	-11.404
▁recae	-11.4041
inas	-11.4042
▁muestras	-11.4042
▁Fer	-11.4042
▁asusta	-11.4042
▁Pasa	-11.4043
▁Doy	-11.4047
PA	-11.4048
▁propietarios	-11.4053
▁Cáucaso	-11.4056
▁panorama	-11.4056
▁visitó	-11.4056
▁articul	-11.4056
▁refería	-11.4056
▁Pido	-11.4057
▁sabia	-11.4057
CEE	-11.4058
▁encantado	-11.4059
▁estabilización	-11.4059
rgu	-11.406
▁10:	-11.406
iéndole	-11.4061
▁Camp	-11.4064
▁atrae	-11.4064
▁preocuparse	-11.4071
▁aprend	-11.4071
▁comisario	-11.4072
▁gustado	-11.4076
▁empiezan	-11.4081
▁hembra	-11.4081
▁rentable	-11.4083
▁provee	-11.4083
ere	-11.4086
ALE	-11.4086
▁Eslovenia	-11.4088
▁puntual	-11.4088
▁simbólico	-11.4088
▁exención	-11.4088
TO	-11.4092
▁teme	-11.4093
▁conceda	-11.4094
▁estarían	-11.4096
▁americana	-11.4097
▁canciones	-11.4098
▁extendido	-11.4104
▁eventual	-11.4104
▁pertenencia	-11.4104
▁invitó	-11.4104
▁encuentren	-11.4106
▁textil	-11.4106
▁recordado	-11.4107
▁celebre	-11.4112
▁extremistas	-11.4118
▁incorrecta	-11.412
▁ingeniería	-11.412
▁transfusiones	-11.412
▁afirmaciones	-11.4121
viene	-11.4122
▁altar	-11.4125
▁encaja	-11.4125
▁probado	-11.4129
▁propaga	-11.4129
▁ruedas	-11.413
▁respetan	-11.4133
▁santos	-11.4134
▁físicas	-11.4134
ung	-11.4134
▁Tur	-11.4135
▁Dublín	-11.4136
▁respectivos	-11.4136
▁perdieron	-11.4138
▁Trabajo	-11.4138
▁sobrepasa	-11.4141
▁fundamentos	-11.4141
▁cuente	-11.4142
▁expuestos	-11.4147
▁afirmado	-11.4148
▁concuerda	-11.4152
▁optimismo	-11.4152
▁Llega	-11.4152
▁elevadas	-11.4157
▁protestantes	-11.4159
▁disminuye	-11.4159
▁desarrollarse	-11.4162
▁renovable	-11.4162
HU	-11.4166
▁respetado	-11.4167
▁actuado	-11.4168
▁emperador	-11.4168
▁palestina	-11.4168
▁previsiones	-11.4168
▁descrito	-11.4168
▁tomo	-11.4169
▁cae	-11.4177
▁vinculantes	-11.4178
▁Human	-11.4179
▁gripe	-11.4184
▁digamos	-11.4189
▁desequilibrios	-11.4192
▁Jean	-11.4193
▁sugerencia	-11.4195
▁Uganda	-11.42
▁educativa	-11.42
▁distorsiona	-11.42
▁obstaculiza	-11.42
▁nutri	-11.4201
▁tratamientos	-11.4204
bé	-11.4206
▁estricto	-11.4211
▁mol	-11.4215
▁disco	-11.4216
▁reconocida	-11.4216
▁creativa	-11.4218
▁domésticos	-11.4221
▁inspección	-11.4232
▁reduzca	-11.4232
▁ganó	-11.4232
▁emoción	-11.4232
▁Isaac	-11.4233
▁causada	-11.4235
LT	-11.4237
▁proporcionan	-11.4237
sky	-11.4239
▁proponen	-11.424
▁negocia	-11.4243
▁despliegue	-11.4249
▁propongo	-11.4249
▁simbólica	-11.4249
▁sirviendo	-11.4249
▁pala	-11.4249
▁circula	-11.4249
▁entend	-11.4253
izan	-11.4258
▁matrimonios	-11.4261
▁urgentes	-11.4262
▁generosa	-11.4265
▁antemano	-11.4265
media	-11.427
▁realidades	-11.4271
▁nace	-11.4275
▁Africa	-11.4277
▁pesa	-11.4278
cy	-11.4281
▁Sam	-11.4289
▁beneficioso	-11.429
▁frutas	-11.4291
▁Shi	-11.4292
▁recibiendo	-11.4297
▁elefante	-11.4298
▁infracción	-11.4298
▁43	-11.4299
▁librar	-11.4301
▁beneficiará	-11.4302
▁obvia	-11.4304
▁operan	-11.4306
▁enfoca	-11.4312
▁examinado	-11.4313
▁Brooklyn	-11.4314
▁Gobernante	-11.4314
▁terapia	-11.4314
▁triunfa	-11.4314
▁aventura	-11.4314
▁intensamente	-11.4314
▁funcionando	-11.4316
▁milagro	-11.4319
▁Liberales	-11.4322
▁reflexione	-11.433
▁probabilidades	-11.4332
pusieron	-11.4336
▁policías	-11.4336
pp	-11.4341
▁meramente	-11.4341
▁científicas	-11.4342
▁Rumania	-11.4346
▁misional	-11.4347
▁acercarse	-11.4347
▁Blair	-11.4347
▁clérigos	-11.4348
▁directos	-11.4348
▁llevamos	-11.435
AL	-11.4354
Mu	-11.4354
▁7:	-11.436
▁hallamos	-11.4361
▁inevitablemente	-11.4365
▁defensor	-11.4366
▁opositores	-11.4368
▁promueve	-11.4369
ij	-11.437
▁Deben	-11.4377
▁señalan	-11.4377
▁arquitectura	-11.4379
▁comunismo	-11.4379
▁autorizado	-11.4382
▁acoso	-11.4382
▁pierden	-11.4384
▁enseñan	-11.4385
▁fuertemente	-11.4387
▁apaga	-11.4389
▁arresta	-11.4389
▁exhorta	-11.439
▁tranquila	-11.4396
▁sensato	-11.4396
▁teatro	-11.4396
▁provocó	-11.4397
▁proporcionado	-11.4397
▁golpea	-11.4399
▁ahorra	-11.4403
▁justificado	-11.4411
▁emprende	-11.4411
▁ungido	-11.4411
▁Madrid	-11.4412
▁embajador	-11.4412
▁materna	-11.4412
▁2007.	-11.4412
▁sueldo	-11.4413
▁vecina	-11.4414
▁someterse	-11.4416
▁complejas	-11.4417
▁arreglos	-11.4419
▁depender	-11.442
▁garantizado	-11.4425
▁44	-11.4426
▁acostumbrado	-11.4426
▁describió	-11.4427
▁vuestro	-11.4429
▁abuela	-11.4429
▁Bri	-11.443
▁Hamás	-11.4432
ich	-11.4432
▁asombrosa	-11.4434
▁mundialización	-11.4437
▁expulsado	-11.4439
▁detecta	-11.4439
▁enfrente	-11.444
▁relevantes	-11.4444
▁TED	-11.4445
▁parcialmente	-11.4445
▁Solamente	-11.4446
▁castigar	-11.4446
cionista	-11.4447
dicto	-11.4448
▁alcohólicas	-11.4449
▁asombroso	-11.445
▁fábricas	-11.4451
▁necesite	-11.4452
vé	-11.4454
▁pastores	-11.4455
▁compromete	-11.4458
▁subida	-11.4462
▁quiebra	-11.4462
▁suponen	-11.4463
▁abstenido	-11.4463
▁goza	-11.4467
tábamos	-11.4468
▁desee	-11.4469
▁aguante	-11.4472
▁persistente	-11.4475
▁Foro	-11.4476
▁Tíbet	-11.4478
▁cerebral	-11.4478
▁fidelidad	-11.4478
▁equipar	-11.4479
ion	-11.4479
▁secretos	-11.4481
▁sobra	-11.4482
▁prejuicios	-11.4484
▁leyendo	-11.4486
▁colonia	-11.449
▁italianos	-11.4492
▁listos	-11.4493
▁clínica	-11.4495
▁botella	-11.4495
▁modificado	-11.4508
▁existan	-11.4509
▁contenía	-11.4509
▁consonancia	-11.4511
▁maestra	-11.4512
▁transacción	-11.4512
iti	-11.4512
▁azar	-11.4516
▁encontraron	-11.4517
▁ofreci	-11.4518
▁corporal	-11.4528
▁orgullosos	-11.4528
▁decidieron	-11.4528
▁Hechos	-11.4529
▁10%	-11.4531
▁Cri	-11.4534
▁dedican	-11.4537
▁dependerá	-11.454
ída	-11.454
▁anuncios	-11.454
▁denunciar	-11.4541
▁beneficiado	-11.4542
▁recordarles	-11.4543
▁escritura	-11.4545
▁redunda	-11.4545
▁vano	-11.4545
▁legado	-11.4546
▁realistas	-11.4546
▁fielmente	-11.4548
▁entienden	-11.455
▁grados	-11.4551
SE	-11.4555
▁prostitución	-11.4562
▁pánico	-11.4562
bit	-11.4562
▁homosexualidad	-11.4562
▁Queda	-11.4565
▁tercero	-11.4571
▁servía	-11.4573
vió	-11.4574
▁Federación	-11.4578
▁Zimbabue	-11.4578
▁conveniencia	-11.4578
▁emitido	-11.4578
▁tabla	-11.458
ete	-11.4582
70	-11.4589
▁somet	-11.4593
Í	-11.4595
▁incentivo	-11.4596
▁fijo	-11.4596
▁fascinante	-11.4596
tario	-11.4597
▁actúan	-11.4598
▁insto	-11.4599
▁cámaras	-11.4602
▁agota	-11.4603
▁significaría	-11.4604
▁eliminado	-11.4605
▁hipócrita	-11.4612
▁incapaz	-11.4612
▁intervenido	-11.4612
▁Caribe	-11.4612
▁Económico	-11.4613
▁rutina	-11.4613
▁comités	-11.4615
▁apropiadas	-11.4616
▁resalta	-11.4618
▁alberga	-11.4618
inc	-11.4624
▁obrar	-11.4627
▁Estocolmo	-11.4629
▁actuando	-11.4629
▁atraviesa	-11.4629
▁ferroviaria	-11.4629
▁permitiendo	-11.4629
▁típico	-11.4629
▁descenso	-11.4629
▁racista	-11.4629
▁potable	-11.4629
bajo	-11.4632
seguro	-11.4633
▁orgulloso	-11.4633
bremos	-11.4639
▁halló	-11.4646
▁agradar	-11.4648
II	-11.4649
▁aislada	-11.4652
▁aparecer	-11.4652
▁tratos	-11.4654
▁clasificación	-11.4654
▁sostienen	-11.4654
áis	-11.4654
▁dosis	-11.4657
X	-11.4657
llen	-11.4658
▁obtienen	-11.466
▁efectúa	-11.4662
▁mostrando	-11.4662
▁reflejo	-11.4662
▁Juegos	-11.4663
▁prospera	-11.4663
▁ahorros	-11.4663
▁normativas	-11.4664
▁encaminada	-11.4664
▁etapas	-11.4665
▁mandamientos	-11.4667
▁administrar	-11.467
idi	-11.4672
▁recuerdos	-11.4672
▁m	-11.4672
▁presentarse	-11.4673
▁estudiado	-11.4675
lip	-11.4676
▁antepasados	-11.4678
▁CIG	-11.4679
▁conexiones	-11.4679
▁equitativa	-11.4679
▁irresponsable	-11.4679
▁polémica	-11.4679
▁adquiere	-11.468
▁fri	-11.4682
35	-11.4683
▁originalmente	-11.4688
venir	-11.469
gina	-11.4691
▁debilitar	-11.4693
▁temporales	-11.4696
▁Malasia	-11.4696
▁distribuido	-11.4696
▁distribuir	-11.4696
▁excluido	-11.4696
▁viabilidad	-11.4696
▁inmenso	-11.4696
diciones	-11.4697
▁tomada	-11.4697
▁aplicaciones	-11.4698
▁piensos	-11.4701
▁levantamiento	-11.4702
▁fáciles	-11.4702
18	-11.4703
▁referirse	-11.4706
▁prefieren	-11.4708
ientes	-11.4711
iéndolo	-11.4711
▁beneplácito	-11.4713
▁desempleados	-11.4713
▁factura	-11.4713
▁confío	-11.4713
▁violento	-11.4716
▁aprendemos	-11.4716
▁participaron	-11.4723
▁esposos	-11.4725
▁sacud	-11.4726
ili	-11.4728
▁Personalmente	-11.473
▁húngara	-11.473
▁rica	-11.473
▁abraza	-11.4732
6%	-11.4736
▁generan	-11.4738
▁frecuentes	-11.4738
▁agradecidos	-11.4741
▁curar	-11.4747
▁alcanzó	-11.4747
▁bolsillo	-11.4747
▁patrones	-11.4747
▁reduciendo	-11.4747
▁incita	-11.4748
▁restringi	-11.475
▁fibra	-11.475
▁despido	-11.475
▁atreve	-11.4752
ident	-11.4753
▁invitados	-11.4754
▁lema	-11.4759
▁paralela	-11.4762
▁radiación	-11.4764
ias	-11.4765
▁reanuda	-11.4767
▁iraquí	-11.4769
▁600	-11.4769
▁marcar	-11.4773
pira	-11.4776
▁acusación	-11.4778
▁verdes	-11.4778
▁vigentes	-11.4781
▁hipoteca	-11.4782
▁proteccionismo	-11.4782
▁deteriora	-11.4782
▁cubano	-11.4782
▁deseen	-11.4784
▁orientado	-11.4789
▁lee	-11.4789
▁especialistas	-11.4791
Una	-11.4794
▁Argelia	-11.4799
▁difundir	-11.4799
▁embarazada	-11.4799
▁proyecta	-11.4799
▁restricción	-11.4799
▁recorrer	-11.4799
▁50%	-11.48
▁pasaron	-11.4803
▁recu	-11.4805
▁objeciones	-11.4816
▁rebelión	-11.4816
▁asegure	-11.4816
▁llave	-11.4816
▁ético	-11.4818
zco	-11.4822
▁regalos	-11.4823
tric	-11.4826
▁gama	-11.4826
▁sincera	-11.4828
NA	-11.4829
▁modesto	-11.4833
▁rebaja	-11.4834
▁Solana	-11.4834
▁medita	-11.4835
▁situar	-11.4836
▁supondría	-11.4838
ting	-11.484
está	-11.4841
▁Parte	-11.4842
▁acertadamente	-11.4843
▁vote	-11.4845
▁polacos	-11.4848
▁Journal	-11.485
▁Zambia	-11.485
▁disminuido	-11.485
▁fronteriza	-11.485
▁generoso	-11.485
▁Lea	-11.4852
▁alimenticios	-11.4853
▁amplias	-11.4854
▁comunicarse	-11.4858
8%	-11.4862
▁chica	-11.4864
▁consistente	-11.4867
▁Inversiones	-11.4867
▁enfermera	-11.4867
▁portugués	-11.4867
▁Pascua	-11.4868
▁asistentes	-11.4868
▁cumpliendo	-11.4868
▁facultad	-11.4872
▁tomadas	-11.4874
▁logran	-11.4876
▁acabamos	-11.4876
▁identificado	-11.4877
▁ajustes	-11.4878
fil	-11.4882
nita	-11.4883
▁viviente	-11.4885
▁rechazada	-11.4886
▁definida	-11.4886
▁debilidades	-11.4887
▁celebro	-11.4888
▁mantengan	-11.4893
▁harina	-11.4895
▁escuchando	-11.4896
▁Letonia	-11.4902
▁Puerto	-11.4902
▁codicia	-11.4902
▁incondicional	-11.4902
▁decidimos	-11.4902
▁transeuropeas	-11.4902
▁reparar	-11.4904
▁modalidades	-11.4907
▁motivación	-11.4913
▁garanticen	-11.4913
▁provocan	-11.4914
▁demuestre	-11.4919
▁genuina	-11.4919
▁genuino	-11.4919
▁Bru	-11.4919
viva	-11.4923
▁flexibles	-11.4927
▁Quiere	-11.4928
▁recalcar	-11.4929
xo	-11.4929
▁inspira	-11.4933
▁limitados	-11.4934
▁Luc	-11.4937
▁desempeño	-11.4937
▁cuento	-11.4938
▁acaso	-11.4939
▁naval	-11.494
▁llenos	-11.4948
▁seguras	-11.4951
▁sometidos	-11.4952
▁prudencia	-11.4954
▁Cuanto	-11.4954
▁haciéndolo	-11.4954
▁grita	-11.4955
▁acertada	-11.4962
▁desaparece	-11.4962
▁iniciales	-11.4963
activa	-11.4966
▁operativa	-11.4967
▁resta	-11.497
▁bandas	-11.497
▁Romanos	-11.4971
▁desencadena	-11.4972
bb	-11.4974
▁Tri	-11.4974
▁nazis	-11.4975
▁implementación	-11.4976
▁Pan	-11.4976
▁Brok	-11.4977
▁entidad	-11.4977
cientos	-11.4979
dig	-11.4981
▁engañar	-11.4982
▁edificar	-11.4983
▁Bro	-11.4984
▁pronunciado	-11.4986
▁lamentar	-11.4987
▁incluía	-11.4988
IE	-11.4988
▁controlada	-11.4988
▁predicando	-11.499
▁Nu	-11.499
▁recomendar	-11.499
▁ayudarán	-11.4992
▁indignación	-11.4994
▁racial	-11.4995
▁egipcio	-11.4996
▁comi	-11.4996
donde	-11.4998
▁rusas	-11.4998
▁opinan	-11.4999
▁pol	-11.5004
bie	-11.5005
▁intimidad	-11.5007
▁zapatos	-11.5007
▁tardar	-11.5007
▁dolorosa	-11.5008
▁madura	-11.5008
ella	-11.501
▁combinar	-11.501
▁compensa	-11.5015
▁reinado	-11.5016
uk	-11.5017
▁gua	-11.502
ert	-11.5023
▁Moldova	-11.5024
▁rechazó	-11.5024
▁Sistema	-11.5024
▁pedazo	-11.5024
ecieron	-11.5025
▁cá	-11.5026
▁títulos	-11.5027
▁atentamente	-11.5031
▁pendiente	-11.5031
▁destinar	-11.5036
tendiendo	-11.5036
▁chicas	-11.5038
▁Galileo	-11.5042
▁adulterio	-11.5042
▁existiendo	-11.5042
▁inmerecida	-11.5042
▁riguroso	-11.5042
▁destruida	-11.5042
▁disputas	-11.5043
▁remonta	-11.5043
▁ciber	-11.5044
▁potencialmente	-11.5045
ística	-11.5048
fro	-11.5049
▁Helsinki	-11.5059
▁cereales	-11.5059
▁crónica	-11.5059
▁mantenemos	-11.5059
▁transatlántica	-11.5059
▁Viena	-11.5062
▁fruta	-11.5063
▁previamente	-11.5065
▁contaba	-11.5076
▁consecuente	-11.5077
▁héroe	-11.5077
▁huella	-11.5077
▁Isa	-11.5079
▁terremotos	-11.5083
▁coma	-11.5085
▁inocente	-11.5085
▁bloquear	-11.5088
▁supuesta	-11.5089
▁compañera	-11.5094
▁legislaciones	-11.5094
▁choque	-11.5094
▁historiador	-11.5095
▁asignaciones	-11.5099
▁proceden	-11.5102
▁separada	-11.5103
▁Trabaja	-11.5103
éndose	-11.5103
gna	-11.5104
nova	-11.5108
▁encaminado	-11.5112
▁burocrático	-11.5112
▁acertado	-11.5112
IN	-11.5113
▁vitales	-11.5113
▁diplomáticos	-11.5117
▁prestaciones	-11.5121
Ba	-11.5122
CO	-11.5122
▁imparcial	-11.5127
▁responden	-11.513
▁reivindica	-11.513
▁dibujo	-11.513
▁sugerir	-11.513
▁corrección	-11.5131
▁ayudaron	-11.5131
▁investigador	-11.5139
▁empresariales	-11.5139
▁soñ	-11.514
▁notablemente	-11.5143
▁permanentes	-11.5144
▁invasión	-11.5147
▁forzado	-11.5148
▁salieron	-11.5151
ning	-11.5152
▁acabado	-11.5153
▁invitado	-11.5155
▁lenta	-11.5155
eto	-11.5156
80	-11.5157
▁dispositivo	-11.5157
▁tarjetas	-11.5157
▁ayuden	-11.5159
tha	-11.5162
▁romaníes	-11.5164
Ú	-11.5165
▁vinieron	-11.5165
▁sentencias	-11.5172
íes	-11.5173
▁explorar	-11.5175
▁13:	-11.5177
▁versículos	-11.5177
▁frecuente	-11.5183
▁abolición	-11.5183
▁aduanera	-11.5183
▁armadas	-11.5184
ocrático	-11.5184
▁armoniza	-11.5187
▁delantera	-11.5189
▁ancho	-11.519
▁vistazo	-11.5192
▁modificada	-11.5195
▁cuántos	-11.5195
vil	-11.5198
▁mentira	-11.52
▁admira	-11.5201
▁escaño	-11.5202
▁cuestionar	-11.5206
▁cortar	-11.5207
▁estratégicos	-11.5208
▁agotado	-11.5208
▁componen	-11.5208
▁revelar	-11.5209
▁monopolio	-11.5211
▁extrañar	-11.5216
▁fundamenta	-11.5217
▁Golfo	-11.5219
▁nervioso	-11.5219
rero	-11.5219
▁grito	-11.5219
▁Luna	-11.522
▁Th	-11.5222
▁ligera	-11.5227
▁conferencias	-11.5227
▁martes	-11.5228
▁fariseos	-11.5237
▁maíz	-11.5237
▁telefónica	-11.5237
▁traído	-11.5237
▁James	-11.5237
▁sitúa	-11.5237
▁dispositivos	-11.5245
▁SE	-11.5247
▁distante	-11.525
▁Estonia	-11.5251
▁reunieron	-11.5254
▁asombra	-11.5255
▁pensó	-11.5255
▁biológico	-11.5255
▁crecido	-11.5256
▁auge	-11.5257
▁cantar	-11.5257
▁retrasa	-11.5266
▁llorar	-11.5267
▁autoriza	-11.5267
▁apuesta	-11.5268
▁ratificar	-11.5269
▁Bill	-11.5271
▁circun	-11.5272
▁Administración	-11.5272
▁Director	-11.5273
▁enumera	-11.5273
▁descubr	-11.5273
▁agraria	-11.5274
lly	-11.5278
▁manifestó	-11.5279
▁popularidad	-11.5281
trop	-11.5282
▁administrativo	-11.5285
▁advertencias	-11.5286
▁mejorando	-11.5289
▁percibir	-11.529
▁femenina	-11.529
▁maduro	-11.529
▁Ciudadanos	-11.5291
▁significativos	-11.5294
▁adherirse	-11.5295
▁alinea	-11.5295
Ho	-11.5297
▁imperfectos	-11.5299
▁haberlo	-11.5303
gol	-11.5305
▁Efectivamente	-11.5308
▁antibióticos	-11.5308
▁gentiles	-11.5308
▁extenso	-11.5308
▁rango	-11.5309
▁pidieron	-11.531
▁chico	-11.531
▁Kara	-11.5316
▁decreto	-11.5317
▁dolores	-11.5322
▁abunda	-11.5324
/2002	-11.5326
▁proteja	-11.5327
▁marcada	-11.5327
▁Nobel	-11.5329
vada	-11.533
scripción	-11.5331
▁Ésa	-11.5332
▁letras	-11.5335
▁trigo	-11.5336
▁abriga	-11.5338
lum	-11.5343
▁comencé	-11.5345
▁evite	-11.5346
▁seguiremos	-11.5347
▁limitarse	-11.5357
▁vacas	-11.5362
gestiona	-11.5362
▁Hebreos	-11.5363
▁dividida	-11.5363
▁glorifica	-11.5363
▁sensata	-11.5363
▁masacre	-11.5364
▁Tim	-11.5365
▁cadenas	-11.5365
▁neutralidad	-11.5365
▁regulaciones	-11.5369
▁vacuno	-11.538
▁BEI	-11.5381
▁Salvador	-11.5381
▁Verheugen	-11.5381
▁secuestro	-11.5381
▁anhela	-11.5381
▁fuga	-11.5382
▁ignorancia	-11.5383
▁Patten	-11.5383
chó	-11.5384
▁olor	-11.5384
▁negó	-11.5388
▁fila	-11.5389
comercialización	-11.5392
▁bebida	-11.5394
▁rol	-11.5395
Sabe	-11.5395
▁repentina	-11.5399
▁apasiona	-11.5399
▁referir	-11.5403
▁cartel	-11.5403
▁aborde	-11.5404
▁deportivo	-11.5412
plaza	-11.5417
▁profética	-11.5417
▁seglar	-11.5417
▁vacuna	-11.5425
▁explícitamente	-11.5426
▁entendemos	-11.543
▁dividir	-11.5435
▁generosidad	-11.5435
▁liquidez	-11.5435
▁tranquilo	-11.5435
▁varones	-11.5436
▁museo	-11.5436
▁inspecciones	-11.5442
▁compare	-11.5442
▁adoptando	-11.5444
▁Fui	-11.5448
▁maravillosas	-11.5448
▁utilicen	-11.5449
▁ponía	-11.5449
▁mencionan	-11.5452
▁inferiores	-11.5452
▁emprendido	-11.5454
▁talento	-11.5455
▁agente	-11.5458
ker	-11.5459
▁veneno	-11.5462
rom	-11.5466
▁demasiadas	-11.5467
▁penaliza	-11.5471
98	-11.5472
▁fallo	-11.5472
▁egipcia	-11.5472
▁recorrido	-11.5472
sistimos	-11.5472
▁aceptamos	-11.5475
▁tomará	-11.5479
▁fiestas	-11.5482
▁mares	-11.5487
▁motores	-11.5488
▁Bolivia	-11.549
▁encierra	-11.549
▁conducido	-11.549
▁ofreciendo	-11.5491
▁patio	-11.5491
▁compuesta	-11.5492
▁cónyuges	-11.5501
▁profundizar	-11.5504
▁sujeto	-11.5506
▁OSCE	-11.5509
▁cirugía	-11.5509
▁inequívoca	-11.5509
▁irlandeses	-11.5509
▁Habrá	-11.5509
▁fre	-11.551
figura	-11.551
▁plátanos	-11.5511
▁consolida	-11.5516
ling	-11.5521
▁facultades	-11.5523
▁artista	-11.5525
▁rosa	-11.5526
▁Sarkozy	-11.5527
▁satisfecha	-11.5527
▁miseria	-11.5528
▁auditorio	-11.5528
▁gratis	-11.5528
▁extremos	-11.5531
ístico	-11.5532
▁firmas	-11.5533
▁pasión	-11.5536
▁discrimina	-11.5537
▁contaminado	-11.5538
versión	-11.5539
▁digitales	-11.5542
▁ayudarle	-11.5543
▁étnica	-11.5543
▁convenio	-11.5543
▁rival	-11.5544
▁episodio	-11.5546
▁existido	-11.5546
▁exitosa	-11.5546
▁enteramente	-11.5546
▁colaboradores	-11.5549
▁venden	-11.555
▁billetes	-11.5551
▁sabios	-11.5553
▁ligeramente	-11.5556
▁especulación	-11.5556
▁registrar	-11.5564
▁desesperación	-11.5564
▁mortalidad	-11.5566
▁crecen	-11.5566
▁sospechoso	-11.5567
▁11:	-11.5569
▁ordenó	-11.5571
▁53	-11.5573
Di	-11.5573
▁Á	-11.5575
▁habitada	-11.5581
▁William	-11.5583
▁posesiones	-11.5583
▁tuberculosis	-11.5583
▁marcas	-11.5585
lov	-11.5585
▁auditoría	-11.5586
▁cabello	-11.5586
▁educativos	-11.5594
▁motivado	-11.5595
▁cometa	-11.5598
▁cruciales	-11.56
▁actuaciones	-11.5601
▁insignificante	-11.5601
▁suspender	-11.5601
▁envío	-11.5601
▁Río	-11.5603
▁choca	-11.5603
▁dejamos	-11.5605
▁persiste	-11.5608
▁parto	-11.5609
▁policiales	-11.5609
▁opta	-11.561
▁tiro	-11.561
▁ramas	-11.5612
▁postales	-11.5612
▁indigna	-11.5614
▁conducción	-11.5615
▁llevaban	-11.5617
14	-11.5618
▁tolera	-11.5618
▁descontento	-11.562
▁relevancia	-11.562
▁intentó	-11.562
▁delegaciones	-11.562
▁suyos	-11.5622
▁Fra	-11.5626
wit	-11.563
▁construyendo	-11.5632
▁originales	-11.5633
▁subrayado	-11.5633
▁95	-11.5635
▁Marcos	-11.5635
▁expectativa	-11.5637
▁Reserva	-11.5638
▁disturbios	-11.5638
▁preferido	-11.5638
▁matrimonial	-11.5638
▁valentía	-11.5638
▁Michael	-11.5638
ciencia	-11.5639
▁eterno	-11.5639
▁lejano	-11.564
▁vivió	-11.564
▁servirá	-11.564
▁étnicas	-11.5641
dón	-11.5644
▁colonial	-11.5647
▁Haya	-11.5649
▁anualmente	-11.5656
▁fornicación	-11.5657
▁superficial	-11.5657
▁anexo	-11.5657
▁baile	-11.5658
▁Michel	-11.5658
▁2014	-11.5659
▁recordó	-11.566
▁símbolos	-11.566
▁interesan	-11.5667
▁circular	-11.5669
▁libras	-11.5673
▁agradecerle	-11.5673
▁urbanas	-11.5675
▁Consideramos	-11.5676
▁comience	-11.5676
posiciones	-11.568
▁Peter	-11.5681
americano	-11.5681
▁46	-11.5681
▁yugo	-11.5683
▁evalu	-11.5684
stin	-11.5686
tio	-11.5689
▁atento	-11.5695
▁nave	-11.5696
tta	-11.5696
clav	-11.5697
▁remota	-11.5701
▁sigamos	-11.5703
mán	-11.5705
▁amistades	-11.5709
med	-11.5713
▁Código	-11.5713
▁direcciones	-11.5713
▁gasolina	-11.5713
▁tangible	-11.5714
▁alejado	-11.5714
▁levantó	-11.5715
▁establecida	-11.5715
▁matemáticas	-11.5716
▁41	-11.5718
▁39	-11.5719
▁centrarnos	-11.5721
▁ví	-11.5722
▁rayos	-11.5728
▁selecciona	-11.5731
▁cliente	-11.5732
▁musulmana	-11.5732
▁restrictiva	-11.5732
▁abejas	-11.5732
08	-11.5734
▁rutas	-11.574
▁progresiva	-11.5741
▁hip	-11.5742
▁mito	-11.5742
▁exporta	-11.5744
▁necesitaban	-11.5746
▁pista	-11.5747
▁seremos	-11.5748
▁Ashton	-11.5751
▁Noruega	-11.5751
▁protegida	-11.5751
▁prisa	-11.5751
▁Fundación	-11.5751
▁protestar	-11.5757
▁pal	-11.5759
SK	-11.5759
▁pico	-11.576
▁Mag	-11.5768
▁conseguimos	-11.577
▁inadmisible	-11.577
▁adulto	-11.577
uto	-11.5776
cedió	-11.5778
▁aparente	-11.578
▁metro	-11.5785
▁consideren	-11.5789
▁informático	-11.5789
▁salvaguardia	-11.5789
▁sorprendió	-11.5789
4%	-11.5789
▁irse	-11.5793
mat	-11.5794
▁arreglar	-11.5798
▁usamos	-11.5799
▁males	-11.58
dios	-11.5802
▁prolongado	-11.5804
▁nacer	-11.5808
▁moción	-11.5809
▁olvide	-11.5814
▁120	-11.5817
▁inicialmente	-11.582
▁ajustar	-11.582
▁músculos	-11.5821
▁Armagedón	-11.5827
▁Comunista	-11.5827
▁recordatorio	-11.5827
▁discípulo	-11.5828
▁madero	-11.5829
▁ministerial	-11.5832
▁transferencias	-11.5842
▁trabajamos	-11.5843
▁tranquilidad	-11.5846
▁Edén	-11.5846
▁1975	-11.5846
▁clarifica	-11.5846
▁oficio	-11.5848
TI	-11.5849
bru	-11.5851
▁Comunidades	-11.5856
tizar	-11.5858
▁Solidaridad	-11.5865
▁sostenido	-11.5865
▁Kioto	-11.5865
▁abandono	-11.5865
▁suena	-11.5865
▁Verts	-11.5865
▁propicia	-11.5867
▁resolverse	-11.5868
▁HA	-11.5868
persona	-11.5873
place	-11.5875
▁urbana	-11.5875
▁forestales	-11.5878
▁viajan	-11.5878
PE	-11.5878
▁trenes	-11.588
▁conocidas	-11.5881
▁egoísmo	-11.5884
▁insostenible	-11.5884
▁ALDE	-11.5884
▁traslado	-11.5885
▁soldado	-11.5888
▁mencionada	-11.5892
▁salta	-11.5892
▁Dada	-11.5895
cker	-11.5899
▁(1	-11.5901
▁inconveniente	-11.5903
▁desorden	-11.5903
▁Rut	-11.5904
▁mortal	-11.5908
▁enérgicamente	-11.5913
▁preocupada	-11.5913
▁hostilidad	-11.5917
▁Agrícola	-11.5922
▁Saudita	-11.5922
▁escalera	-11.5922
▁bordo	-11.5922
▁Negro	-11.5923
▁polaco	-11.5925
▁gastado	-11.5927
▁forestal	-11.5928
▁leí	-11.5935
▁Il	-11.5938
▁beneficie	-11.5941
▁efectividad	-11.5941
▁granjero	-11.5942
▁Vea	-11.5945
▁ejercen	-11.5945
▁sacrificar	-11.5946
▁deliberadamente	-11.5946
▁concentrar	-11.5951
▁permitirse	-11.5953
▁turcos	-11.5956
▁horizonte	-11.596
▁longitud	-11.596
▁perteneciente	-11.596
▁reconstruir	-11.596
▁personajes	-11.5964
▁III	-11.5967
▁sonidos	-11.5968
ordin	-11.5972
oli	-11.5973
▁depósitos	-11.5973
▁asume	-11.5975
▁previstos	-11.5976
▁mantenernos	-11.5978
▁Democrática	-11.598
▁restauración	-11.5981
▁romana	-11.5981
▁peca	-11.5983
▁tristeza	-11.5984
▁avanzados	-11.5989
▁recibía	-11.5989
▁sucederá	-11.599
▁freno	-11.5991
▁almacena	-11.5992
▁labios	-11.5993
▁socavar	-11.5996
▁innovadoras	-11.5996
Oh	-11.5997
▁provisiones	-11.5999
▁típica	-11.5999
▁redactar	-11.5999
▁Tar	-11.5999
▁Testamento	-11.6001
▁20%	-11.6001
cedieron	-11.6012
▁superado	-11.6013
▁maternidad	-11.6018
▁corriendo	-11.6018
▁jugando	-11.6018
▁Cairo	-11.6018
▁manzana	-11.6018
▁defendido	-11.6019
.000.000	-11.6019
▁desarme	-11.602
▁permanecen	-11.602
▁celos	-11.602
▁cansado	-11.602
▁proporcione	-11.6023
▁Tú	-11.603
▁narra	-11.6035
▁advertir	-11.6038
▁consejero	-11.6038
▁convirtiendo	-11.6038
▁discreto	-11.6038
▁perfecciona	-11.6038
▁comienzan	-11.6038
▁prestando	-11.6041
▁Ham	-11.6042
▁Marte	-11.6049
▁gay	-11.6055
▁pasamos	-11.6056
▁Comparto	-11.6057
▁Soberano	-11.6057
▁intensifica	-11.6058
▁indicios	-11.6059
▁fronterizos	-11.6064
▁complementar	-11.6069
▁logramos	-11.6069
▁conocí	-11.6073
▁animado	-11.6073
▁embarca	-11.6074
▁notas	-11.6075
▁OCDE	-11.6077
▁adquisición	-11.6077
▁centímetros	-11.6077
▁privatización	-11.6077
▁pronunció	-11.6077
▁atribuir	-11.6077
▁traerá	-11.6077
▁limite	-11.6079
▁impresiona	-11.6079
▁contenida	-11.6079
▁preguntaba	-11.6084
▁transferir	-11.6091
sistió	-11.6092
▁caballos	-11.6093
▁colina	-11.6095
▁educar	-11.6096
▁novedad	-11.6096
▁Habría	-11.6096
▁pensión	-11.6098
▁escape	-11.6098
▁Jer	-11.6104
pet	-11.6106
99	-11.6108
▁copa	-11.6111
▁convertirá	-11.6113
▁1988	-11.6116
▁moratoria	-11.6116
▁asiáticos	-11.6117
▁versiones	-11.6117
▁donaciones	-11.6119
▁ubicación	-11.6119
igan	-11.612
cum	-11.6125
▁adoptan	-11.6126
▁licencias	-11.6128
▁respaldado	-11.6128
▁examinando	-11.613
▁formulada	-11.6134
▁audiovisual	-11.6135
▁inherente	-11.6135
▁Monte	-11.6137
▁lanzó	-11.6142
visión	-11.6144
▁enérgica	-11.6145
▁certificado	-11.6145
▁restringir	-11.6152
▁intentamos	-11.6152
▁Mubarak	-11.6155
▁extinción	-11.6155
▁farmacéutica	-11.6155
▁marroquí	-11.6155
▁septentrional	-11.6155
▁Barack	-11.6155
▁venidero	-11.6155
▁comitología	-11.6155
▁privacidad	-11.6155
▁ingredientes	-11.6155
▁sindical	-11.6155
▁designado	-11.6159
▁dirigirse	-11.6159
hay	-11.616
▁aviso	-11.616
▁ayudarles	-11.6161
▁arregla	-11.6165
cke	-11.6168
dh	-11.6168
▁proporciones	-11.617
▁Elías	-11.617
▁saludables	-11.6171
▁autobuses	-11.6174
▁protegidos	-11.6174
▁ideales	-11.6175
▁operar	-11.6176
▁vientos	-11.6178
▁ayudaría	-11.6178
▁esperaban	-11.6179
caba	-11.6179
und	-11.618
▁Aquella	-11.618
▁integrante	-11.6182
▁consumir	-11.6182
▁celebramos	-11.6183
▁ka	-11.6186
▁mama	-11.6191
▁poderosas	-11.6193
▁1973	-11.6194
▁respetuosa	-11.6194
▁traducciones	-11.6194
▁volvieron	-11.6194
▁1985	-11.6194
▁migrantes	-11.6194
▁levantado	-11.6195
▁debiera	-11.6195
▁mantuvier	-11.6197
▁saludo	-11.6197
▁800	-11.6198
▁salón	-11.6199
Qui	-11.62
OL	-11.6201
europeo	-11.6201
▁recalca	-11.6203
▁muchachos	-11.6204
▁Generales	-11.6204
nie	-11.6206
▁inunda	-11.6206
▁étnicos	-11.6206
▁despierta	-11.6214
▁hábitat	-11.6214
▁protagonista	-11.6214
▁transnacional	-11.6214
▁volviendo	-11.6214
▁pluma	-11.6214
▁gustan	-11.6217
▁sanitario	-11.6222
▁acompañar	-11.6223
▁complementaria	-11.6224
▁criado	-11.6224
mio	-11.6225
▁Schulz	-11.6234
▁incapaces	-11.6234
▁mismísimo	-11.6234
▁aplazamiento	-11.6234
▁circunscripción	-11.6234
▁Sabía	-11.6234
▁eléctricos	-11.6234
▁Ur	-11.6235
▁Mira	-11.6236
▁resumi	-11.6239
▁azota	-11.6243
▁fenómenos	-11.6247
▁ciudadana	-11.6249
▁lograron	-11.625
▁1.000	-11.6258
mentar	-11.6263
▁interrump	-11.6269
▁precaución	-11.6273
▁Frente	-11.6273
▁plasma	-11.6273
▁regulares	-11.6276
▁Ste	-11.6281
▁barrera	-11.6282
PP	-11.6283
▁SA	-11.6286
▁preciosa	-11.6287
▁malaria	-11.6288
▁insuficientes	-11.629
▁sigo	-11.6291
!"	-11.6292
▁Kremlin	-11.6293
▁piernas	-11.6296
▁implantación	-11.6296
▁amenazada	-11.63
▁pez	-11.6301
▁Zi	-11.6302
▁Objetivos	-11.6306
▁masas	-11.6307
▁250	-11.6309
▁Confío	-11.6313
▁iniquidad	-11.6313
▁sinceridad	-11.6313
▁broma	-11.6313
▁fama	-11.6314
▁comprenda	-11.6314
▁esforz	-11.6323
▁extraños	-11.6324
▁asociado	-11.6324
▁reporte	-11.6327
▁Tokio	-11.6333
▁Ayuda	-11.6333
▁1945	-11.6334
▁sabiendo	-11.6334
▁esforzarnos	-11.6335
▁vacunas	-11.6338
▁últimamente	-11.6342
▁edades	-11.6342
▁exigente	-11.6346
▁esferas	-11.635
▁optar	-11.6352
▁físicamente	-11.6352
▁infección	-11.6353
▁innovaciones	-11.6353
▁ídolo	-11.6353
▁tarifas	-11.6354
▁canto	-11.6354
▁protegerse	-11.6355
▁bella	-11.6359
▁aprenden	-11.636
▁reconocemos	-11.6366
▁honrar	-11.6368
▁miel	-11.6368
▁ilustrar	-11.6371
▁Street	-11.6373
▁Vaticano	-11.6373
▁sirvió	-11.6373
▁elabore	-11.6373
▁siglas	-11.6373
▁ferrocarriles	-11.6377
NT	-11.6378
gestión	-11.638
rmón	-11.638
Po	-11.6381
▁estadio	-11.6384
iones	-11.6388
▁rodean	-11.6391
▁cesar	-11.6391
▁Instituciones	-11.6393
▁Jordania	-11.6393
▁Juventud	-11.6393
▁Revolución	-11.6393
▁fortuna	-11.6393
▁inglesa	-11.6393
▁hallazgo	-11.6393
▁engendra	-11.6393
▁comprendido	-11.6393
▁vacila	-11.6395
▁tormento	-11.6395
▁ejerci	-11.6397
▁Occidentales	-11.6402
▁sucesor	-11.6409
▁optado	-11.641
Ó	-11.6413
▁franqueza	-11.6413
▁vecindario	-11.6413
▁agita	-11.6415
▁trajo	-11.6419
buenas	-11.642
▁propagación	-11.6421
▁marino	-11.6427
▁bloquea	-11.6429
▁disculpas	-11.6429
▁resultaron	-11.6431
▁divorcia	-11.6433
▁falsificación	-11.6433
▁redactado	-11.6433
▁inaugura	-11.6433
▁cartera	-11.6435
▁Relacione	-11.6436
▁fusión	-11.6436
▁voluntariamente	-11.6437
▁Alta	-11.6442
93	-11.6444
mara	-11.6447
▁once	-11.6449
▁Movimiento	-11.6454
▁blogósfera	-11.6454
▁subvenciona	-11.6454
▁educado	-11.6454
▁cumplió	-11.6455
▁meter	-11.6457
▁aldeas	-11.6459
▁dirigen	-11.646
europea	-11.6461
▁comprendo	-11.6465
▁trastorno	-11.6465
▁dependiente	-11.6468
Pro	-11.6469
▁concentrarse	-11.647
Pre	-11.6473
▁concluyó	-11.6474
▁preliminar	-11.6474
▁Atenas	-11.6474
▁Islandia	-11.6474
parte	-11.6476
▁1950	-11.6476
podría	-11.6481
stituir	-11.6483
▁milagrosa	-11.6485
▁contento	-11.6486
▁ruinas	-11.6491
▁emocionales	-11.6494
▁2.0	-11.6494
▁discute	-11.6495
▁ciega	-11.6495
▁multilaterales	-11.6497
▁calcular	-11.6503
▁ganarse	-11.6504
▁rechazan	-11.6507
fó	-11.6508
▁Apo	-11.6509
▁apartar	-11.6509
▁reunió	-11.6512
▁asisten	-11.6514
▁1986	-11.6514
▁reforzado	-11.6514
▁resistente	-11.6515
▁sagrada	-11.6515
▁dirigente	-11.6516
▁convencionales	-11.6525
▁humildes	-11.6526
▁cruz	-11.6526
▁ejecutado	-11.6529
▁Ministra	-11.6535
▁invertido	-11.6535
▁marihuana	-11.6535
▁portavoz	-11.6535
▁ballena	-11.6535
▁perdida	-11.6535
▁trataron	-11.6537
▁zu	-11.6538
▁respetando	-11.6542
▁aprendió	-11.6542
▁Post	-11.6543
▁dirigidos	-11.6544
zer	-11.6544
▁impiden	-11.6547
▁resultaría	-11.6553
▁filósofo	-11.6555
▁divulg	-11.6555
▁infracciones	-11.6556
▁insistencia	-11.6557
▁talentos	-11.6565
▁nacionalistas	-11.6567
▁ahoga	-11.6567
▁producirá	-11.6568
▁sobrevivientes	-11.6574
▁intelectuales	-11.6575
Sí	-11.6576
▁Ejército	-11.6576
▁excelencia	-11.6576
▁asesoramiento	-11.6576
▁variedades	-11.6578
ille	-11.6579
▁hostil	-11.6582
▁permitirán	-11.6582
▁experimentando	-11.6587
zona	-11.6588
sobre	-11.6593
▁malentendido	-11.6596
▁subestima	-11.6596
▁bruto	-11.6596
▁dilema	-11.6596
▁mantendrá	-11.6597
▁serbios	-11.6597
▁seminario	-11.6597
▁manual	-11.6598
▁vinculados	-11.6599
▁desprecio	-11.66
▁Independiente	-11.6601
▁asegurado	-11.6604
▁comerciantes	-11.6605
▁Tomás	-11.6605
▁Trata	-11.6606
▁Carlos	-11.6609
▁burocrática	-11.6617
▁escéptico	-11.6617
▁incidencia	-11.6617
▁silvestre	-11.6617
▁sustitución	-11.6617
▁rescatar	-11.6617
▁mostraba	-11.6617
▁impreso	-11.6617
▁natal	-11.6621
▁viajante	-11.6622
▁sorprender	-11.6623
▁explícita	-11.6627
▁negado	-11.6635
▁casados	-11.6637
▁intolerancia	-11.6637
▁transitorio	-11.6637
▁funeral	-11.6637
▁enoja	-11.664
▁daban	-11.664
▁Liga	-11.6641
▁formalmente	-11.6642
▁valiosas	-11.6644
dine	-11.6645
▁divisas	-11.6649
▁700	-11.665
▁roba	-11.6651
▁escasos	-11.6652
▁cambian	-11.6655
▁desconfianza	-11.6658
▁madurez	-11.6658
▁preferible	-11.6658
▁pusiera	-11.6658
riedad	-11.6658
▁electorado	-11.6659
▁cualificaciones	-11.666
▁salto	-11.666
▁asignados	-11.6662
▁fallos	-11.6662
▁impresionado	-11.6663
▁pedí	-11.6667
▁Sabe	-11.6674
▁participe	-11.6677
▁hindú	-11.6679
▁prohibida	-11.6679
▁regresó	-11.6679
▁tóxico	-11.6679
▁contentos	-11.6687
▁centr	-11.6694
▁exagera	-11.6694
▁refleje	-11.6699
▁planteó	-11.6699
▁saldrá	-11.67
▁regulado	-11.67
▁santa	-11.6702
▁doloroso	-11.6705
▁barro	-11.6713
▁fracasa	-11.6714
▁explicado	-11.6718
▁trámite	-11.672
▁demostración	-11.672
▁aduana	-11.672
▁quinta	-11.6723
▁causando	-11.6725
▁aptitudes	-11.6726
pondrá	-11.6729
▁expresadas	-11.6729
▁eludir	-11.6733
nov	-11.6735
tienen	-11.6737
▁conseguirlo	-11.6737
▁decenios	-11.6737
▁colectivos	-11.6738
▁concurso	-11.6739
▁Richard	-11.6741
▁indiferencia	-11.6741
▁príncipe	-11.6741
▁Árabe	-11.6741
▁Igualdad	-11.6741
▁Francisco	-11.6742
▁mencionadas	-11.6742
▁ocurren	-11.6742
▁creativo	-11.6747
▁Libertad	-11.6748
▁impida	-11.6749
▁meditar	-11.6751
Mo	-11.6755
▁jubila	-11.6756
▁Abu	-11.6756
▁Wal	-11.6758
▁íntima	-11.6762
▁soberana	-11.6762
▁Boston	-11.6762
▁niegan	-11.6762
▁Traducción	-11.6762
▁mentiras	-11.6772
▁Kim	-11.6773
▁salvaguarda	-11.6774
DC	-11.6777
▁defienden	-11.6778
▁Mugabe	-11.6783
▁comprometida	-11.6783
▁indefinido	-11.6783
▁complemento	-11.6783
▁venganza	-11.6783
▁pate	-11.6785
▁Gro	-11.6787
ET	-11.6789
▁corresponden	-11.6789
▁pág	-11.679
92	-11.6793
▁salvado	-11.6794
▁neo	-11.6797
▁alabar	-11.6797
▁incendio	-11.6799
▁proclamar	-11.6801
▁Encyclopedia	-11.6803
▁brasileño	-11.6803
▁vertido	-11.6806
▁indudablemente	-11.6808
MS	-11.681
▁viera	-11.6812
▁ecológicos	-11.6813
▁8:	-11.6819
▁saludar	-11.682
▁ocupada	-11.682
▁1979	-11.6824
▁músico	-11.6824
▁santuario	-11.6824
▁proveniente	-11.6824
▁elemental	-11.6825
▁sentada	-11.6825
▁demográfica	-11.6825
▁oponemos	-11.6827
▁É	-11.6831
▁ordenador	-11.6833
▁manipulación	-11.6834
▁pecadores	-11.6837
▁Vale	-11.684
▁semilla	-11.6842
▁peculiar	-11.6845
▁ilusión	-11.6845
▁elogio	-11.6846
▁espejo	-11.6846
▁fresco	-11.6846
▁Nepal	-11.6846
▁restantes	-11.6847
▁Africana	-11.685
tiende	-11.6851
▁votaremos	-11.6852
▁titular	-11.6853
▁afrontan	-11.6857
▁acusados	-11.6859
mando	-11.6862
▁Abi	-11.6863
pide	-11.6866
▁Daily	-11.6866
▁Montenegro	-11.6866
▁finlandesa	-11.6866
▁macroeconómica	-11.6866
▁simboliza	-11.6867
▁Persona	-11.6867
ónico	-11.6867
▁repito	-11.6867
▁poeta	-11.6868
▁apropiadamente	-11.6871
09	-11.6875
▁bautiza	-11.6876
IP	-11.6883
Porque	-11.6885
94	-11.6887
▁repercusión	-11.6888
▁monumento	-11.6888
▁sufrieron	-11.6888
▁devolución	-11.6888
▁rumores	-11.6894
▁coordinador	-11.6894
▁hilo	-11.6897
▁sinceras	-11.6904
▁bebe	-11.6905
mocráticamente	-11.6905
izaciones	-11.6906
▁Imagine	-11.6909
▁distribuye	-11.6909
▁Charles	-11.6909
▁Islas	-11.6909
▁interacción	-11.691
▁automático	-11.6911
▁raras	-11.6913
▁Judas	-11.6913
▁complica	-11.6913
▁préstamo	-11.6928
▁arrepentimiento	-11.693
▁innumerables	-11.693
▁sesenta	-11.6931
▁introdujo	-11.6932
▁desarrollan	-11.6934
▁contribuyó	-11.6935
▁entregó	-11.6938
tamiento	-11.6938
▁Dé	-11.694
3%	-11.6943
▁decepcionado	-11.6946
▁sacado	-11.6946
▁asiático	-11.6949
▁Ecuador	-11.6951
▁Milosevic	-11.6951
▁erradicación	-11.6951
▁facilite	-11.6951
▁impunidad	-11.6951
▁ridículo	-11.6951
▁acordó	-11.6951
▁envidia	-11.6951
▁enviaron	-11.6954
▁fru	-11.6955
pú	-11.6963
▁prejuicio	-11.6965
▁representaba	-11.6965
▁comprometerse	-11.6965
▁desplega	-11.6969
ish	-11.697
▁aranceles	-11.6972
▁manuscrito	-11.6972
▁asemeja	-11.6972
▁graduado	-11.6972
▁cruce	-11.6973
▁animó	-11.6973
▁visitado	-11.6983
▁combinado	-11.6985
▁significaba	-11.6987
árselo	-11.6988
▁bombardeo	-11.6994
▁dramático	-11.6994
▁estadístico	-11.6994
▁consideraban	-11.6994
▁sanciona	-11.6994
▁clamor	-11.6994
▁cimientos	-11.6995
▁desplegar	-11.6997
▁asesinado	-11.7
▁aportaciones	-11.7002
smantelamiento	-11.7006
▁observamos	-11.7008
▁harían	-11.7013
▁Darfur	-11.7015
▁crediticia	-11.7015
▁etcétera	-11.7015
▁muchísima	-11.7015
▁ucraniano	-11.7015
▁clama	-11.7015
▁adulta	-11.7016
▁primitivos	-11.7018
▁consagra	-11.7021
▁asesinados	-11.7027
▁historial	-11.7029
▁Senado	-11.7029
ian	-11.7031
▁ingenieros	-11.7031
▁darme	-11.7034
▁recibida	-11.7037
▁Historia	-11.7037
▁afecto	-11.7037
▁partidario	-11.704
▁recrea	-11.7041
jada	-11.7043
americana	-11.7044
▁territoriales	-11.7045
Ja	-11.7045
▁culpar	-11.7048
▁aceptaron	-11.7049
▁Fal	-11.7051
▁Santer	-11.7054
▁concierto	-11.7057
▁desastrosa	-11.7058
▁promueva	-11.7058
▁divertido	-11.7058
▁armenio	-11.7058
▁envíe	-11.7058
▁oculto	-11.7058
▁prole	-11.7058
▁Ger	-11.7066
debate	-11.7066
▁Quien	-11.7072
▁celebran	-11.7077
▁YouTube	-11.7079
▁interminable	-11.708
▁condujo	-11.708
▁vaca	-11.7081
▁demócratas	-11.7085
▁tejidos	-11.7086
▁indicaciones	-11.7088
▁garantizando	-11.7094
▁separados	-11.7095
▁iraquíes	-11.7096
▁vial	-11.7097
▁hereda	-11.7101
▁consiguen	-11.7101
▁continental	-11.7101
▁mediterránea	-11.7101
▁mensual	-11.7101
▁observó	-11.7101
▁cierra	-11.7101
▁descansa	-11.7101
▁representada	-11.7102
▁Tales	-11.7102
▁cofinanciación	-11.7104
▁apartamento	-11.7106
▁vencido	-11.7107
▁desecha	-11.7108
▁carnal	-11.711
▁retirado	-11.7115
▁verificar	-11.7117
▁Andr	-11.7118
▁Quiénes	-11.7121
prenda	-11.7122
▁Ghana	-11.7123
▁vitamina	-11.7123
▁xenofobia	-11.7123
▁perpetua	-11.7123
▁turístico	-11.7123
▁giro	-11.7123
▁exprese	-11.7123
▁derramamiento	-11.7125
▁continuado	-11.7125
▁reclamaciones	-11.713
▁pondría	-11.7131
▁indirectamente	-11.7132
▁secular	-11.7137
▁prepararse	-11.7141
▁Cuán	-11.7142
▁plural	-11.7143
▁1974	-11.7144
▁Dirección	-11.7144
▁OMG	-11.7144
▁aconsejó	-11.7144
▁comenzando	-11.7144
▁fármaco	-11.7144
▁mercurio	-11.7144
▁globo	-11.7144
▁manifiestan	-11.7147
▁difícilmente	-11.715
▁mató	-11.7152
▁caiga	-11.7157
▁amarga	-11.7157
▁jurídicamente	-11.7159
▁ensayos	-11.7164
▁reducen	-11.7165
▁cumpleaños	-11.7166
▁instalación	-11.7166
▁dona	-11.7167
▁1960	-11.7168
▁gris	-11.7168
▁disculpa	-11.7171
▁universitarios	-11.7175
▁vaga	-11.7179
▁fun	-11.718
▁robar	-11.7184
▁Pentecostés	-11.7188
▁respetuoso	-11.7188
▁opino	-11.7188
▁expandi	-11.7188
▁traslada	-11.7189
▁Gil	-11.719
▁oponerse	-11.7194
▁amaba	-11.7198
▁mortales	-11.7203
▁celebrando	-11.7204
▁tecnológicos	-11.7205
desarroll	-11.7208
▁accionistas	-11.721
▁orígenes	-11.721
▁superávit	-11.721
▁diseñada	-11.721
▁genético	-11.721
▁vulnerable	-11.7213
▁pájaros	-11.7221
▁verbal	-11.7221
▁puse	-11.7221
▁lagunas	-11.7222
nom	-11.7227
▁conectar	-11.723
▁fiabilidad	-11.7231
▁obtención	-11.7231
▁guarde	-11.7232
▁ensayo	-11.7234
▁enfatiza	-11.7236
▁agrade	-11.7242
▁Green	-11.7244
▁reza	-11.7248
▁rectifica	-11.725
▁élite	-11.7252
▁Conmemoración	-11.7253
▁bautizó	-11.7253
▁gobierna	-11.7253
▁rúbrica	-11.7253
▁dotación	-11.7253
▁filas	-11.7253
▁suponía	-11.7254
▁aquél	-11.7254
▁violar	-11.7257
▁»	-11.7258
▁tropicales	-11.7263
▁criticado	-11.7263
▁pollo	-11.7266
▁parecían	-11.7273
▁Vicepresidenta	-11.7275
▁factible	-11.7275
▁república	-11.7275
▁adoptaron	-11.7278
▁Inc	-11.7282
▁designación	-11.7283
▁intercambiar	-11.7286
▁retira	-11.7287
▁contenga	-11.7287
▁excepcionales	-11.7288
entre	-11.7288
▁debamos	-11.7288
▁Zo	-11.7294
▁Rico	-11.7295
▁ricas	-11.7297
▁erróneo	-11.7297
▁respectivas	-11.7297
▁Angola	-11.7297
▁ejerza	-11.7297
▁escribí	-11.7297
▁bloguea	-11.7297
▁valientes	-11.7299
▁conducen	-11.73
2006	-11.7301
xa	-11.7303
estructura	-11.7303
▁influye	-11.7304
▁rodeado	-11.7304
▁frágil	-11.7306
▁drástica	-11.7309
▁adelantado	-11.7311
▁infra	-11.7315
▁terminan	-11.7319
▁convicciones	-11.7319
▁contagio	-11.7319
gón	-11.732
▁planteadas	-11.7322
▁expresan	-11.7322
illo	-11.7322
9%	-11.7324
▁pesados	-11.7325
▁limitan	-11.7329
▁garantizada	-11.733
▁US	-11.7332
▁lesiones	-11.7339
MO	-11.7339
▁Pekín	-11.7341
▁secuencia	-11.7341
▁arranca	-11.7341
▁Ahí	-11.7341
▁capitalista	-11.7346
▁ruina	-11.7347
▁Desearía	-11.7347
▁descubre	-11.7348
▁deciden	-11.7348
▁gustaba	-11.7355
▁pretendía	-11.7355
▁contundente	-11.7363
▁soledad	-11.7363
▁anhelo	-11.7363
▁ofrecía	-11.7363
▁genial	-11.7364
izando	-11.7367
▁Ped	-11.737
▁hectáreas	-11.7376
▁trabajen	-11.7383
▁aseguró	-11.7386
▁diagnostic	-11.7386
▁observancia	-11.7389
▁Mejor	-11.7389
▁roto	-11.7392
rov	-11.7392
▁Civiles	-11.7395
▁Contra	-11.7396
▁dejemos	-11.7399
▁desarrolladas	-11.7406
▁necesitará	-11.7407
▁pozo	-11.7408
▁biotecnología	-11.7408
▁discutido	-11.7408
▁lástima	-11.7408
▁aduanero	-11.7408
▁contradicciones	-11.7408
▁reparación	-11.7408
▁tranquiliza	-11.7408
▁proceda	-11.7408
▁bloqueado	-11.7409
▁comete	-11.7411
▁bloques	-11.7411
rilla	-11.7413
Á	-11.7417
▁mini	-11.7418
puta	-11.7427
▁nazi	-11.743
▁desigual	-11.743
▁Fischler	-11.743
▁Guatemala	-11.743
▁erudito	-11.743
▁Ártico	-11.743
▁arbitraria	-11.743
▁Cruz	-11.743
▁danesa	-11.743
▁Ronda	-11.7435
▁creamos	-11.7436
tear	-11.7442
07	-11.7442
▁fabricar	-11.7442
anti	-11.7448
▁embajada	-11.7452
▁jurisdicción	-11.7452
▁apetito	-11.7452
▁bendecir	-11.7452
▁agresión	-11.7452
▁aliento	-11.7453
iésemos	-11.7453
▁Estudiantes	-11.7453
▁sudeste	-11.7453
▁Gre	-11.7454
▁radicalmente	-11.7455
▁felicitaciones	-11.7457
▁impuestas	-11.7458
ivas	-11.7458
▁recuerdan	-11.7461
Toda	-11.7462
▁establezcan	-11.7465
▁kurdos	-11.7465
mbu	-11.7474
▁PESC	-11.7475
▁discutiendo	-11.7475
▁mediterráneo	-11.7475
▁ardiente	-11.7475
▁balanza	-11.7475
▁defecto	-11.7481
▁polar	-11.7482
▁transportar	-11.7484
▁industrializado	-11.7484
▁temporalmente	-11.7486
▁complementarias	-11.749
▁retro	-11.749
▁Monti	-11.749
▁enfrentamientos	-11.7491
▁Sto	-11.7492
▁entregado	-11.7496
▁Clinton	-11.7497
6.000	-11.7497
▁sonrisa	-11.7498
▁cuerno	-11.7498
▁andando	-11.7498
▁reúne	-11.7499
▁abrumadora	-11.7499
▁sacó	-11.7502
icen	-11.7504
▁afectará	-11.7506
▁legisladores	-11.7506
▁desviar	-11.7509
▁refina	-11.751
lones	-11.7518
▁aprobamos	-11.752
▁coincido	-11.752
▁inadecuada	-11.752
▁transcurrido	-11.752
▁obreros	-11.752
▁escaso	-11.7527
▁innovadores	-11.7528
▁precioso	-11.7531
▁66	-11.7537
bita	-11.7539
▁acogemos	-11.7542
▁auxiliar	-11.7542
▁dinámico	-11.7542
▁producida	-11.7542
▁insulto	-11.7542
▁equilibrar	-11.7542
▁reflexiona	-11.7543
▁financiamiento	-11.7544
▁trabaje	-11.7544
▁marea	-11.7547
▁acercamiento	-11.7548
▁estatus	-11.7548
▁representado	-11.7551
king	-11.7551
guard	-11.7552
NI	-11.7553
▁ecosistemas	-11.7557
amp	-11.7558
grado	-11.7565
▁Entretanto	-11.7565
▁Hebreas	-11.7565
▁Tampere	-11.7565
▁próspera	-11.7565
▁triunfo	-11.7565
▁asequible	-11.7565
▁adentro	-11.7565
▁abismo	-11.7566
▁GUE	-11.7567
▁inmoral	-11.7569
▁Alguien	-11.7569
grafía	-11.7574
Señor	-11.7574
▁monopolios	-11.7574
▁marinos	-11.7575
▁47	-11.7578
▁resuelve	-11.7587
▁afecte	-11.7587
▁coraje	-11.7587
▁novio	-11.7588
▁esquema	-11.759
▁Dar	-11.759
▁Recib	-11.7594
▁Star	-11.7605
▁ganan	-11.7607
▁52	-11.7607
▁coral	-11.7609
▁hipótesis	-11.761
▁hábil	-11.761
▁subterránea	-11.761
▁maltrato	-11.761
▁autopista	-11.761
▁establecerse	-11.7611
él	-11.7611
▁simultáneamente	-11.7614
mpu	-11.7617
▁novela	-11.7619
▁recorte	-11.762
▁increíblemente	-11.7621
▁comprometer	-11.7623
▁aporte	-11.7624
▁decente	-11.7625
valuación	-11.7626
dd	-11.7628
▁banquete	-11.7633
▁despedido	-11.7633
▁lácteo	-11.7633
▁refirió	-11.7633
▁soviética	-11.7633
▁ganaderos	-11.7633
▁cheque	-11.7633
▁inestable	-11.7633
▁ritual	-11.7633
▁formuladas	-11.7633
▁quebranta	-11.7633
venga	-11.7636
▁suponga	-11.764
▁étnico	-11.7642
▁NO	-11.7644
ambi	-11.7651
▁acepten	-11.7654
▁cibernautas	-11.7656
▁prisiones	-11.7656
▁convirtieron	-11.7656
▁neoliberal	-11.7656
▁plomo	-11.7656
▁estudie	-11.7656
▁manejo	-11.7656
▁aquéllos	-11.7658
▁cometen	-11.766
▁cuidadoso	-11.7662
▁gracia	-11.767
▁estabilizar	-11.767
stituyó	-11.7678
▁Ninguna	-11.7678
▁supervisa	-11.7678
37	-11.768
▁recurren	-11.7683
▁participando	-11.7683
▁exportar	-11.7683
▁corro	-11.7684
▁ES	-11.7686
▁indirecta	-11.7691
▁colocado	-11.7693
▁celebraron	-11.7695
▁aplazar	-11.7696
▁barra	-11.7701
▁Altísimo	-11.7701
▁petrolero	-11.7701
▁confirmó	-11.7701
▁honesto	-11.7701
▁maquinaria	-11.7702
▁esquina	-11.7702
▁expresada	-11.7704
▁indio	-11.7709
▁49	-11.7709
▁inquieta	-11.7711
▁llegaba	-11.7712
poniendo	-11.7712
▁orientar	-11.7717
▁vara	-11.7718
DI	-11.7719
▁ingres	-11.7723
▁contaminada	-11.7723
▁conciliar	-11.7724
▁galaxia	-11.7724
▁rentabilidad	-11.7726
▁cima	-11.773
▁retrasar	-11.7733
zz	-11.7738
lizó	-11.774
▁brilla	-11.7742
▁Zelanda	-11.7747
▁acabó	-11.7747
▁respondieron	-11.7747
▁víspera	-11.7747
▁patrocina	-11.7747
▁malvado	-11.7748
▁Olímpicos	-11.7751
É	-11.7752
▁ordenación	-11.7754
▁mandar	-11.7756
▁rigen	-11.7757
▁prestan	-11.7759
▁ciudadanas	-11.7761
▁directores	-11.7761
▁ganando	-11.7762
▁cuántas	-11.7763
▁labores	-11.7765
▁10.000	-11.7766
▁chocolate	-11.777
▁musulmán	-11.777
▁supervisor	-11.777
▁trozo	-11.777
▁exigía	-11.777
▁ardua	-11.777
▁abarcar	-11.7771
06	-11.7771
▁biología	-11.7772
▁instó	-11.7772
▁remiti	-11.7772
▁inclu	-11.7773
▁case	-11.7775
ft	-11.7777
▁desequilibrio	-11.7781
▁cobre	-11.7782
▁asociar	-11.7783
▁experimentan	-11.7784
and	-11.7785
▁cesa	-11.7789
▁My	-11.7791
▁modesta	-11.7793
▁invierte	-11.7794
▁delegados	-11.7794
▁leve	-11.7794
▁gozar	-11.7802
▁Fría	-11.7804
▁nube	-11.7809
▁entraron	-11.7809
▁Deja	-11.781
▁moverse	-11.7812
▁estándar	-11.7815
▁Cam	-11.7816
/2003	-11.7816
▁Imagínese	-11.7816
▁incompatible	-11.7816
▁solemne	-11.7816
▁susceptible	-11.7816
▁súbditos	-11.7816
▁abandone	-11.7816
▁semestre	-11.7817
tch	-11.7817
▁temía	-11.7818
▁constancia	-11.7819
▁encargada	-11.7832
piro	-11.7833
olu	-11.7834
▁César	-11.784
▁Mozambique	-11.784
▁equitativo	-11.784
▁incrédulo	-11.784
▁vergonzoso	-11.784
▁Fuerza	-11.784
▁deliberaciones	-11.784
▁transformado	-11.7841
▁signos	-11.7841
▁cito	-11.7842
▁duró	-11.7843
▁atentado	-11.7844
▁éramos	-11.7848
▁modernizar	-11.7851
▁hito	-11.7852
▁requerir	-11.7857
▁1972	-11.7863
▁Posteriormente	-11.7863
▁despierto	-11.7863
▁introduzca	-11.7863
▁traducido	-11.7863
bimos	-11.7865
▁soluciona	-11.7866
▁salarial	-11.7874
▁beneficiosa	-11.7877
ícola	-11.7881
▁ponerlo	-11.7881
▁Copa	-11.7882
hasta	-11.7885
▁Malawi	-11.7886
▁aficionado	-11.7886
▁atrocidades	-11.7886
▁bacalao	-11.7886
▁permitiera	-11.7886
▁ruptura	-11.7886
▁usual	-11.7886
▁costeras	-11.7892
▁individualmente	-11.7901
▁sentarse	-11.7908
▁1984	-11.791
▁cirujano	-11.791
▁sanguíneo	-11.791
▁pudiese	-11.791
▁dibuja	-11.791
▁patriarca	-11.791
▁genio	-11.7918
▁usarse	-11.7918
▁musical	-11.792
▁informada	-11.7921
acción	-11.7923
▁vivan	-11.7929
▁esfuerzan	-11.7933
▁estancamiento	-11.7933
▁etíope	-11.7933
▁necesito	-11.7933
▁predecesor	-11.7933
▁Pudiera	-11.7933
▁mundana	-11.7933
▁imponga	-11.7934
▁80%	-11.7934
▁1919	-11.7935
▁Poli	-11.794
▁citó	-11.7942
▁Ph	-11.7945
▁aclaración	-11.7946
▁pretendemos	-11.795
uf	-11.7952
▁textiles	-11.7952
Com	-11.7954
▁1971	-11.7956
▁cerveza	-11.7956
▁dispersa	-11.7956
▁rumano	-11.7957
▁Pedimos	-11.7957
▁atún	-11.7958
▁ancha	-11.7958
quil	-11.7959
▁incorporado	-11.796
▁calificar	-11.7962
▁generalizado	-11.7962
▁acumulación	-11.7971
▁proporcional	-11.7974
Piensa	-11.798
▁1976	-11.798
▁Palacio	-11.798
▁Zimbabwe	-11.798
▁repite	-11.7982
▁confrontación	-11.7984
▁degradación	-11.7985
▁Sigue	-11.7988
▁ponemos	-11.7994
▁recortar	-11.7995
tente	-11.7999
4.000	-11.8003
▁Parlamentaria	-11.8004
▁admitió	-11.8004
▁autónoma	-11.8004
▁discernimiento	-11.8004
▁talibanes	-11.8004
▁desechos	-11.8004
▁votamos	-11.8007
▁alimentarios	-11.8009
▁escuchan	-11.801
▁Ly	-11.8011
▁reportaje	-11.8012
▁documental	-11.8012
▁severo	-11.8012
▁representados	-11.8013
▁minera	-11.8014
natural	-11.8015
itud	-11.8016
▁tubo	-11.8021
▁robots	-11.8023
▁intra	-11.8024
UR	-11.8026
▁australiano	-11.8027
▁expulsión	-11.8027
▁ofensiva	-11.8027
▁produjeron	-11.8029
uno	-11.803
NE	-11.8033
90	-11.8033
▁reactores	-11.8035
▁Mark	-11.8039
▁citada	-11.8039
▁diligente	-11.8051
▁euromediterráne	-11.8051
▁tremendo	-11.8051
▁quisiéramos	-11.8051
▁espiritualidad	-11.8051
▁oyó	-11.8052
▁Marfil	-11.8052
▁40%	-11.8052
SP	-11.8054
▁Reforma	-11.8055
▁destroza	-11.8056
▁dejaba	-11.8059
▁Especial	-11.8065
▁rompe	-11.8067
Li	-11.8068
▁recibirán	-11.8068
▁gota	-11.8071
▁reúnen	-11.8072
ity	-11.8074
▁pensaban	-11.8074
▁Merkel	-11.8075
▁asistido	-11.8075
▁incomprensible	-11.8075
▁resuelta	-11.8075
▁séptimo	-11.8075
▁vejez	-11.8075
▁acogido	-11.8075
▁llamo	-11.8075
▁dependiendo	-11.8075
▁invento	-11.8077
age	-11.8082
▁IV	-11.8083
▁vegetales	-11.8083
▁casta	-11.8088
prendió	-11.8092
ferencia	-11.8092
▁conviertan	-11.8092
▁orgullosa	-11.8095
▁realicen	-11.8097
▁aportado	-11.8097
▁usaron	-11.8098
▁Celebro	-11.8098
▁concerniente	-11.8098
▁encarecidamente	-11.8098
▁instituto	-11.8098
▁reservado	-11.8099
▁palacio	-11.8102
cencia	-11.8103
▁salía	-11.8104
US	-11.8108
cón	-11.8109
▁arco	-11.8109
▁diplomático	-11.8115
▁fortalec	-11.8118
▁Lleva	-11.8118
▁notifica	-11.812
▁Cualquiera	-11.8122
▁higiene	-11.8122
▁informática	-11.8122
▁proverbio	-11.8122
▁editorial	-11.8122
▁marginal	-11.8123
▁sustento	-11.8123
ux	-11.8123
▁Recordemos	-11.8124
▁notificación	-11.8128
mini	-11.8131
▁85	-11.8132
▁Necesita	-11.8134
▁Guardia	-11.8146
▁clásico	-11.8146
▁objeción	-11.8146
▁mayoritaria	-11.8146
▁rechace	-11.8147
▁tío	-11.8147
▁presentamos	-11.8147
▁veto	-11.8149
▁contradice	-11.815
▁competidores	-11.815
▁servirle	-11.8153
▁traten	-11.8154
▁Report	-11.8155
▁vincular	-11.8165
▁ganancia	-11.817
introduc	-11.817
▁Permítame	-11.817
▁cuenca	-11.817
▁siguiera	-11.817
▁ausente	-11.8171
▁consultado	-11.8172
▁Orden	-11.8173
▁minerales	-11.8173
▁“[	-11.8174
▁normalización	-11.8179
▁expresarse	-11.8179
▁varían	-11.818
▁acababa	-11.818
▁llamaron	-11.8181
▁continúen	-11.8185
ionario	-11.8185
igi	-11.8186
gle	-11.819
▁Gén	-11.8191
NC	-11.8192
▁infecciones	-11.8194
▁molestia	-11.8194
▁resuelva	-11.8194
▁festival	-11.8194
▁omiso	-11.8194
▁setenta	-11.8196
▁alojamiento	-11.8196
▁ampliado	-11.8198
▁elabora	-11.8205
▁Albert	-11.8206
▁tumor	-11.8206
▁comprado	-11.8215
ika	-11.8216
▁provocada	-11.8218
▁2007-2013	-11.8218
▁ambigüedad	-11.8218
▁permanezca	-11.8218
▁prescindie	-11.8219
▁algodón	-11.8225
gráfico	-11.8229
▁intimida	-11.8236
▁mandamiento	-11.8239
▁moléculas	-11.8241
▁inadecuado	-11.8243
▁intolerable	-11.8243
▁problemático	-11.8243
▁Judea	-11.8243
▁átomo	-11.8243
▁poblado	-11.8243
▁Sy	-11.8244
▁Salones	-11.8245
▁deleita	-11.8251
▁mostrarles	-11.8252
▁observador	-11.8254
▁llegaría	-11.8255
▁atenta	-11.8256
▁imponen	-11.8261
▁derivadas	-11.8266
▁petrolera	-11.8267
▁afgano	-11.8267
▁contribuyendo	-11.8267
▁Oh	-11.8268
▁trayectoria	-11.8269
▁diversión	-11.827
▁buque	-11.8271
▁repugnante	-11.8275
▁iría	-11.8276
1999	-11.8277
▁rasgo	-11.8284
▁llevarlo	-11.8284
▁sugieren	-11.8286
▁semanal	-11.8287
▁abruma	-11.8291
▁Apoyamos	-11.8291
▁Seguramente	-11.8291
▁exclusivo	-11.8291
▁trauma	-11.8291
▁mutila	-11.8291
▁reclamar	-11.8292
▁coincidencia	-11.8293
▁engañosa	-11.8293
▁simula	-11.8295
▁USD	-11.8298
▁acabará	-11.83
hombre	-11.8305
▁coli	-11.8313
▁acepto	-11.8315
▁islámica	-11.8315
▁Ruanda	-11.8315
▁inesperada	-11.8315
▁geográfico	-11.8315
▁caen	-11.8324
▁emociona	-11.8331
▁deberemos	-11.8333
▁acreedores	-11.834
▁apóstata	-11.834
▁Cambio	-11.834
▁india	-11.8342
▁dobla	-11.8342
▁horno	-11.8342
▁Herzegovina	-11.8344
fera	-11.8347
▁quedaría	-11.8351
▁Tre	-11.8354
▁Hech	-11.8354
▁XXI	-11.8359
▁bondadoso	-11.8361
▁aproveche	-11.8364
▁candidatura	-11.8364
▁parámetros	-11.8364
▁budista	-11.8364
▁validez	-11.8364
▁sexto	-11.8365
▁proponga	-11.8368
▁indemnización	-11.8369
▁confidencial	-11.837
gust	-11.837
▁respirar	-11.8372
▁expulsa	-11.8373
▁acorde	-11.8376
▁Far	-11.8381
▁Roja	-11.8384
▁Entiendo	-11.8385
▁prob	-11.8385
▁controvertido	-11.8389
▁moderación	-11.8389
▁reproducción	-11.8389
NGL	-11.8389
▁conmovedor	-11.8389
▁confiamos	-11.8389
▁interviene	-11.839
▁maltrata	-11.839
▁cese	-11.839
▁ingresar	-11.839
▁observan	-11.8391
▁Natura	-11.8394
▁drásticamente	-11.84
▁enlaza	-11.8401
▁ponernos	-11.8401
▁fatal	-11.8402
▁grava	-11.8403
▁hormonas	-11.8405
▁dejé	-11.8408
▁supere	-11.8412
▁Beijing	-11.8413
▁Kinnock	-11.8413
▁ideológica	-11.8413
▁pertenecía	-11.8413
▁presidenta	-11.8414
▁promov	-11.8415
▁prometedor	-11.8415
▁Zh	-11.8416
▁Ram	-11.8416
▁reguladores	-11.8416
▁toro	-11.8416
▁fundada	-11.8417
▁pagando	-11.8428
▁observando	-11.8433
▁herido	-11.8436
ducción	-11.8436
▁irregular	-11.8438
▁Véase	-11.8438
▁impedido	-11.8438
▁intérprete	-11.8438
▁repetido	-11.8438
▁diamante	-11.8438
▁predice	-11.8439
▁supiera	-11.8442
▁vapor	-11.8443
▁estaríamos	-11.8444
▁darán	-11.8444
▁aferra	-11.8446
▁GV	-11.8446
▁poseer	-11.8447
▁Lucha	-11.8454
▁Tract	-11.8454
▁entusiasta	-11.8463
▁rehabilitación	-11.8463
▁checo	-11.8463
▁crianza	-11.8463
LE	-11.8464
▁repita	-11.8466
▁Sant	-11.8469
▁Podríamos	-11.8473
vendría	-11.8474
▁instalar	-11.8476
▁opuesta	-11.8477
▁evitando	-11.8484
▁51	-11.8484
Este	-11.8485
▁reuní	-11.8486
▁arrojar	-11.8487
▁apacible	-11.8487
▁neerlandesa	-11.8487
▁plaguicidas	-11.8487
▁predicciones	-11.8487
▁confundir	-11.8487
▁sugerido	-11.8487
▁anoche	-11.8488
▁Alex	-11.8489
▁30%	-11.8489
▁autónomos	-11.849
▁armado	-11.8491
▁preguntaron	-11.8492
▁Izquierda	-11.8494
▁amigable	-11.8494
▁retomar	-11.8499
también	-11.8499
▁implantar	-11.85
▁ocasionado	-11.8508
▁asentamientos	-11.8512
▁definiciones	-11.8512
▁supermercado	-11.8512
▁ángulo	-11.8512
▁cohete	-11.8512
▁fumadores	-11.8515
▁contraído	-11.8516
▁ocurrirá	-11.8518
▁corredor	-11.852
COD	-11.8523
▁pasaría	-11.8524
▁aproximación	-11.8524
▁concedió	-11.8526
bina	-11.8535
RT	-11.8536
▁signo	-11.8536
▁Diluvio	-11.8537
▁difunto	-11.8537
▁imperfección	-11.8537
▁ajeno	-11.8537
▁llame	-11.8538
▁esforzado	-11.854
▁votó	-11.8544
▁Tuv	-11.8545
▁PA	-11.8546
▁coordinado	-11.855
▁autorizar	-11.8552
kha	-11.8553
▁preocupe	-11.8556
ej	-11.856
▁captar	-11.8561
▁fragmento	-11.8562
▁televisor	-11.8562
▁exitoso	-11.8562
▁contraer	-11.8563
▁bonita	-11.8563
blog	-11.8566
▁supondrá	-11.8567
▁Gua	-11.8568
▁donación	-11.8572
ísmo	-11.8572
$	-11.8574
▁vendría	-11.8575
▁Somalia	-11.8587
▁dirigía	-11.8587
▁necesitados	-11.8588
▁locura	-11.8588
▁deleite	-11.8588
▁campesinos	-11.8594
▁distingue	-11.8603
quilla	-11.8608
dujeron	-11.861
▁protegido	-11.8612
▁Flickr	-11.8612
▁estúpido	-11.8612
▁expensas	-11.8612
▁jerarquía	-11.8612
▁demostrando	-11.8612
▁implique	-11.8612
▁volviera	-11.8612
▁descubrieron	-11.8613
▁intervenga	-11.8613
▁fomente	-11.8615
▁preserva	-11.8616
▁celebraciones	-11.8621
cuánto	-11.8624
▁existían	-11.8626
iéndonos	-11.8628
▁costado	-11.8629
▁provienen	-11.8629
▁inclinación	-11.863
▁Heb	-11.8631
▁Kirguistán	-11.8637
▁contemporáneo	-11.8637
▁vicepresidente	-11.8637
▁gratuito	-11.8637
▁adivina	-11.8637
▁apreciación	-11.8637
▁Verdaderamente	-11.864
hou	-11.864
▁estatua	-11.864
▁provechosa	-11.8641
▁Mac	-11.8643
▁legalidad	-11.8643
▁ondas	-11.8647
▁ayudarlos	-11.8648
trans	-11.865
▁recta	-11.865
▁implementa	-11.8652
▁mosca	-11.8652
▁consumen	-11.8653
Cree	-11.8654
▁curación	-11.8655
▁capta	-11.8655
tive	-11.8659
▁entusiasma	-11.8662
▁femenino	-11.8662
▁pakistaní	-11.8662
▁angular	-11.8662
▁promulga	-11.8662
▁misionero	-11.8663
▁revolucionario	-11.8664
cracia	-11.8666
▁escribiendo	-11.8666
91	-11.8668
▁km	-11.8669
▁prefiere	-11.867
LOS	-11.8671
▁alrededores	-11.8672
▁ilustraciones	-11.8672
▁conversión	-11.8679
▁Jim	-11.8687
▁Colegio	-11.8688
▁Felicito	-11.8688
▁obesidad	-11.8688
▁France	-11.8688
▁determinante	-11.8692
▁calificaciones	-11.8693
▁dominado	-11.8693
▁vinculado	-11.87
▁convención	-11.8711
▁1987	-11.8713
▁Cohesión	-11.8713
▁migratorios	-11.8713
▁autoritario	-11.8714
▁monitor	-11.8714
▁economista	-11.8714
▁estadística	-11.8714
▁alternativo	-11.8715
▁recibirá	-11.8725
▁Miles	-11.8727
▁capacitación	-11.8727
had	-11.8728
▁enfrentarnos	-11.8728
▁mediación	-11.8736
▁apret	-11.8738
▁tranquilizar	-11.8738
▁posibilita	-11.8738
▁recuadro	-11.8738
▁refresca	-11.8738
▁herida	-11.874
▁tonto	-11.8742
▁personaje	-11.8743
▁aliado	-11.8744
▁2.000	-11.875
▁Liberal	-11.875
▁inquietante	-11.8753
▁permanentemente	-11.8754
▁decididamente	-11.8754
▁Cuándo	-11.8757
▁fascina	-11.8762
sproporcionada	-11.8764
▁Guantánamo	-11.8764
▁síndrome	-11.8764
▁vidrio	-11.8764
▁formó	-11.8766
▁especializados	-11.8771
cú	-11.8773
Tu	-11.8775
▁pelota	-11.8775
▁progresivamente	-11.8777
▁desestabiliza	-11.8782
ásemos	-11.8785
EE	-11.8785
▁constituido	-11.8789
▁distorsiones	-11.8789
▁Miguel	-11.8789
▁agresiva	-11.8789
▁concedida	-11.879
▁adicción	-11.879
▁pesado	-11.8791
▁exija	-11.8793
▁voten	-11.8794
▁sustanciales	-11.8798
▁profesora	-11.8802
▁borrador	-11.8805
zh	-11.8809
▁Vladimir	-11.8815
▁adelanto	-11.8815
▁periodismo	-11.8815
▁prematura	-11.8815
▁previsible	-11.8815
▁respectivamente	-11.8815
▁desemboca	-11.8815
▁consistir	-11.8815
▁cortesía	-11.8815
▁agradecida	-11.8815
▁elegida	-11.8815
▁estableciendo	-11.8817
▁externo	-11.8818
vision	-11.882
▁difieren	-11.8821
▁bailar	-11.8821
▁combati	-11.8824
▁King	-11.8826
lk	-11.883
▁anterioridad	-11.8837
▁estimadas	-11.8838
▁Eurostat	-11.884
▁absurda	-11.884
▁evangelizador	-11.884
▁tsunami	-11.884
▁exigido	-11.884
▁indebida	-11.8841
▁renovar	-11.8841
ógrafo	-11.8842
▁retire	-11.8842
▁acelerado	-11.8843
▁inspectores	-11.8844
▁palma	-11.8844
▁crearon	-11.8846
▁Corre	-11.8847
ocupa	-11.8847
▁expresando	-11.8848
▁correspondencia	-11.8849
▁varón	-11.8849
▁pelear	-11.8852
▁involucrados	-11.8854
▁confían	-11.8857
▁Usa	-11.8863
▁Griegas	-11.8866
▁Thomas	-11.8866
▁exámenes	-11.8866
▁hidrógeno	-11.8866
▁récord	-11.8866
▁adjudica	-11.8866
▁indique	-11.8866
deuda	-11.8867
▁pluralismo	-11.8868
/98	-11.8869
▁Tenga	-11.8871
▁56	-11.8871
▁visiones	-11.8873
▁&	-11.8875
▁vibra	-11.8876
cristianos	-11.8879
▁buscado	-11.8879
▁estimaciones	-11.8881
▁Real	-11.8884
▁Chávez	-11.8892
▁LiveJournal	-11.8892
▁cápita	-11.8892
▁estómago	-11.8892
▁inclusive	-11.8892
▁proximidad	-11.8892
▁tibetano	-11.8892
▁traficantes	-11.8892
▁diversificación	-11.8892
▁piadoso	-11.8892
▁vulnerabilidad	-11.8892
▁mediodía	-11.8893
▁contrabando	-11.8893
▁elegante	-11.8894
95	-11.8894
▁emigr	-11.8894
▁influyente	-11.8897
▁exhortación	-11.8901
▁escuchamos	-11.8903
▁recopila	-11.8912
▁prolongada	-11.8912
▁sustancialmente	-11.8912
▁cerdos	-11.8914
▁golpear	-11.8915
▁legislar	-11.8918
▁mismísima	-11.8918
▁pulmones	-11.8918
▁veredicto	-11.8918
▁concebido	-11.8918
▁legitima	-11.8918
▁variable	-11.8918
▁Observatorio	-11.8918
▁ministra	-11.8919
▁Junta	-11.8923
▁Interiores	-11.8924
normal	-11.8932
gué	-11.8934
▁imperial	-11.8935
▁record	-11.8936
UN	-11.894
▁inmortal	-11.8942
▁veían	-11.8943
▁subsidia	-11.8944
▁flagrante	-11.8944
▁hermandad	-11.8944
▁hortalizas	-11.8944
▁sustituye	-11.8944
▁Maestro	-11.8944
▁comprobado	-11.8944
▁interferencia	-11.8945
▁cargado	-11.8952
▁elaborada	-11.8953
▁comparado	-11.8955
▁vende	-11.8957
▁prest	-11.8957
▁decepcionante	-11.8964
▁robot	-11.8966
▁bote	-11.8967
▁imaginarse	-11.8968
▁sugirió	-11.897
▁dirija	-11.897
▁Pensemos	-11.897
▁Pensé	-11.897
▁resucitar	-11.8971
▁Ciencia	-11.8972
▁inventar	-11.8972
▁OMS	-11.8972
▁dí	-11.8978
▁54	-11.8979
▁asegurarles	-11.8981
▁compone	-11.8982
Bueno	-11.8982
Ahora	-11.8983
▁Paulo	-11.8989
▁descarta	-11.8995
▁discapacitados	-11.8996
▁próspero	-11.8996
▁repetidamente	-11.8996
▁uranio	-11.8996
▁diccionario	-11.8996
▁Millones	-11.8996
▁comprendí	-11.8997
▁construyó	-11.9003
the	-11.9006
▁Kat	-11.9007
▁convencional	-11.9009
▁fundador	-11.9012
▁calificado	-11.9012
▁exhibi	-11.9017
▁mandado	-11.9018
▁reafirma	-11.9021
▁Democracia	-11.9022
▁Meridional	-11.9022
▁modestia	-11.9022
▁agresivo	-11.9022
▁opongo	-11.9022
▁expuestas	-11.9022
▁empatía	-11.9022
▁Cuáles	-11.9026
▁conversar	-11.9028
▁foco	-11.9035
▁Hol	-11.9037
▁comprenden	-11.9039
▁West	-11.9043
▁leyó	-11.9045
▁funcionado	-11.9045
▁contractual	-11.9048
▁extremismo	-11.9048
▁insistido	-11.9048
▁íntimo	-11.9048
▁gestione	-11.9048
▁conduzca	-11.9048
▁statu	-11.9048
▁consistía	-11.9048
▁checa	-11.9048
▁hincha	-11.9048
▁data	-11.9049
▁comparativa	-11.9049
porque	-11.9052
mber	-11.9052
▁Luis	-11.9054
▁exento	-11.9056
▁Especialmente	-11.9059
▁agricultor	-11.9061
cediendo	-11.9064
▁Web	-11.9067
▁ordenado	-11.9069
▁extermin	-11.9074
▁requería	-11.9075
▁ácido	-11.9075
▁grabado	-11.9077
▁plantee	-11.9078
▁golpeado	-11.908
▁confía	-11.9085
▁sordos	-11.9087
▁desplazados	-11.9088
Son	-11.9098
▁dádiva	-11.9101
▁emitió	-11.9101
▁eternidad	-11.9101
▁indiferente	-11.9101
▁lidiar	-11.9101
▁fijación	-11.9104
▁Globalización	-11.9105
▁tapa	-11.9107
vuelta	-11.9109
▁reportero	-11.911
▁impart	-11.9117
▁aloja	-11.9123
▁torna	-11.9125
▁apacibilidad	-11.9127
▁clonación	-11.9127
▁comandante	-11.9127
▁inversionistas	-11.9127
▁atleta	-11.9127
▁moderada	-11.9127
▁mundano	-11.9127
▁minimizar	-11.9127
▁nacionalista	-11.9132
▁(19	-11.9139
▁consigna	-11.9143
capacit	-11.9148
▁1982	-11.9153
▁custodia	-11.9153
▁desafuero	-11.9153
▁Toronto	-11.9153
▁amplía	-11.9153
▁Aarón	-11.9153
▁curva	-11.9154
▁fresca	-11.9154
▁lucro	-11.9154
▁afán	-11.9155
▁soltera	-11.9156
▁degrada	-11.9157
▁Rica	-11.9159
▁dotado	-11.9161
▁predominante	-11.9164
▁necesiten	-11.9169
▁Xi	-11.9172
24	-11.9172
▁Dra	-11.9176
▁1978	-11.918
▁fluye	-11.918
▁veinti	-11.918
▁ligero	-11.918
▁Frank	-11.918
▁PBI	-11.9181
▁desesperada	-11.9182
▁cinta	-11.9184
▁encarcelamiento	-11.9185
▁film	-11.9189
▁Objetivo	-11.9189
▁remuneración	-11.9191
▁universales	-11.9194
▁esconde	-11.9196
▁permitirnos	-11.9196
▁condenada	-11.9196
▁lógicamente	-11.9198
▁ordenadores	-11.9203
béis	-11.9204
▁comentarista	-11.9206
▁huérfano	-11.9207
▁malhechor	-11.9207
▁monstruo	-11.9207
▁sinagoga	-11.9207
▁socorro	-11.9207
▁supranacional	-11.9207
▁electro	-11.9207
▁atracción	-11.9207
▁primo	-11.921
lito	-11.9211
▁taxi	-11.9212
▁ecosistema	-11.9216
nueva	-11.9221
▁Fueron	-11.9223
zada	-11.9224
▁autora	-11.9226
▁urban	-11.9226
▁pediría	-11.9229
▁1983	-11.9233
▁Adaptación	-11.9233
▁vuestra	-11.9233
▁escuchó	-11.9233
▁aguanta	-11.9233
▁creció	-11.9235
front	-11.9235
▁vertical	-11.9236
▁confiado	-11.9236
▁admiración	-11.9242
▁Bla	-11.9251
1%	-11.9253
scribió	-11.9255
▁comenzamos	-11.926
▁divergencia	-11.926
currieron	-11.926
▁preparó	-11.926
▁atraído	-11.926
▁poema	-11.926
▁miramos	-11.9262
▁placeres	-11.9263
▁forzar	-11.9263
▁contratar	-11.9264
▁reafirmar	-11.9275
▁Tro	-11.9275
▁comodidad	-11.9276
▁dándole	-11.928
▁saltar	-11.9282
▁Canciller	-11.9287
▁incumbe	-11.9287
▁Plaza	-11.9287
▁pautas	-11.9287
▁boicot	-11.9288
▁honorable	-11.9288
▁impera	-11.9289
▁existirá	-11.929
▁nativos	-11.929
▁estimado	-11.9294
▁volví	-11.9306
▁esconder	-11.9307
▁ilegalmente	-11.9313
▁Danubio	-11.9314
▁diligencia	-11.9314
▁lámpara	-11.9314
▁preferiría	-11.9314
▁cordial	-11.9314
▁pesadilla	-11.9314
▁forzada	-11.9314
▁Saben	-11.9316
cepcion	-11.9322
▁orientales	-11.9322
▁persuadir	-11.9327
▁rap	-11.9327
[...]
