<unk>	0
<s>	0
</s>	0
,	-3.26545
.	-3.43942
▁the	-3.77938
'	-3.82987
̱	-4.22842
▁of	-4.39972
▁to	-4.41822
s	-4.4401
▁a	-4.49804
▁and	-4.63209
+	-4.64371
▁in	-4.73891
a	-4.78914
’	-4.97386
▁that	-5.14355
▁is	-5.20663
:	-5.35117
i	-5.48183
▁I	-5.4978
▁	-5.59458
▁for	-5.62139
▁on	-5.67052
▁be	-5.69567
▁ra	-5.69585
▁'	-5.73429
▁we	-5.75902
t	-5.81912
pa	-5.82833
e	-5.85956
▁’	-5.86432
▁it	-5.90341
▁e	-5.91311
▁are	-5.99097
▁this	-6.00609
?	-6.02136
▁ne	-6.04216
▁with	-6.07026
▁ya	-6.08265
▁have	-6.08557
▁not	-6.09461
n	-6.09526
▁as	-6.09761
-	-6.11421
̠	-6.11743
ta	-6.19894
u	-6.22309
▁ma	-6.23323
▁m	-6.23538
k	-6.2354
▁The	-6.24504
▁ha	-6.27274
o	-6.28677
ka	-6.31847
▁by	-6.3487
▁ja	-6.35026
r	-6.35532
▁“	-6.3608
▁da	-6.37235
▁will	-6.39648
ni	-6.39875
ki	-6.42864
ra	-6.44351
▁(	-6.44661
▁de	-6.46035
▁bi	-6.47641
▁was	-6.48073
▁pa	-6.4839
▁-	-6.50154
▁tö	-6.51107
▁which	-6.52007
)	-6.52419
▁you	-6.54838
▁”	-6.55742
▁i	-6.56064
na	-6.56319
▁has	-6.5668
▁an	-6.5828
mi	-6.62748
▁ta	-6.63731
▁from	-6.64124
▁¿	-6.65652
▁iki	-6.66575
te	-6.66778
ri	-6.67035
y	-6.68793
̀	-6.69715
▁at	-6.70006
▁|	-6.70695
m	-6.72183
ing	-6.72802
ma	-6.7385
ti	-6.73901
la	-6.74781
▁European	-6.75431
▁all	-6.77041
;	-6.77411
wa	-6.79837
▁he	-6.81927
▁ie	-6.84299
ne	-6.84342
▁or	-6.84622
▁can	-6.84688
▁their	-6.85012
▁no	-6.8508
▁se	-6.85576
▁A	-6.86509
▁wa	-6.86517
▁me	-6.88234
▁they	-6.88287
▁would	-6.8852
re	-6.89004
▁o	-6.91425
▁ka	-6.92162
▁our	-6.93706
ed	-6.94087
▁but	-6.95431
▁mi	-6.9673
▁alué	-6.96984
▁ko	-6.9784
me	-6.98112
▁ye	-6.98515
▁also	-7.00079
pe	-7.01796
▁his	-7.02589
▁do	-7.03029
▁te	-7.03585
▁pe	-7.03666
▁t	-7.037
▁In	-7.04028
▁one	-7.05693
▁—	-7.05721
ca	-7.06
we	-7.07088
▁been	-7.09901
▁napu	-7.10032
▁We	-7.10802
▁who	-7.11996
ya	-7.12339
▁more	-7.12366
▁nú	-7.12538
ʉ	-7.13215
▁It	-7.1381
▁should	-7.13873
▁nu	-7.15375
li	-7.16018
▁what	-7.17738
d	-7.17946
▁about	-7.18263
▁so	-7.1939
▁Mr	-7.21373
▁people	-7.21773
x	-7.21947
▁there	-7.25635
▁ke	-7.25827
pi	-7.26813
ke	-7.27516
h	-7.27816
▁Commission	-7.28824
▁must	-7.29341
▁"	-7.29829
▁its	-7.30026
▁were	-7.30088
▁yn	-7.31258
▁my	-7.3135
▁us	-7.34232
▁huan	-7.34465
▁di	-7.35344
▁like	-7.35519
▁E	-7.35696
́	-7.35824
j	-7.36622
▁ki	-7.38029
c	-7.38488
▁time	-7.40111
▁these	-7.40425
ly	-7.41018
▁s	-7.41692
▁President	-7.42235
!	-7.43065
▁them	-7.4389
▁This	-7.4406
bo	-7.44424
▁had	-7.44573
▁other	-7.44914
▁God	-7.45146
▁out	-7.4591
p	-7.46437
▁p	-7.46699
▁ni	-7.47051
▁kë	-7.47305
▁up	-7.47956
to	-7.4813
ro	-7.48308
▁para	-7.48646
▁dör	-7.48683
▁when	-7.48721
▁y	-7.48937
di	-7.50117
▁go	-7.50462
qui	-7.52058
▁‘	-7.52344
lige	-7.52529
▁very	-7.53265
▁if	-7.53532
sa	-7.54169
▁gue	-7.54935
l	-7.55201
▁na	-7.55779
▁Jesús	-7.57577
chi	-7.58226
▁re	-7.59487
▁tlen	-7.59859
▁Union	-7.6086
in	-7.61056
▁rá	-7.61461
▁some	-7.61699
▁ipan	-7.61757
▁ju	-7.62014
▁xa	-7.62147
▁only	-7.62161
▁because	-7.64235
▁nopa	-7.64383
▁ts	-7.64609
▁new	-7.64664
se	-7.65047
▁Jehovah	-7.65214
▁into	-7.6544
es	-7.65604
w	-7.6567
▁your	-7.66318
▁ge	-7.6679
▁mo	-7.6701
▁xi	-7.67179
▁Parliament	-7.68281
▁such	-7.6838
ha	-7.68858
co	-7.68886
va	-7.68905
▁those	-7.68994
▁than	-7.69058
ë	-7.69474
▁States	-7.69483
▁ri	-7.69857
▁may	-7.70348
▁sa	-7.70644
bi	-7.71399
▁report	-7.7158
yo	-7.71791
▁ralámuli	-7.71925
á	-7.72011
▁need	-7.72147
▁And	-7.72249
▁ga	-7.72428
▁take	-7.72533
man	-7.7271
▁many	-7.72951
▁way	-7.73872
ku	-7.74324
▁now	-7.75209
▁jan	-7.75384
▁Member	-7.75559
▁tso	-7.76131
▁countries	-7.76538
le	-7.76888
▁make	-7.77891
▁Europe	-7.7843
▁But	-7.78465
▁ngu	-7.78947
ru	-7.79335
▁ba	-7.80392
▁work	-7.80557
qa	-7.8062
▁Onorúgame	-7.8178
▁O	-7.82189
▁Council	-7.8225
▁Skëköl	-7.8348
▁Huan	-7.83833
▁k	-7.83874
ña	-7.84187
▁mä	-7.85653
▁―	-7.85723
▁world	-7.87399
▁him	-7.87816
tsi	-7.88096
que	-7.89136
▁even	-7.89795
ve	-7.89988
mo	-7.90316
▁EU	-7.90409
▁important	-7.91185
).	-7.91704
▁made	-7.92216
▁just	-7.92289
▁being	-7.92625
no	-7.93187
▁amo	-7.93345
▁am	-7.9342
▁how	-7.93476
▁said	-7.93579
▁could	-7.93734
tsa	-7.94599
▁years	-7.94958
▁ica	-7.95083
▁over	-7.95097
▁first	-7.95107
ts	-7.95218
▁Ajua	-7.95676
rigá	-7.95793
▁any	-7.97903
ani	-7.9792
▁n	-7.98357
▁As	-7.98433
▁Toteco	-7.99536
er	-7.99682
▁Ma	-7.99709
▁ku	-8.00246
▁ti	-8.00535
an	-8.01233
▁–	-8.02217
he	-8.02409
▁mana	-8.03155
▁say	-8.03413
▁He	-8.03505
sti	-8.038
ga	-8.04413
▁jato	-8.04622
▁aisati	-8.04668
ko	-8.04883
▁Ha	-8.05619
▁S	-8.05884
ba	-8.06142
▁her	-8.06385
▁x	-8.07186
▁between	-8.07213
▁So	-8.08073
▁non	-8.08363
q	-8.08472
▁most	-8.08644
▁good	-8.0902
▁tabilé	-8.09032
▁es	-8.09069
▁know	-8.09478
▁two	-8.09739
í	-8.10586
▁policy	-8.10806
▁well	-8.10902
ye	-8.10922
z	-8.11775
▁en	-8.1201
cha	-8.12235
▁Jesus	-8.12337
▁What	-8.12509
at	-8.12693
▁support	-8.13344
▁bo	-8.13566
▁much	-8.1405
▁M	-8.14077
▁ká	-8.14233
▁Dios	-8.14239
▁does	-8.14843
▁against	-8.1527
▁Ie	-8.1545
▁life	-8.16216
al	-8.16347
xa	-8.16587
▁think	-8.16765
▁Bible	-8.16869
▁did	-8.16959
po	-8.17059
ja	-8.17068
▁mem	-8.17182
▁see	-8.1746
▁where	-8.17548
hʉ	-8.17656
▁co	-8.17768
▁political	-8.1813
▁mba	-8.18999
bʉ	-8.19384
▁u	-8.19522
emi	-8.19865
▁yá	-8.21548
ch	-8.217
"	-8.221
▁tla	-8.22628
▁want	-8.22743
ana	-8.22801
▁right	-8.22966
▁qui	-8.23209
▁mu	-8.23322
▁yu	-8.23402
▁human	-8.23567
wi	-8.23635
▁Nu	-8.23902
▁ch	-8.24163
xihuitl	-8.24208
▁pi	-8.24235
▁fact	-8.24847
▁year	-8.25219
▁part	-8.25573
▁pegua	-8.26007
▁same	-8.26168
▁country	-8.2639
▁--	-8.26629
▁¡	-8.27073
▁That	-8.27105
▁gatho	-8.27311
▁cati	-8.274
▁b	-8.27607
▁po	-8.27965
▁catli	-8.28036
▁own	-8.28553
▁economic	-8.29249
▁kue	-8.29691
▁uka	-8.29965
▁tai	-8.30467
ari	-8.3056
▁alé	-8.30873
▁la	-8.30904
▁man	-8.31275
▁buaë	-8.31333
ẽ	-8.31334
▁They	-8.31572
▁́	-8.31864
▁nochi	-8.31916
nga	-8.31945
▁believe	-8.32011
lá	-8.32186
▁If	-8.32361
▁No	-8.32428
▁cha	-8.32826
▁today	-8.33311
▁Pe	-8.3352
ká	-8.34072
▁help	-8.34266
▁ca	-8.34427
▁rights	-8.34632
▁things	-8.34868
▁through	-8.35131
▁under	-8.35563
tsie	-8.35603
▁Ja	-8.35767
▁use	-8.36051
▁here	-8.36092
▁For	-8.36151
ahʉ	-8.362
▁échi	-8.36509
▁sasa	-8.36548
▁There	-8.36582
▁dí	-8.36832
▁before	-8.36932
yari	-8.37386
▁therefore	-8.37631
▁umi	-8.37955
▁then	-8.37984
A	-8.38453
▁social	-8.38945
nara	-8.39
▁Ye	-8.3966
▁Y	-8.39736
▁come	-8.39933
▁Te	-8.40172
▁tsa	-8.40193
▁still	-8.40301
▁ena	-8.40846
▁To	-8.41054
▁ké	-8.41508
▁she	-8.41552
▁◄	-8.41599
▁after	-8.41853
rá	-8.41999
hi	-8.4225
▁►	-8.42262
▁pampa	-8.42443
▁gui	-8.42973
▁public	-8.43137
▁ì	-8.43162
ane	-8.43372
g	-8.43441
▁Israel	-8.43487
▁long	-8.43551
▁too	-8.43556
lo	-8.43666
pan	-8.43947
▁order	-8.44156
de	-8.44319
gui	-8.44848
▁Ra	-8.45074
▁day	-8.45074
pas	-8.45369
▁example	-8.45423
▁future	-8.45886
▁point	-8.45916
▁Ne	-8.46143
▁rió	-8.46154
I	-8.46267
▁put	-8.46361
▁uca	-8.46613
hu	-8.46817
ä	-8.47239
▁18	-8.48091
▁meta	-8.48288
mpi	-8.4841
▁question	-8.48691
be	-8.48729
▁1	-8.49023
si	-8.4904
▁niman	-8.49042
▁T	-8.4911
ã	-8.49578
ary	-8.496
▁ngue	-8.49798
▁jawen	-8.49971
▁Tasorentsi	-8.50201
▁itan	-8.50455
▁cannot	-8.50757
▁course	-8.50974
▁both	-8.51044
wé	-8.51131
▁wé	-8.51347
▁system	-8.51404
▁get	-8.51611
▁mapu	-8.51789
gua	-8.51869
▁cu	-8.5222
▁why	-8.5241
é	-8.5339
▁?	-8.53762
chí	-8.53864
▁nda	-8.53879
manta	-8.54029
chu	-8.54044
▁market	-8.54125
▁possible	-8.5446
tu	-8.54488
▁place	-8.54547
▁last	-8.54548
it	-8.54659
▁However	-8.54981
▁15	-8.55101
▁children	-8.55228
tho	-8.55604
ñe	-8.55655
▁ña	-8.55769
▁great	-8.55825
▁mieme	-8.55843
▁situation	-8.56286
▁jach	-8.56333
▁issue	-8.56554
▁give	-8.56646
wan	-8.58162
ua	-8.58255
ie	-8.58507
▁On	-8.58542
pu	-8.5885
▁che	-8.58933
▁end	-8.59247
▁law	-8.59403
▁Cristo	-8.59405
▁Jesu	-8.59478
▁development	-8.5977
▁moa	-8.59895
▁hope	-8.60043
▁za	-8.60177
▁without	-8.60202
b	-8.60384
▁view	-8.60566
▁si	-8.6061
▁proposal	-8.6111
▁already	-8.61357
▁able	-8.61494
▁su	-8.61599
▁Ko	-8.61653
▁means	-8.62063
▁īpan	-8.62281
▁mik	-8.62281
▁down	-8.62302
▁ñe	-8.62439
▁janiw	-8.6248
▁national	-8.62599
▁Commissioner	-8.62795
▁hnini	-8.6282
ax	-8.62874
nin	-8.63461
nta	-8.63561
▁c	-8.63866
▁un	-8.64221
▁number	-8.64262
ers	-8.64388
▁clear	-8.6465
ll	-8.64688
▁peteĩ	-8.6473
▁really	-8.64904
▁another	-8.65152
Lige	-8.65413
onda	-8.65727
▁government	-8.65781
▁case	-8.66
▁xihuitl	-8.66041
mu	-8.66374
▁Na	-8.66383
▁Mācuīlpōhual	-8.66442
▁going	-8.66444
ui	-8.66575
▁problem	-8.66664
▁min	-8.66754
▁How	-8.66931
▁financial	-8.66971
on	-8.66984
▁Ya	-8.67078
▁become	-8.67136
ji	-8.67151
ame	-8.67332
eni	-8.6736
ia	-8.67392
▁C	-8.67766
▁citizens	-8.6813
▁far	-8.68208
lí	-8.68264
▁huk	-8.68931
▁back	-8.69004
▁within	-8.69354
▁cho	-8.6966
ar	-8.69841
▁chi	-8.69952
▁2	-8.70229
▁women	-8.70231
shi	-8.70332
▁ea	-8.70441
hua	-8.70589
▁iká	-8.70699
▁Pa	-8.71208
▁quin	-8.71224
▁San	-8.7125
▁taken	-8.71273
▁When	-8.71386
lla	-8.71519
▁ese	-8.71529
▁bilé	-8.71935
▁quema	-8.72085
jj	-8.72159
▁Ka	-8.72206
▁ima	-8.7223
▁You	-8.72308
▁Committee	-8.72345
▁Esusi	-8.72409
▁problems	-8.72658
▁three	-8.72728
do	-8.72752
▁different	-8.72998
▁mato	-8.73046
▁common	-8.73052
/	-8.73315
▁con	-8.73394
▁every	-8.7341
▁3	-8.73648
▁men	-8.73735
jja	-8.73779
▁given	-8.73929
▁international	-8.74003
ata	-8.74088
▁ary	-8.74242
▁used	-8.74364
▁nza	-8.74377
▁h	-8.74545
▁nispa	-8.74648
▁since	-8.74785
xi	-8.74915
▁ttè	-8.74951
▁Jesucristo	-8.75057
yá	-8.75285
▁17	-8.75471
the	-8.75516
vo	-8.75676
so	-8.75931
▁find	-8.76007
▁debate	-8.76116
▁maaroni	-8.76133
ce	-8.76151
▁however	-8.7619
▁information	-8.76241
▁Lige	-8.76313
▁something	-8.76652
kin	-8.76869
▁5	-8.77157
▁yoia	-8.77216
▁Se	-8.77252
▁again	-8.77296
▁better	-8.77345
▁;	-8.77374
yu	-8.7762
teri	-8.77762
▁measures	-8.77779
▁eta	-8.77833
té	-8.77845
▁10	-8.77996
▁set	-8.78071
▁United	-8.78575
▁kaka	-8.78658
▁16	-8.78945
▁others	-8.79143
▁Erë	-8.79467
da	-8.79468
S	-8.79484
▁agreement	-8.79517
▁At	-8.79629
iri	-8.79698
▁Ari	-8.80065
▁process	-8.80727
▁je	-8.81077
▁few	-8.8118
th	-8.81249
aka	-8.81285
▁suyu	-8.81783
▁nuya	-8.81849
kai	-8.82187
▁change	-8.82344
hui	-8.82477
né	-8.82531
▁iro	-8.82581
▁akin	-8.82762
efi	-8.83018
▁metá	-8.8308
▁san	-8.83247
▁energy	-8.83649
▁icha	-8.83717
▁particular	-8.83781
▁12	-8.83872
▁yora	-8.84003
▁level	-8.84039
▁xqui	-8.84145
▁each	-8.84146
▁ixon	-8.84391
▁kay	-8.84525
▁Juan	-8.84621
▁Pedro	-8.84623
▁might	-8.8474
ñ	-8.85005
▁hina	-8.85048
ho	-8.85113
▁avei	-8.8516
▁Pi	-8.85276
▁jisk	-8.85589
aix	-8.85797
E	-8.85878
▁shall	-8.85935
▁hño	-8.86115
▁while	-8.86129
am	-8.86181
▁La	-8.86215
▁14	-8.86283
▁•	-8.86292
▁matter	-8.86315
▁eiro	-8.86356
je	-8.8638
▁anta	-8.86551
▁power	-8.8657
▁noa	-8.86769
▁tu	-8.86896
cho	-8.87356
lli	-8.87361
▁nt	-8.87407
nte	-8.87508
▁next	-8.87821
ita	-8.88072
▁Diospa	-8.88109
wö	-8.88147
eri	-8.88283
▁done	-8.88293
),	-8.88311
xon	-8.88415
▁marka	-8.88479
▁during	-8.89007
▁Pablo	-8.89084
▁4	-8.89101
tla	-8.89731
▁action	-8.89731
."	-8.89838
▁ë	-8.8988
▁Be	-8.89915
mp	-8.90043
▁chay	-8.90173
▁nehe	-8.90204
▁hand	-8.90776
▁health	-8.90875
res	-8.90936
▁whether	-8.90944
ge	-8.91012
▁Ta	-8.91248
▁má	-8.91526
akin	-8.91541
▁tsi	-8.9205
▁é	-8.92175
▁yejhuan	-8.92217
▁family	-8.92221
▁high	-8.92415
]	-8.92599
▁hik	-8.92864
▁zi	-8.93164
▁esepa	-8.9321
▁Sa	-8.9322
▁cooperation	-8.934
ty	-8.93549
▁often	-8.93756
gi	-8.93766
▁words	-8.93907
en	-8.93942
▁ensure	-8.94016
▁security	-8.94286
▁9	-8.94349
▁present	-8.94625
▁result	-8.94783
▁real	-8.95099
▁riki	-8.95767
▁together	-8.95811
▁nja	-8.95844
▁6	-8.95995
▁per	-8.96122
▁One	-8.96311
▁respect	-8.96322
nu	-8.96581
▁area	-8.96645
▁aka	-8.96758
▁don	-8.96862
ná	-8.96874
▁joni	-8.97143
▁13	-8.97332
ik	-8.97457
▁tita	-8.97567
▁certain	-8.97608
can	-8.97636
▁8	-8.97861
▁little	-8.97869
▁ru	-8.97994
go	-8.98134
▁ax	-8.98166
▁called	-8.98327
▁young	-8.98452
▁du	-8.99032
▁says	-8.99048
▁11	-8.99076
▁true	-8.99278
▁look	-8.99302
▁P	-8.99561
▁mia	-8.99607
▁earth	-8.9961
▁Community	-8.99738
iya	-8.99747
▁group	-8.99886
▁position	-8.99918
▁ten	-8.99925
ir	-8.99963
▁gu	-8.99989
ment	-9.00011
▁love	-9.00352
▁particularly	-9.00449
▁guí	-9.00603
▁Mo	-9.0076
ú	-9.00892
▁nile	-9.01057
▁ro	-9.01121
▁vote	-9.01208
rí	-9.0125
▁campa	-9.01387
▁necessary	-9.01394
▁found	-9.01397
▁ati	-9.01432
▁7	-9.01542
▁small	-9.01651
▁role	-9.01652
mpa	-9.01693
▁always	-9.01768
▁ika	-9.0189
kana	-9.01952
▁njabʉ	-9.01991
▁state	-9.021
▁whole	-9.02199
kuna	-9.02237
▁joi	-9.02277
tejj	-9.02754
tzin	-9.02889
▁war	-9.02981
▁Commons	-9.02996
▁areas	-9.03019
▁These	-9.03039
▁wali	-9.03154
▁continue	-9.03656
▁let	-9.03799
▁ñ	-9.03809
▁Mrs	-9.04072
▁further	-9.04335
▁del	-9.0449
ai	-9.04589
▁Christian	-9.04646
▁crisis	-9.04741
▁issues	-9.04844
tan	-9.04864
▁reason	-9.05021
2	-9.0556
".	-9.05567
uka	-9.05651
▁decision	-9.05772
▁money	-9.05874
aqa	-9.06059
▁making	-9.06217
ay	-9.06314
▁allin	-9.06545
vi	-9.06696
▁ho	-9.06722
▁legal	-9.06818
▁jä	-9.06888
▁B	-9.06889
▁quen	-9.06968
ity	-9.0707
▁uan	-9.0713
▁needs	-9.07248
ribi	-9.07311
▁among	-9.07619
awe	-9.07653
▁person	-9.0775
▁Ca	-9.07776
▁David	-9.08049
▁Ni	-9.08071
▁Witnesses	-9.08111
▁ask	-9.08156
▁never	-9.08239
ite	-9.0837
ci	-9.08448
▁second	-9.08664
▁feel	-9.08677
▁q	-9.08697
▁food	-9.08838
▁China	-9.0911
etsi	-9.09142
▁Christ	-9.09164
▁regard	-9.09531
▁around	-9.09589
▁cē	-9.09801
▁yo	-9.09841
▁[	-9.09856
▁thing	-9.09936
▁home	-9.09966
▁million	-9.10289
able	-9.10404
▁yoyo	-9.10424
▁budget	-9.10442
▁protection	-9.10502
▁ama	-9.10513
yuga	-9.10566
▁cantaincha	-9.10674
ness	-9.11411
▁ari	-9.11484
▁including	-9.1155
▁having	-9.11668
▁themselves	-9.11678
▁20	-9.11752
▁nura	-9.11822
▁dö	-9.11904
O	-9.12052
▁working	-9.1209
▁call	-9.12108
▁water	-9.12294
▁Pero	-9.12379
▁trade	-9.12467
ó	-9.12588
▁bua	-9.12693
▁House	-9.12694
▁especially	-9.12803
▁times	-9.12809
▁peace	-9.12908
▁á	-9.1299
taq	-9.13108
▁free	-9.13171
▁large	-9.13253
▁actually	-9.13279
▁nep	-9.13324
▁rapporteur	-9.13381
rke	-9.13493
▁xá	-9.13557
▁maton	-9.13661
che	-9.13762
▁oñe	-9.13865
▁iché	-9.13996
▁less	-9.14083
sh	-9.14149
▁doing	-9.14218
▁full	-9.14318
▁simi	-9.14348
axa	-9.14387
▁xe	-9.144
▁sector	-9.1442
▁haguã	-9.14512
▁lur	-9.14521
py	-9.14726
▁name	-9.14728
▁aid	-9.1494
▁G	-9.15079
tiri	-9.15099
baon	-9.15286
▁thank	-9.15396
▁upe	-9.15487
▁U	-9.15523
▁gentlemen	-9.15897
ry	-9.15997
C	-9.16006
▁best	-9.16178
or	-9.16201
▁basis	-9.16241
▁Paul	-9.1625
▁Re	-9.16353
▁death	-9.16531
▁terms	-9.16537
▁ramué	-9.16618
▁though	-9.16702
▁yet	-9.16764
▁came	-9.16934
▁directive	-9.1715
▁global	-9.17325
▁ynic	-9.1737
▁quite	-9.17505
”	-9.17628
▁matsi	-9.1774
jo	-9.17756
▁Nepʉ	-9.17765
ot	-9.17898
ut	-9.17936
el	-9.18116
▁cuali	-9.18126
▁rather	-9.18139
▁provide	-9.18145
▁show	-9.18345
sqa	-9.18374
nti	-9.18465
▁once	-9.18755
▁hinda	-9.18769
f	-9.18785
▁K	-9.18887
▁pan	-9.1889
▁live	-9.18964
st	-9.18975
▁kind	-9.19093
▁progress	-9.19199
ama	-9.19671
▁least	-9.19753
äna	-9.19768
▁betan	-9.19877
▁away	-9.19975
▁services	-9.20029
▁mué	-9.20059
▁upon	-9.20108
▁pay	-9.20137
fi	-9.20165
▁control	-9.20207
▁masehualme	-9.20325
▁ome	-9.20557
▁difficult	-9.20659
▁yi	-9.20675
▁general	-9.20681
za	-9.20717
tsita	-9.20724
▁Madam	-9.20757
▁agree	-9.20919
▁growth	-9.20925
ton	-9.20977
▁watakuna	-9.21052
▁off	-9.21062
jque	-9.2139
▁nisqaqa	-9.21492
▁My	-9.2172
▁US	-9.21728
▁itself	-9.21772
ré	-9.21775
▁N	-9.22265
▁hingu	-9.22562
▁wish	-9.22573
wí	-9.22731
▁Treaty	-9.22749
▁ani	-9.22777
▁bring	-9.2297
▁keep	-9.23127
nak	-9.23321
▁ītōcā	-9.23331
▁rules	-9.23697
▁mara	-9.23784
▁resolution	-9.23805
▁current	-9.23899
▁spirit	-9.23923
ted	-9.23964
▁jake	-9.24156
ng	-9.24172
▁dá	-9.24284
▁ñiqin	-9.24385
▁main	-9.24717
tix	-9.24909
ruw	-9.25006
v	-9.25094
▁noya	-9.2512
▁De	-9.25236
▁days	-9.25288
▁account	-9.25607
▁chupe	-9.25653
▁wö	-9.25688
▁hard	-9.25704
▁forward	-9.25802
mana	-9.25824
▁xem	-9.2585
▁jonibo	-9.25856
▁understand	-9.25973
ˈ	-9.26016
▁ndunthi	-9.26087
P	-9.26105
▁taking	-9.26146
kuéra	-9.26159
▁xo	-9.26174
▁Do	-9.26181
▁Jesoshi	-9.26279
▁increase	-9.26439
▁dega	-9.26488
▁old	-9.26554
▁Auh	-9.26583
▁opportunity	-9.26616
▁bu	-9.26662
▁attention	-9.26723
nt	-9.26744
▁institutions	-9.26775
▁An	-9.26848
▁conditions	-9.27161
▁Es	-9.27259
▁ago	-9.27286
▁mind	-9.27421
▁approach	-9.27708
▁Co	-9.27786
▁hu	-9.27789
▁greater	-9.27852
▁auh	-9.27853
ju	-9.27894
kame	-9.27928
▁behalf	-9.27994
▁shu	-9.28025
▁ñies	-9.28081
▁society	-9.28138
▁erë	-9.28556
▁serious	-9.28681
bu	-9.28726
ñembabi	-9.2878
▁Ba	-9.28887
cua	-9.29118
▁Now	-9.29517
▁past	-9.29526
▁Group	-9.2972
▁heart	-9.2979
▁programme	-9.298
▁concerned	-9.29845
▁She	-9.29869
▁third	-9.29922
▁thuhu	-9.30001
▁jaré	-9.30042
▁major	-9.30077
▁nija	-9.30077
▁amendments	-9.3031
▁State	-9.30346
▁opinion	-9.30376
yøt	-9.30383
wá	-9.30394
▁economy	-9.30437
yaya	-9.30443
▁bake	-9.30685
non	-9.30835
▁X	-9.3089
▁subject	-9.30986
▁ce	-9.31066
▁Alué	-9.31087
▁favour	-9.31131
▁sat	-9.31174
▁interest	-9.31185
▁nem	-9.31259
▁hinaspa	-9.31341
▁Po	-9.31404
kunata	-9.31568
iki	-9.31637
▁Mi	-9.31746
▁living	-9.32075
▁ladies	-9.32112
▁pë	-9.32387
ation	-9.32477
▁yuri	-9.32651
▁Some	-9.32657
uta	-9.32759
▁pɛ	-9.32882
íchali	-9.32903
kan	-9.32938
▁llaqtapi	-9.32947
▁authorities	-9.32998
tá	-9.33011
▁research	-9.33074
rin	-9.33179
▁recent	-9.33196
▁mbo	-9.33282
cu	-9.33341
tam	-9.33412
▁Kingdom	-9.33434
▁proposals	-9.33752
▁based	-9.33834
nku	-9.3391
ant	-9.33975
▁suma	-9.33997
▁start	-9.3408
▁Eta	-9.34109
▁local	-9.34183
ran	-9.34195
▁oyérame	-9.3432
ism	-9.34423
▁Mik	-9.34508
▁omo	-9.34744
ala	-9.34786
T	-9.34824
▁mama	-9.3483
▁following	-9.34867
tzi	-9.34869
▁freedom	-9.34883
▁iti	-9.35026
▁took	-9.35074
uh	-9.35214
▁uché	-9.35324
▁All	-9.35498
▁left	-9.35938
rika	-9.36053
▁framework	-9.36054
▁resources	-9.36107
▁consider	-9.362
▁tech	-9.36398
mba	-9.36414
uti	-9.36432
▁sulu	-9.36557
ati	-9.36592
▁Chay	-9.36593
▁With	-9.36606
▁Me	-9.3668
▁open	-9.36749
ic	-9.36827
xe	-9.36835
▁members	-9.36851
▁jaskara	-9.3693
▁regá	-9.37027
▁legislation	-9.37055
lia	-9.37062
▁mep	-9.37062
▁Members	-9.37085
▁thoki	-9.37088
iti	-9.37163
▁kuéra	-9.37329
▁involved	-9.37367
▁Huajca	-9.37391
▁Wa	-9.37433
▁enough	-9.37552
▁hoki	-9.37667
▁principle	-9.37689
mala	-9.37823
▁needed	-9.37858
▁warmi	-9.37866
▁oje	-9.37875
▁responsibility	-9.37912
▁simply	-9.37946
ihʉ	-9.38011
má	-9.38074
▁efforts	-9.3809
ena	-9.38113
ero	-9.38118
▁né	-9.38134
▁jo	-9.38162
▁towards	-9.38446
ampi	-9.38492
▁r	-9.38608
up	-9.38748
▁jakon	-9.38774
▁New	-9.3881
▁deal	-9.38853
nqa	-9.38858
▁study	-9.38967
▁ever	-9.39097
▁clearly	-9.39395
▁más	-9.39398
▁saying	-9.39452
▁single	-9.39472
▁adopted	-9.39476
il	-9.39507
Paita	-9.3965
tic	-9.39808
▁gá	-9.39878
“	-9.3992
▁Why	-9.40003
▁light	-9.40052
▁policies	-9.40179
▁jatian	-9.40211
iyari	-9.40215
▁D	-9.40275
U	-9.40342
ote	-9.40387
▁nato	-9.40443
▁heta	-9.4052
gá	-9.40585
▁jain	-9.40746
añ	-9.40856
ttsa	-9.41025
▁region	-9.41183
icha	-9.41217
▁specific	-9.41269
▁importance	-9.41532
ting	-9.41614
tion	-9.41643
▁ihuan	-9.41679
▁ára	-9.41695
▁mean	-9.41777
▁Aisati	-9.41807
▁face	-9.41815
▁impoiji	-9.4182
▁Russia	-9.42006
tl	-9.42012
▁uqhamarac	-9.42216
▁states	-9.42324
▁asked	-9.42336
▁until	-9.42342
▁various	-9.4238
▁nuna	-9.42381
ter	-9.42502
▁uru	-9.42617
▁parents	-9.42644
▁read	-9.42658
▁hueyi	-9.42756
▁caari	-9.4279
▁jaton	-9.42795
▁risk	-9.42816
▁book	-9.42938
▁ketsutsi	-9.43053
▁access	-9.4308
▁aca	-9.43187
▁special	-9.43312
▁welcome	-9.43321
▁faith	-9.43353
cal	-9.43489
B	-9.43494
▁seen	-9.43528
▁ora	-9.43556
▁service	-9.43556
▁industry	-9.43614
▁After	-9.43685
▁form	-9.43709
et	-9.43794
▁care	-9.43891
▁land	-9.43974
nka	-9.44014
M	-9.44019
pá	-9.44027
▁aká	-9.44052
▁Christians	-9.44081
▁force	-9.44164
▁Global	-9.4467
▁nts	-9.44704
F	-9.44791
naka	-9.44862
▁eköl	-9.44956
▁tell	-9.44958
ɛdi	-9.44996
▁hing	-9.45159
▁`	-9.45198
▁nothing	-9.45244
▁jatíbi	-9.45326
▁Si	-9.45421
▁taqi	-9.45444
▁wi	-9.45466
men	-9.45509
▁opa	-9.45527
▁íyi	-9.45576
▁questions	-9.45618
▁Jatian	-9.45658
▁ia	-9.45659
son	-9.45741
▁nápi	-9.45757
▁months	-9.45788
▁rehe	-9.45822
▁Je	-9.45836
▁interests	-9.45848
rak	-9.45871
▁told	-9.45957
ria	-9.45968
▁employment	-9.45972
lula	-9.45994
kastilla	-9.45999
aya	-9.46066
▁share	-9.46132
▁Di	-9.46237
ek	-9.46502
▁kiè	-9.46527
▁environment	-9.46535
oqui	-9.46679
▁hi	-9.4672
▁pero	-9.46724
▁longer	-9.46745
▁transport	-9.46749
▁ulà	-9.46785
▁oĩ	-9.46812
▁wetsa	-9.46918
ara	-9.46993
▁tukuy	-9.47002
▁rupi	-9.47081
▁democracy	-9.47092
▁later	-9.47116
▁house	-9.47137
▁period	-9.47162
▁strong	-9.47267
▁World	-9.47357
...	-9.47403
▁truth	-9.47408
▁por	-9.47483
▁habʉ	-9.47522
ekue	-9.47531
▁mp	-9.47629
▁sense	-9.47631
▁José	-9.47634
▁allow	-9.47696
▁city	-9.47708
fe	-9.47742
kuri	-9.47758
yta	-9.47794
ní	-9.47822
▁Da	-9.47873
▁idea	-9.47987
▁miyac	-9.48047
▁tlacatl	-9.48068
▁reform	-9.48083
▁effective	-9.48211
▁Let	-9.48242
▁hikuái	-9.48358
▁inin	-9.48427
▁Iro	-9.48471
▁bá	-9.48606
▁tlacame	-9.48646
tari	-9.48847
î	-9.4886
éva	-9.48868
paye	-9.48887
▁accept	-9.48924
▁car	-9.48957
G	-9.48983
ck	-9.49063
▁four	-9.49166
▁thought	-9.49283
▁media	-9.49548
us	-9.4956
est	-9.49664
▁shinan	-9.49885
nki	-9.49925
▁products	-9.50149
▁fundamental	-9.50248
▁safety	-9.50437
▁rey	-9.5053
▁certainly	-9.50625
▁proposed	-9.50658
▁talk	-9.50678
▁strategy	-9.50703
▁answer	-9.50704
▁Jerusalén	-9.50709
▁ska	-9.50729
▁workers	-9.5088
nan	-9.50917
rë	-9.50994
▁experience	-9.51001
▁Ju	-9.51257
mati	-9.51263
tima	-9.51284
▁Abraham	-9.51383
▁hepa	-9.51429
▁hmända	-9.51431
▁Bi	-9.51462
1	-9.51468
▁key	-9.51544
▁ashaninka	-9.51641
▁«	-9.51682
▁yhuan	-9.51772
tani	-9.52003
▁body	-9.52103
▁comes	-9.52105
▁aru	-9.52122
▁positive	-9.52191
▁lives	-9.52255
▁groups	-9.52275
▁Hangu	-9.52307
▁kani	-9.52392
▁act	-9.52475
utbi	-9.52519
▁nzaya	-9.52569
▁Bo	-9.52571
▁environmental	-9.5259
▁Xi	-9.52718
pee	-9.5281
▁watapi	-9.52891
▁makes	-9.53292
▁F	-9.53326
▁Voices	-9.53414
ive	-9.5342
▁suwábaga	-9.53446
▁news	-9.5355
▁oca	-9.53585
▁short	-9.5361
lu	-9.53672
▁several	-9.53785
▁education	-9.53869
▁uñj	-9.54052
▁close	-9.54115
▁voted	-9.54118
▁reñói	-9.54128
▁sure	-9.54181
▁Africa	-9.54215
▁øt	-9.54349
▁create	-9.5446
▁word	-9.54702
▁ndä	-9.54834
▁Jehová	-9.54959
tin	-9.54986
bé	-9.55
nca	-9.5504
▁essential	-9.5515
`	-9.55195
▁got	-9.55201
▁iriori	-9.55202
▁meeting	-9.55303
▁lead	-9.55317
▁pu	-9.55328
▁lot	-9.55453
wame	-9.55551
▁ua	-9.55627
sí	-9.55637
zo	-9.55673
ist	-9.55733
▁went	-9.55904
▁child	-9.55905
▁democratic	-9.55957
▁regulation	-9.56031
▁Presidency	-9.56041
ous	-9.56058
ix	-9.56068
▁step	-9.5619
▁fight	-9.56204
▁speak	-9.56233
▁school	-9.56293
itö	-9.56328
nko	-9.56343
iwa	-9.56439
▁oqui	-9.56605
▁ompa	-9.56706
▁achieve	-9.56719
ño	-9.56772
▁jakonma	-9.56844
▁anele	-9.56865
▁brought	-9.56927
▁nokon	-9.56959
▁Tla	-9.57048
▁oncan	-9.57072
▁soon	-9.5708
D	-9.57091
▁learn	-9.57145
▁kametsa	-9.57185
▁ones	-9.57281
tse	-9.57301
▁wà	-9.57484
▁ucatsti	-9.57522
▁niuki	-9.5754
▁El	-9.57663
▁himself	-9.57677
▁atiri	-9.57723
▁yö	-9.57742
ap	-9.57751
▁lack	-9.57759
▁negotiations	-9.57791
ü	-9.57915
▁five	-9.57936
▁táva	-9.57942
◄	-9.57986
▁Our	-9.58054
►	-9.5806
▁ji	-9.58078
▁text	-9.58252
▁tax	-9.58268
kama	-9.58283
yayaj	-9.58349
▁business	-9.58392
▁koshi	-9.58466
▁available	-9.58503
▁tó	-9.58504
▁companies	-9.58527
ì	-9.5865
▁ndo	-9.58682
ule	-9.58718
▁jaqi	-9.58798
▁cause	-9.58858
▁points	-9.58956
▁turn	-9.58957
▁fully	-9.58963
▁Ku	-9.59028
▁oiko	-9.59072
▁field	-9.5926
▁quality	-9.59422
▁30	-9.59591
▁using	-9.59839
▁Al	-9.59855
▁play	-9.5989
▁majority	-9.59946
è	-9.60097
▁Tupã	-9.60112
▁nor	-9.60336
▁perhaps	-9.60377
▁xep	-9.60429
lú	-9.60532
▁katu	-9.60556
▁reports	-9.60557
ach	-9.60598
ur	-9.61014
▁job	-9.6102
▁concern	-9.6107
▁echi	-9.61078
̃	-9.61127
▁aní	-9.61176
▁Tom	-9.61387
rqa	-9.61447
kait	-9.61569
▁developing	-9.61573
▁tté	-9.61585
▁va	-9.61629
naca	-9.61695
▁military	-9.61722
▁results	-9.61792
way	-9.61877
▁Many	-9.61879
▁solution	-9.61901
▁uñt	-9.61904
▁congregation	-9.61954
▁foreign	-9.61991
▁pé	-9.6207
ofo	-9.62157
▁line	-9.62269
▁internal	-9.6234
nuk	-9.62409
▁nuni	-9.62431
ina	-9.62431
ê	-9.62449
▁individual	-9.62533
▁along	-9.6255
▁mācuīlpōhual	-9.62644
▁Ga	-9.62666
ct	-9.62872
▁indeed	-9.63004
▁standards	-9.63061
▁remain	-9.63075
▁religious	-9.63137
tke	-9.63203
rit	-9.63275
▁·	-9.63289
▁known	-9.63402
▁regions	-9.63614
▁hoga	-9.63788
▁knowledge	-9.63802
▁effect	-9.63857
▁benefit	-9.64039
▁coming	-9.64081
▁decisions	-9.6429
▁yopa	-9.64301
▁impact	-9.6437
les	-9.64403
The	-9.64437
▁matters	-9.64482
lis	-9.64496
▁violence	-9.64598
▁xeik	-9.64642
sia	-9.64699
yku	-9.647
▁mentioned	-9.64711
▁Piruw	-9.64744
tero	-9.64824
rú	-9.64832
▁seems	-9.64864
▁population	-9.6489
▁principles	-9.64935
▁Government	-9.64939
▁mí	-9.64981
▁ñì	-9.65151
▁moment	-9.65166
▁!	-9.65276
▁yati	-9.65277
▁klö	-9.65363
ón	-9.65391
▁everything	-9.65435
▁above	-9.65437
ini	-9.65556
lé	-9.65557
▁thus	-9.65666
▁became	-9.65685
▁Then	-9.6569
con	-9.65727
▁try	-9.65827
▁ipa	-9.65918
▁rehegua	-9.6594
ak	-9.66011
▁Moisés	-9.66057
▁history	-9.66093
▁move	-9.6617
▁almost	-9.66222
▁personal	-9.66224
▁cases	-9.66402
▁/	-9.66536
gue	-9.66635
▁May	-9.66671
▁yaya	-9.66785
▁By	-9.66836
▁dige	-9.66855
▁tetã	-9.66911
▁plan	-9.66912
ful	-9.66937
▁merik	-9.66995
rqan	-9.67048
▁Even	-9.67106
▁governments	-9.6712
squej	-9.67164
▁climate	-9.67336
niri	-9.67379
▁pro	-9.67379
nd	-9.67477
▁hña	-9.67658
tapas	-9.67659
mat	-9.67679
▁side	-9.67736
▁tem	-9.67755
▁American	-9.67825
mé	-9.67859
▁relations	-9.68042
fa	-9.68114
▁ee	-9.68123
▁chur	-9.68126
iro	-9.68163
▁Of	-9.68266
kaku	-9.68273
▁saw	-9.68338
▁writing	-9.6841
▁Ñi	-9.68418
▁wanted	-9.68451
▁project	-9.68536
▁competition	-9.68572
▁blood	-9.68679
▁began	-9.68783
▁John	-9.68817
▁quej	-9.68861
▁improve	-9.68861
▁nojquiya	-9.68879
▁Jo	-9.68921
▁guasu	-9.69039
▁meni	-9.6907
nik	-9.69073
ete	-9.69105
▁data	-9.69182
▁everyone	-9.69203
▁pre	-9.69238
yi	-9.69379
▁nila	-9.69487
▁due	-9.69539
bora	-9.69576
▁reasons	-9.69623
▁held	-9.69772
▁value	-9.69796
▁meet	-9.69823
ï	-9.69963
▁cost	-9.70063
▁19	-9.70077
▁Niman	-9.7008
▁Turkey	-9.70179
▁early	-9.70214
▁whom	-9.70217
▁II	-9.70255
▁America	-9.70431
▁kename	-9.70433
▁xeime	-9.70502
▁yoi	-9.7053
▁oshequi	-9.70541
▁community	-9.70565
K	-9.70626
▁nuclear	-9.70685
▁manan	-9.70691
▁gotho	-9.70838
▁í	-9.70889
3	-9.70925
▁d	-9.70957
▁stá	-9.70964
▁concerns	-9.70969
qu	-9.70976
tia	-9.71
▁according	-9.71074
▁ways	-9.71264
▁ikai	-9.71268
ling	-9.71278
oni	-9.71301
▁yë	-9.71367
▁funds	-9.71417
wala	-9.71514
▁Tatitun	-9.71527
▁Can	-9.71557
▁júkuru	-9.71648
▁self	-9.71654
▁akai	-9.71668
▁25	-9.71723
▁ichè	-9.71753
huan	-9.71774
kue	-9.7178
▁prevent	-9.71781
▁ché	-9.71788
▁production	-9.71788
▁age	-9.71793
▁karqan	-9.71807
▁implementation	-9.71901
aye	-9.71907
à	-9.72069
▁ukatsti	-9.72162
ngue	-9.72167
▁km	-9.72192
▁Amo	-9.72219
▁spiritual	-9.72223
▁provided	-9.72305
▁H	-9.72408
paq	-9.72448
▁inic	-9.72511
▁Uka	-9.72536
▁week	-9.72561
▁wrong	-9.72625
▁aware	-9.7275
▁Li	-9.72762
▁anile	-9.72951
nankupaq	-9.73044
▁Su	-9.73142
▁appropriate	-9.7319
▁María	-9.73204
▁yoiai	-9.73213
▁osheki	-9.73222
▁responsible	-9.73445
▁thandi	-9.73542
▁committee	-9.73728
▁heard	-9.73728
▁bad	-9.7382
eya	-9.73886
▁final	-9.73903
bira	-9.73955
▁ist	-9.74087
▁activities	-9.74099
▁fellow	-9.74157
▁Nda	-9.74167
kit	-9.74199
▁ourselves	-9.74214
▁ukat	-9.74239
▁V	-9.74281
▁extremely	-9.74318
▁Diosta	-9.74329
▁bak	-9.74331
ira	-9.74348
▁half	-9.74352
▁Hu	-9.74402
tso	-9.74483
erie	-9.7464
▁R	-9.7474
yö	-9.74745
▁sapa	-9.74768
▁gave	-9.74844
ñena	-9.74855
▁hai	-9.74864
▁ic	-9.7489
▁rule	-9.7492
mí	-9.7494
▁jobs	-9.74963
▁muna	-9.7498
▁oguereko	-9.74997
turu	-9.75098
▁post	-9.7515
pari	-9.75178
▁giving	-9.75251
▁police	-9.75424
▁queja	-9.75617
▁ttö	-9.75772
ima	-9.75799
▁J	-9.75802
▁purpose	-9.75909
▁nga	-9.7602
um	-9.76038
▁xki	-9.76161
▁started	-9.76181
▁dios	-9.76392
▁sar	-9.76448
▁Finally	-9.76528
▁hñu	-9.76615
asa	-9.76674
uni	-9.76676
▁(19	-9.7668
▁Chi	-9.76724
▁ulitane	-9.76798
▁regional	-9.76875
pin	-9.76892
▁Diossen	-9.76932
▁nations	-9.76966
ent	-9.76972
▁sébali	-9.77119
rootaque	-9.77132
▁niko	-9.77168
tli	-9.77192
sá	-9.77385
▁yc	-9.77521
▁context	-9.77586
bitu	-9.77628
▁jave	-9.77631
ika	-9.77666
▁Court	-9.77794
bʉi	-9.77834
▁rest	-9.77854
▁Is	-9.77949
▁jena	-9.78005
▁percent	-9.78114
▁que	-9.7816
▁changes	-9.78164
▁fear	-9.78203
ait	-9.78224
less	-9.78237
▁thogi	-9.78244
▁huelis	-9.784
▁hueli	-9.78428
▁tee	-9.78447
▁across	-9.78461
▁return	-9.7854
▁woman	-9.7855
nanpaq	-9.78618
ten	-9.7862
▁Ti	-9.78652
▁ley	-9.78662
▁yvy	-9.78688
▁language	-9.78696
▁huel	-9.78752
▁Ro	-9.78821
▁civil	-9.78856
▁tewi	-9.78869
mʉi	-9.78887
▁alarigá	-9.78989
kanti	-9.79062
▁ira	-9.7907
▁natural	-9.79076
bires	-9.79084
▁promote	-9.79092
▁initiative	-9.79167
▁uk	-9.79222
raë	-9.79277
▁jak	-9.79278
▁wrote	-9.79317
com	-9.79334
she	-9.79358
▁term	-9.79382
llo	-9.79392
▁simipi	-9.79417
▁omano	-9.79467
▁procedure	-9.79473
4	-9.79476
▁systems	-9.79482
▁nin	-9.79515
quej	-9.79775
asi	-9.79811
▁Kë	-9.7985
▁westíora	-9.7986
ntin	-9.79922
chá	-9.79925
▁nete	-9.79977
▁Affairs	-9.80011
▁recently	-9.80108
▁capital	-9.80171
▁ndive	-9.80222
▁porã	-9.80285
▁similar	-9.80289
▁animal	-9.80303
▁received	-9.80325
im	-9.80356
▁meeca	-9.80411
▁Yo	-9.80459
kanwe	-9.80467
▁moki	-9.8051
▁Zidada	-9.80591
▁Le	-9.80624
▁practice	-9.80624
▁concerning	-9.80764
▁Yet	-9.808
sun	-9.80952
▁Pu	-9.81017
hápe	-9.81019
▁runakuna	-9.81039
▁stop	-9.81086
▁ramo	-9.81118
▁iu	-9.81232
▁air	-9.81455
äwi	-9.81465
rs	-9.81494
▁whose	-9.81545
▁trying	-9.81555
aku	-9.81678
gu	-9.81725
▁Ariorica	-9.81744
▁outside	-9.81752
▁Egipto	-9.81766
▁costs	-9.81777
▁mfeni	-9.81788
▁Ru	-9.81793
▁protect	-9.81848
▁Vi	-9.81852
▁Nú	-9.81882
▁decided	-9.81958
▁tij	-9.81982
▁father	-9.81995
We	-9.82006
▁include	-9.82055
▁regarding	-9.82123
kate	-9.82165
▁ijch	-9.82174
du	-9.82218
N	-9.82227
▁response	-9.82228
▁yësyësë	-9.82434
▁reading	-9.82488
nto	-9.82504
▁uma	-9.82521
▁religion	-9.82571
▁ŕa	-9.82654
▁gamfri	-9.8269
▁persons	-9.82761
▁either	-9.8287
▁leave	-9.8292
▁gotyo	-9.8293
▁oil	-9.83088
▁follow	-9.83124
▁big	-9.8316
rõ	-9.83172
▁behind	-9.83182
▁although	-9.83276
▁el	-9.83355
▁South	-9.83479
▁oc	-9.83482
▁met	-9.83501
▁anything	-9.83501
▁g	-9.83568
▁mother	-9.83595
▁judiowak	-9.83653
▁agricultural	-9.83746
▁guive	-9.83761
▁bri	-9.83783
án	-9.83823
▁join	-9.8384
nac	-9.83933
▁ichaqa	-9.83957
▁killapi	-9.84037
▁mete	-9.84109
▁dialogue	-9.84251
▁yacha	-9.84252
sha	-9.84373
bai	-9.84407
▁avoid	-9.84446
net	-9.84448
▁chachan	-9.8447
kanai	-9.84485
▁cuna	-9.84516
▁wife	-9.84547
▁agreements	-9.84583
▁21	-9.84602
▁Ri	-9.84603
tya	-9.84622
▁wakpa	-9.84658
▁meka	-9.84695
▁six	-9.84724
▁itoca	-9.84759
xo	-9.84809
▁kaq	-9.8485
mbo	-9.84923
▁message	-9.84927
cama	-9.84942
ñu	-9.84961
▁success	-9.84975
▁objective	-9.84991
▁Because	-9.85023
▁parties	-9.85092
▁wák	-9.85096
rã	-9.8512
ntho	-9.85268
ayumieme	-9.85274
▁maroni	-9.85308
▁hawa	-9.85316
▁ximhai	-9.85395
▁receive	-9.85416
▁markets	-9.8545
▁Since	-9.85531
▁develop	-9.85581
▁runa	-9.85696
▁ukuö	-9.85738
▁Neka	-9.86038
▁thinking	-9.86043
hma	-9.86071
",	-9.86134
▁L	-9.86157
▁katt	-9.86263
▁Ke	-9.86341
▁Ar	-9.86343
▁uñnaqa	-9.86359
par	-9.8636
▁hear	-9.86392
▁effort	-9.86449
▁Lisbon	-9.86488
sta	-9.86588
▁currently	-9.86601
▁poor	-9.86605
tak	-9.8661
▁While	-9.8665
▁Minister	-9.86673
sen	-9.86682
▁Uca	-9.86757
▁utj	-9.86824
▁térã	-9.8688
▁chura	-9.8689
nchik	-9.87001
▁billion	-9.87044
▁son	-9.87074
kiri	-9.87105
des	-9.87127
▁Skëkëpa	-9.87237
mai	-9.87282
▁sent	-9.87287
▁compromise	-9.87332
▁throughout	-9.87343
kua	-9.87434
aq	-9.87438
▁Jaskara	-9.87476
▁wawa	-9.87477
▁kepa	-9.8749
▁zo	-9.87499
▁pressure	-9.87549
▁hasta	-9.87621
▁creation	-9.87661
▁objectives	-9.8788
▁Diosan	-9.87883
▁hñä	-9.87903
▁tukari	-9.87997
▁mun	-9.8801
▁basic	-9.88055
▁stand	-9.88062
▁anti	-9.88107
▁yunait	-9.88119
▁significant	-9.88189
un	-9.88197
▁alà	-9.882
▁serve	-9.88206
▁meran	-9.88292
▁kua	-9.88328
▁projects	-9.88358
▁miki	-9.88458
▁conflict	-9.88471
▁leaders	-9.8851
▁euro	-9.88552
▁investment	-9.88575
tua	-9.88589
▁addition	-9.88736
▁pem	-9.88785
▁France	-9.88844
▁elections	-9.88923
▁xewit	-9.89056
▁ypan	-9.89068
tza	-9.89114
▁diossen	-9.89181
▁bakebo	-9.89222
▁kopí	-9.89364
wè	-9.89414
▁dra	-9.89431
▁tlamantli	-9.89443
ö	-9.89445
▁doubt	-9.89452
▁War	-9.89472
▁Napu	-9.89476
▁nature	-9.89567
▁article	-9.89572
▁itech	-9.89595
▁programmes	-9.896
taca	-9.89614
▁jawéki	-9.89675
▁demand	-9.8984
▁happy	-9.89845
▁French	-9.89875
ij	-9.89908
▁dä	-9.89915
▁EUR	-9.90041
▁xeme	-9.9009
▁multi	-9.90099
▁Esukristo	-9.90109
lime	-9.90139
mbi	-9.90176
▁remember	-9.9018
rä	-9.902
▁sin	-9.90209
term	-9.90294
▁someone	-9.90304
aca	-9.90331
▁yejhua	-9.90346
▁Today	-9.90351
▁management	-9.90618
▁fa	-9.9064
▁Nehe	-9.90726
kani	-9.9075
ción	-9.90832
▁Ki	-9.90849
▁mahtlācxihuitl	-9.90849
atä	-9.90873
▁low	-9.9089
ion	-9.90984
▁His	-9.90996
ah	-9.91041
▁chacha	-9.91093
▁draw	-9.91102
▁quipiya	-9.91135
â	-9.91157
▁mar	-9.91209
▁actions	-9.91273
▁ú	-9.91276
▁peteî	-9.91323
▁Therefore	-9.91424
▁jú	-9.91462
▁Article	-9.9156
▁Diosqa	-9.91599
▁alone	-9.91706
▁created	-9.91738
▁UN	-9.918
▁xobo	-9.91811
▁Jan	-9.91847
▁happened	-9.91918
▁modern	-9.91986
▁relationship	-9.92138
aj	-9.92166
jtoc	-9.92201
▁Germany	-9.92208
▁miti	-9.9228
20	-9.92308
▁amendment	-9.92377
taki	-9.92425
▁konge	-9.92486
▁shows	-9.92499
▁rate	-9.92508
pacha	-9.92535
▁apply	-9.92579
tica	-9.92604
tequi	-9.92698
▁Ho	-9.92725
▁ejati	-9.92742
▁nech	-9.92794
▁24	-9.92813
▁suyupi	-9.9283
▁talking	-9.92837
▁People	-9.92873
▁events	-9.92884
aki	-9.92999
▁hinte	-9.93006
▁entire	-9.93018
▁building	-9.93021
▁private	-9.93048
▁night	-9.9305
nda	-9.93132
▁increased	-9.93149
▁build	-9.93156
kó	-9.93171
▁Impoiji	-9.93241
▁friends	-9.93288
▁Word	-9.93346
▁nican	-9.93361
▁kí	-9.93404
ver	-9.93426
▁ruwa	-9.93542
▁Señor	-9.93647
▁movement	-9.9365
▁vaekue	-9.93702
ate	-9.93735
▁karqa	-9.93771
sion	-9.93815
Ma	-9.93858
▁East	-9.9391
▁al	-9.93913
▁worship	-9.93916
▁enlargement	-9.9411
▁siné	-9.94192
bɛh	-9.94221
▁jainoax	-9.94229
Y	-9.94263
▁likely	-9.94423
▁vital	-9.945
änwa	-9.94549
▁monequi	-9.94622
▁express	-9.94641
▁jäi	-9.94652
▁kamachi	-9.94675
▁road	-9.94709
▁quickly	-9.9472
▁values	-9.94766
8	-9.94792
ù	-9.94825
▁aim	-9.94914
kari	-9.9492
napaq	-9.9495
7	-9.95027
▁Mar	-9.95074
▁@	-9.95074
▁reduce	-9.95157
rio	-9.95173
▁direction	-9.95185
▁poverty	-9.95197
▁suluë	-9.95279
▁Go	-9.95371
▁tho	-9.95374
▁technology	-9.95408
▁naime	-9.9542
▁Car	-9.95425
▁pacha	-9.95465
▁fine	-9.95541
▁reko	-9.95547
▁Con	-9.95561
aro	-9.9561
ñøhø	-9.95624
▁lost	-9.95625
▁required	-9.95706
ké	-9.9579
▁tep	-9.95966
▁chí	-9.95988
miki	-9.95999
rusti	-9.96086
abo	-9.96171
▁discussion	-9.96198
▁Although	-9.96225
▁Chaymi	-9.96255
▁rawé	-9.96318
▁kepaukua	-9.96367
▁ä	-9.96386
▁jainxon	-9.96436
chihua	-9.96484
▁evidence	-9.9651
mar	-9.96557
▁lo	-9.96658
▁head	-9.96715
ul	-9.96722
amp	-9.96741
raqui	-9.96803
▁Che	-9.96856
kunaqa	-9.96863
▁commitment	-9.96922
▁Asia	-9.96944
▁manam	-9.97017
▁#	-9.97067
▁Ama	-9.97101
▁material	-9.97118
▁jawékibo	-9.97137
aña	-9.97163
tjja	-9.97175
toc	-9.97323
▁hanja	-9.9735
▁India	-9.97443
▁Bar	-9.97448
▁Eiro	-9.97559
▁training	-9.97572
▁ikaxbi	-9.97597
▁nxadi	-9.97612
mon	-9.97653
▁hold	-9.97698
▁gi	-9.9772
▁ikax	-9.97743
▁nge	-9.97844
catl	-9.97852
gó	-9.97885
▁list	-9.97902
6	-9.97927
▁justice	-9.97951
▁Or	-9.9803
ise	-9.9816
ipa	-9.98186
▁agreed	-9.98221
▁kuna	-9.98291
▁price	-9.98307
newa	-9.98457
▁reach	-9.98525
▁chu	-9.98555
▁beginning	-9.98608
xeiya	-9.98626
▁statement	-9.98635
▁majua	-9.98635
▁okanta	-9.98662
▁consumers	-9.98698
nú	-9.98721
is	-9.98725
shaman	-9.98726
▁looking	-9.98774
▁balance	-9.98778
▁former	-9.98787
▁Cha	-9.98868
▁potential	-9.98873
▁treatment	-9.98873
xcá	-9.98967
▁carried	-9.99008
eapohára	-9.99057
▁ŕe	-9.9909
▁teipa	-9.99205
▁W	-9.99227
▁kame	-9.99247
ché	-9.99293
▁brothers	-9.99347
▁iketian	-9.99388
▁getting	-9.99396
▁kikin	-9.99406
▁já	-9.99411
▁nepa	-9.99424
▁toward	-9.99441
▁yëkkuö	-9.99476
▁apostle	-9.99494
▁else	-9.99545
wo	-9.99586
▁sequinoc	-9.99673
ñemano	-9.99709
▁achieved	-9.99784
▁century	-9.99801
▁completely	-9.9983
bá	-9.99833
▁communication	-9.99905
▁ttsë	-10
nakax	-10.0001
▁raised	-10.0005
▁Ucatsti	-10.0005
▁ö	-10.0016
▁wëm	-10.0016
tz	-10.0017
▁run	-10.0018
▁thousands	-10.0024
▁iri	-10.0027
▁kawsa	-10.0033
ac	-10.0035
apo	-10.0039
▁katli	-10.0043
▁jero	-10.0044
▁tawari	-10.0049
▁mahets	-10.0059
rus	-10.0061
▁led	-10.0064
▁considered	-10.0067
▁Tempa	-10.0069
.”	-10.0072
apxäna	-10.0075
▁increasing	-10.0081
▁Mexico	-10.0089
▁felt	-10.0089
ual	-10.0104
▁According	-10.0106
ilhui	-10.0106
▁irosati	-10.0113
▁sum	-10.0121
▁central	-10.0127
▁hmunts	-10.0131
▁Mekiku	-10.0138
▁From	-10.014
▁instead	-10.0145
▁simple	-10.015
▁amount	-10.0157
▁goes	-10.0157
▁pashini	-10.0159
▁oi	-10.0169
▁Indeed	-10.0187
▁2011	-10.0187
▁reality	-10.0191
▁tuku	-10.0193
▁expect	-10.0194
▁Ngue	-10.0196
udi	-10.0205
kay	-10.0209
▁nixi	-10.0214
▁seem	-10.0215
▁rire	-10.0216
▁huge	-10.022
▁developed	-10.0228
▁jaoka	-10.0229
▁Ch	-10.023
▁excellent	-10.0232
▁Internet	-10.024
▁Lu	-10.0245
yeta	-10.0256
aco	-10.0258
▁Roma	-10.0258
tatsiri	-10.0262
▁crime	-10.0268
10	-10.0275
▁yanapa	-10.0276
▁offer	-10.0276
▁ambue	-10.0277
▁focus	-10.0278
▁forces	-10.0281
▁Lo	-10.029
▁tsiere	-10.0292
nchis	-10.0296
▁content	-10.0309
▁nayra	-10.0309
▁ban	-10.0313
▁eyes	-10.0314
▁consequences	-10.0315
▁cultural	-10.0319
ber	-10.0325
naki	-10.0329
▁animals	-10.0329
▁hag	-10.0334
ized	-10.0334
▁bö	-10.0342
véva	-10.0345
▁apo	-10.0345
▁Russian	-10.0349
▁kasqanta	-10.0361
uye	-10.0362
nakan	-10.0362
▁funding	-10.0365
▁Rights	-10.0373
hual	-10.0374
5	-10.0381
▁First	-10.039
▁Judá	-10.0393
▁direct	-10.0397
arie	-10.04
▁sound	-10.0402
▁ashi	-10.0405
mili	-10.0405
rica	-10.0412
▁Tu	-10.0415
▁prepared	-10.0416
ine	-10.0432
sö	-10.0434
▁Thus	-10.0438
aw	-10.0439
▁finally	-10.0439
▁sta	-10.0441
▁guehni	-10.0444
uku	-10.0446
rie	-10.0447
▁jawe	-10.0447
▁altepetl	-10.0449
mpo	-10.0452
kuq	-10.0452
▁allinta	-10.0454
▁trust	-10.0459
?"	-10.0461
▁Tetãvore	-10.0462
▁happen	-10.0466
▁ombo	-10.0467
▁higher	-10.0472
▁asta	-10.0483
▁expressed	-10.0492
▁begin	-10.0493
▁remains	-10.0504
time	-10.052
▁Tayta	-10.0526
▁priority	-10.0532
▁nation	-10.0536
tiro	-10.0536
jeita	-10.0536
▁Kay	-10.054
30	-10.0546
▁reached	-10.055
▁Paraguay	-10.0552
▁manq	-10.0556
▁anilime	-10.0569
chigo	-10.0574
▁confidence	-10.0576
▁ikatu	-10.0577
▁Ge	-10.0578
▁abiena	-10.0579
▁model	-10.0582
red	-10.0585
▁hína	-10.0587
yɛ	-10.0591
▁agenda	-10.0595
anik	-10.0596
san	-10.0613
▁effects	-10.0624
▁stage	-10.0625
▁oká	-10.0632
▁speech	-10.0633
ín	-10.0633
▁yatiy	-10.0633
▁myself	-10.0635
▁king	-10.0637
▁Are	-10.0639
▁inijuanti	-10.0642
▁cut	-10.0645
▁influence	-10.0646
liko	-10.0653
▁puri	-10.066
wak	-10.0662
aitame	-10.0666
▁tsu	-10.0675
▁ican	-10.0678
▁challenge	-10.068
▁African	-10.0681
▁peru	-10.0691
ndi	-10.0695
▁Convention	-10.0697
▁ground	-10.0702
▁Tetã	-10.0709
▁orekóva	-10.0714
▁guarantee	-10.0716
▁sustainable	-10.0721
▁dë	-10.0723
▁integration	-10.0729
▁Joapykuéra	-10.0733
▁tkö	-10.0735
▁rise	-10.0753
▁equal	-10.0754
W	-10.0757
▁hyo	-10.076
▁growing	-10.0765
llan	-10.0768
niki	-10.0772
▁tiempo	-10.0772
▁ojapo	-10.078
ori	-10.0794
▁kuiepa	-10.0797
▁dead	-10.0806
liztli	-10.0809
yol	-10.0814
▁draft	-10.0816
Laughter	-10.0825
▁aspects	-10.0829
▁jene	-10.0833
▁regards	-10.0841
▁near	-10.0845
hni	-10.0848
▁xei	-10.0853
▁easy	-10.0857
ación	-10.0857
tö	-10.0859
▁ija	-10.0861
▁established	-10.0861
▁olo	-10.0862
▁marca	-10.0864
▁assistance	-10.0869
▁inter	-10.0875
Te	-10.088
▁caused	-10.0882
▁yoho	-10.0889
tini	-10.0894
▁Greek	-10.0898
▁terrorism	-10.09
▁Ichaqa	-10.0902
▁despite	-10.0906
▁rura	-10.0908
▁joint	-10.0914
▁prices	-10.0915
▁paita	-10.0918
▁qo	-10.0918
▁morning	-10.0922
▁address	-10.0924
▁kanè	-10.0925
▁jurío	-10.0926
▁ipo	-10.0929
huica	-10.0929
▁sänwa	-10.0929
▁shown	-10.0932
▁fall	-10.0935
▁xodyo	-10.0939
twa	-10.094
▁Not	-10.0941
▁takes	-10.0944
▁mé	-10.0945
▁Distrito	-10.0946
▁enable	-10.0961
▁pachakwata	-10.0967
▁stability	-10.0967
▁sometimes	-10.0967
▁hma	-10.0974
▁party	-10.0974
▁disease	-10.0984
▁riká	-10.099
achi	-10.0992
▁suti	-10.0997
▁beyond	-10.0999
▁ikanta	-10.1001
▁presented	-10.1005
ring	-10.1016
▁walja	-10.1019
▁quiilhui	-10.1022
▁desire	-10.1026
kraë	-10.1035
▁sea	-10.1037
yan	-10.1037
▁Nato	-10.1038
▁hours	-10.1047
kö	-10.1049
▁art	-10.1055
▁mention	-10.1062
▁congratulate	-10.1073
▁opportunities	-10.1077
ated	-10.1079
▁kuit	-10.1081
▁piko	-10.1086
lan	-10.1088
▁jac	-10.1088
▁onan	-10.1096
▁tic	-10.1108
▁Maria	-10.1114
▁uta	-10.1116
▁irointi	-10.1117
øt	-10.1122
▁machí	-10.1125
▁f	-10.1126
▁marriage	-10.1127
id	-10.1133
ff	-10.1134
▁solidarity	-10.1144
▁Nacional	-10.1148
▁stress	-10.115
▁understanding	-10.1151
▁visit	-10.1158
▁israelita	-10.1159
▁room	-10.116
▁authority	-10.1161
▁German	-10.1163
▁learned	-10.1164
▁tasi	-10.1166
▁Wé	-10.1169
os	-10.1174
▁challenges	-10.1175
▁Aka	-10.1175
zque	-10.1176
▁sha	-10.118
▁victims	-10.1185
▁farmers	-10.1187
▁culture	-10.1189
▁total	-10.1191
▁adopt	-10.1192
▁xika	-10.1195
▁aparoni	-10.1205
▁transparency	-10.1206
▁ná	-10.1213
▁waste	-10.1215
▁stated	-10.1217
▁opposition	-10.1218
▁ù	-10.122
▁masque	-10.1221
▁existing	-10.1224
▁nisqa	-10.1226
▁activity	-10.1227
kunapi	-10.1229
nk	-10.1236
▁enjoy	-10.1242
▁gives	-10.1246
▁crucial	-10.1252
▁Japan	-10.1256
mej	-10.126
▁document	-10.1268
▁Chinese	-10.1269
▁tini	-10.1271
▁nulalí	-10.1275
▁practical	-10.1279
nman	-10.1282
▁request	-10.1286
pó	-10.1287
▁ap	-10.1294
▁Nations	-10.1299
▁j	-10.1301
▁mayni	-10.131
▁ii	-10.1312
▁probably	-10.1315
▁oka	-10.1318
V	-10.1319
▁Jerusalem	-10.1321
▁ex	-10.1326
ā	-10.1327
Jaoka	-10.1329
▁ukax	-10.133
▁tsepa	-10.1335
▁didn	-10.1338
▁22	-10.134
▁niwa	-10.1345
▁carry	-10.1349
▁sacerdote	-10.1349
▁ainbo	-10.1349
sin	-10.135
▁quinilhui	-10.1351
▁nde	-10.1354
▁27	-10.1354
▁member	-10.1362
▁fe	-10.1363
xie	-10.1364
▁Bank	-10.1365
▁contribution	-10.1368
uy	-10.1369
▁pä	-10.1377
▁Central	-10.1379
▁proper	-10.1381
▁anyone	-10.1381
▁yä	-10.1382
▁consumer	-10.1383
▁produce	-10.139
taanan	-10.1394
▁benefits	-10.1397
▁phaxsin	-10.1398
▁December	-10.14
▁50	-10.1412
taqmi	-10.1413
▁International	-10.1417
▁task	-10.142
▁imayna	-10.1433
▁Ts	-10.1435
No	-10.1436
▁gra	-10.1441
▁pleased	-10.1448
ápe	-10.1451
tuabi	-10.1454
biribi	-10.1455
▁relation	-10.1455
▁levels	-10.1462
▁powers	-10.1465
▁iwà	-10.1472
▁blog	-10.1473
▁circumstances	-10.1477
taqa	-10.1478
▁Party	-10.1485
▁aña	-10.1492
ven	-10.1493
▁British	-10.1494
▁skéie	-10.1495
▁allowed	-10.1496
▁Qutanaka	-10.1498
kaya	-10.1502
▁kari	-10.151
ẽme	-10.151
síriga	-10.1511
▁Cu	-10.1513
▁fire	-10.1516
▁speaking	-10.1518
tapa	-10.1523
▁month	-10.1528
▁jucha	-10.1531
aixia	-10.1532
▁maintain	-10.1533
▁rí	-10.1539
Ha	-10.1546
ashi	-10.1554
shire	-10.1557
▁encourage	-10.1567
bɛfi	-10.1568
▁Santa	-10.1569
▁laws	-10.1569
▁story	-10.1571
▁regime	-10.1572
ró	-10.1572
▁pachpa	-10.1573
▁tha	-10.1575
rqanku	-10.1577
▁nirqa	-10.1581
▁event	-10.1582
ble	-10.1584
ue	-10.1584
DE	-10.1586
▁israelitame	-10.1586
▁connection	-10.1589
wöbla	-10.159
▁23	-10.1592
rentsi	-10.1593
▁2008	-10.1603
lepa	-10.1608
▁technical	-10.1609
ving	-10.1614
▁ikí	-10.1616
▁legislative	-10.1619
oma	-10.162
▁Francisco	-10.1629
▁Iran	-10.1633
cia	-10.1633
▁previous	-10.1635
ster	-10.1636
rac	-10.1641
50	-10.1648
▁accepted	-10.1651
▁pure	-10.1652
▁York	-10.1655
nata	-10.1658
▁bojä	-10.1659
ndo	-10.1663
▁sort	-10.1666
▁Ì	-10.1667
▁Q	-10.1671
rux	-10.1672
▁joy	-10.1672
▁zan	-10.1683
▁papa	-10.1686
▁jut	-10.1697
▁Moreover	-10.1698
▁mʉdi	-10.1703
▁kö	-10.171
▁nímala	-10.1712
▁application	-10.1717
▁families	-10.172
▁labour	-10.172
▁company	-10.172
▁included	-10.1731
▁shi	-10.1732
anta	-10.1736
▁Tatitux	-10.174
thi	-10.1743
▁000	-10.1747
ritsitu	-10.1748
▁complete	-10.1759
▁Jawiranaka	-10.1768
▁ala	-10.1768
▁provisions	-10.1769
listli	-10.1773
▁nelía	-10.1773
õ	-10.1778
▁profeta	-10.178
▁hands	-10.178
▁anqui	-10.178
vy	-10.1786
▁sonqo	-10.1786
▁Kristo	-10.1786
tawa	-10.1787
▁aminami	-10.1791
▁Páulo	-10.1795
▁King	-10.1795
awix	-10.18
▁Galilea	-10.1808
▁iña	-10.1816
▁kingdom	-10.1817
▁llaqta	-10.1823
▁students	-10.1826
▁calls	-10.1826
▁parts	-10.1827
▁Father	-10.183
▁helped	-10.1833
▁iyo	-10.1836
met	-10.184
▁mukí	-10.1843
kwa	-10.1843
▁markan	-10.1854
led	-10.1855
▁conclusion	-10.1856
áva	-10.1859
ron	-10.1862
▁kuti	-10.1866
▁Fund	-10.1867
▁truly	-10.187
▁suffering	-10.1871
sati	-10.1872
▁axon	-10.1872
riri	-10.1873
bó	-10.1881
▁Amendment	-10.1883
▁otaq	-10.1885
▁tsika	-10.1886
eve	-10.19
▁colleagues	-10.1901
▁Republic	-10.1902
▁nayan	-10.1902
asti	-10.1904
▁voice	-10.1912
▁sh	-10.1914
▁jatianra	-10.1915
▁meetings	-10.1917
▁Tatitu	-10.1919
▁Hi	-10.192
▁note	-10.192
mea	-10.1925
wöta	-10.1933
▁mochí	-10.1933
▁supply	-10.1938
▁office	-10.195
▁Those	-10.1951
▁Satan	-10.1958
▁skà	-10.1963
Office	-10.1968
▁Qui	-10.197
taque	-10.197
▁requirements	-10.1975
▁wak	-10.1982
cti	-10.1983
▁Such	-10.1988
▁Jatianra	-10.199
▁becoming	-10.1992
▁Argentina	-10.1993
▁kam	-10.1998
▁strengthen	-10.1999
yaj	-10.2006
R	-10.2029
▁space	-10.2033
▁diché	-10.2036
▁abé	-10.2037
sqan	-10.2047
mpiw	-10.2049
+'+	-10.2055
land	-10.2059
▁tonali	-10.2062
ajj	-10.2067
noxon	-10.209
▁kaniri	-10.2091
▁ilhuicac	-10.2098
ex	-10.2101
▁husband	-10.2103
erã	-10.2104
tian	-10.2104
▁keská	-10.2116
riya	-10.2124
▁add	-10.2126
▁cross	-10.2126
▁type	-10.213
▁comments	-10.2132
▁pei	-10.2133
yetiri	-10.2134
▁Son	-10.2136
its	-10.2138
▁extent	-10.2146
La	-10.2154
▁quiijto	-10.2166
yamai	-10.2173
ario	-10.2183
▁hmuntsi	-10.2187
▁debt	-10.2188
▁decide	-10.2194
▁cameetsa	-10.2195
▁weeks	-10.2196
▁40	-10.22
nacan	-10.2202
ué	-10.2202
▁conduct	-10.2203
▁rima	-10.2204
▁rekó	-10.2204
▁unto	-10.2205
ning	-10.2205
▁General	-10.2207
▁written	-10.2208
▁tojuanti	-10.2211
nátili	-10.2221
mpe	-10.2227
▁sayt	-10.2233
yøde	-10.2236
▁ariorica	-10.2238
▁mai	-10.224
lti	-10.2248
lin	-10.2251
uxa	-10.2251
▁external	-10.2257
▁Directive	-10.2262
ũ	-10.2264
quin	-10.2264
▁Yes	-10.2265
▁dalöiëno	-10.2266
▁namely	-10.227
▁fair	-10.2272
ally	-10.2275
▁sué	-10.2279
▁attitude	-10.228
▁review	-10.228
yoq	-10.2281
wit	-10.2285
▁Dada	-10.2286
▁kkö	-10.229
▁Luis	-10.2292
io	-10.2297
tax	-10.2303
▁ability	-10.2306
▁chaymi	-10.2322
▁gas	-10.2323
ista	-10.2324
tï	-10.2327
▁timo	-10.2327
▁earlier	-10.2331
▁ijcuac	-10.2331
▁le	-10.2332
pon	-10.2332
▁provides	-10.2339
▁im	-10.2342
sis	-10.2342
▁affected	-10.2344
▁sia	-10.2347
▁active	-10.2347
▁fishing	-10.2348
▁voting	-10.2355
▁respond	-10.2357
▁nte	-10.2363
sano	-10.2363
▁hyandi	-10.2364
raya	-10.2366
bɛ	-10.2366
▁tase	-10.2367
▁peve	-10.2368
▁mankind	-10.2374
▁ara	-10.238
aqueri	-10.2389
▁knew	-10.2394
▁uch	-10.2397
▁added	-10.2398
nts	-10.24
▁chö	-10.2402
▁send	-10.2409
giti	-10.2413
▁hmä	-10.2413
tsit	-10.2419
▁North	-10.2426
▁ñane	-10.2428
▁source	-10.243
▁criteria	-10.2439
▁chayqa	-10.2448
mama	-10.2453
▁instance	-10.2454
▁runakunata	-10.2457
▁March	-10.246
▁regulations	-10.2463
ance	-10.2468
per	-10.2469
neka	-10.2472
▁bí	-10.2478
▁date	-10.248
▁dealing	-10.2482
▁wants	-10.2483
▁works	-10.2485
eti	-10.2485
ado	-10.2488
▁Cor	-10.2488
▁katini	-10.2493
matsi	-10.2495
nacajj	-10.2497
▁instruments	-10.2498
▁Jehova	-10.2499
uwa	-10.2505
▁Bu	-10.2512
▁June	-10.2518
▁Who	-10.2523
nqui	-10.253
▁jipe	-10.2533
ian	-10.2537
▁ñande	-10.2543
▁tried	-10.2546
▁2007	-10.255
▁laycu	-10.2551
▁pecha	-10.2552
ãnga	-10.2553
▁procedures	-10.2562
▁instrument	-10.257
tor	-10.2571
▁press	-10.2575
▁gä	-10.2579
hek	-10.2588
▁tete	-10.2591
▁additional	-10.2593
▁oho	-10.2595
▁nij	-10.2597
▁juma	-10.2599
▁campaign	-10.26
▁bë	-10.2606
yeri	-10.2607
▁published	-10.261
▁quimo	-10.2612
▁bit	-10.2612
sqanta	-10.2616
Ja	-10.2617
▁tomorrow	-10.2621
wanmi	-10.2621
▁fish	-10.2624
▁vi	-10.2627
kí	-10.2628
kuö	-10.2632
▁Will	-10.2634
▁establish	-10.2635
▁wata	-10.2639
lía	-10.2639
▁capacity	-10.264
▁requires	-10.2644
▁Pilato	-10.2645
▁aswan	-10.2645
ised	-10.2647
▁Human	-10.2649
▁kane	-10.2652
íva	-10.2653
ating	-10.2656
▁Dur	-10.2663
eta	-10.2665
▁www	-10.2667
▁illegal	-10.2668
ime	-10.2676
kiti	-10.268
▁wë	-10.2687
▁kopi	-10.2692
kie	-10.2693
▁page	-10.2695
bʉhʉ	-10.2697
ities	-10.2698
▁yourself	-10.2698
▁cun	-10.2699
nqaku	-10.2701
40	-10.2702
▁mekani	-10.2705
▁Non	-10.2706
▁criminal	-10.2708
▁alueka	-10.2717
▁mesko	-10.272
bak	-10.2721
▁exchange	-10.2727
▁accession	-10.2727
tatsi	-10.2729
▁Quirishito	-10.2732
▁Peter	-10.2732
▁dangerous	-10.2732
▁seek	-10.2738
J	-10.2739
▁possibility	-10.2742
▁memite	-10.2742
▁committed	-10.2747
ol	-10.2758
▁Tabilé	-10.2759
▁Ukampis	-10.2761
▁mochígame	-10.2771
▁ekkë	-10.2777
▁2000	-10.2784
▁worked	-10.2787
wiya	-10.2792
▁Pampa	-10.2798
▁catca	-10.2806
▁motion	-10.2809
▁failure	-10.281
▁seven	-10.281
shoko	-10.2821
▁resí	-10.2826
▁discussed	-10.2829
▁té	-10.2829
▁huajca	-10.2831
▁places	-10.2835
▁reyin	-10.2836
jca	-10.2837
▁mfa	-10.2848
▁reforms	-10.2849
▁ucasti	-10.2851
▁limited	-10.2857
squía	-10.286
▁juk	-10.2868
vis	-10.2872
▁applied	-10.2879
▁mank	-10.2885
▁bear	-10.289
rqaku	-10.2891
bya	-10.2902
▁forms	-10.2907
▁kepai	-10.2912
▁kene	-10.2914
▁Ukatsti	-10.2917
▁pin	-10.292
▁exercise	-10.2926
▁successful	-10.2928
▁changed	-10.2936
▁grow	-10.2937
▁iqui	-10.2938
▁Ñe	-10.2939
▁En	-10.2943
▁creating	-10.2943
▁none	-10.2943
▁died	-10.2944
▁jane	-10.2945
kuy	-10.2945
ñhʉ	-10.2951
▁iyë	-10.2952
▁January	-10.2958
▁Secondly	-10.2966
awa	-10.2966
▁Here	-10.2977
cio	-10.2977
ship	-10.2979
▁Well	-10.2984
▁cities	-10.2985
▁choice	-10.2988
ronki	-10.2988
▁official	-10.299
▁100	-10.2995
▁millions	-10.2995
▁28	-10.2995
▁seyoc	-10.2998
iba	-10.2999
▁preaching	-10.3
▁beni	-10.3002
tiwa	-10.3005
▁church	-10.3007
▁hind	-10.301
▁tixa	-10.301
tlan	-10.301
ukiyari	-10.3025
akai	-10.3029
▁turned	-10.3033
▁intla	-10.3033
H	-10.3033
▁tunka	-10.3034
▁male	-10.3037
pjja	-10.3042
▁damage	-10.3046
▁discuss	-10.3046
ías	-10.3048
▁itsipapee	-10.3048
▁travel	-10.3051
▁Catholic	-10.3052
▁Wi	-10.3053
echi	-10.3053
▁sulitane	-10.3054
ces	-10.3056
yqa	-10.3062
kuaa	-10.307
▁hingi	-10.307
raq	-10.307
lè	-10.3074
and	-10.3075
▁ukan	-10.3078
▁Another	-10.3078
▁wila	-10.3082
ō	-10.3084
▁Umi	-10.3089
yë	-10.309
▁icanta	-10.3093
▁rich	-10.3095
▁chátiri	-10.3104
▁organisations	-10.3106
▁uqhamaraqui	-10.3113
▁onanti	-10.3113
▁wal	-10.3117
▁2006	-10.3118
▁oshi	-10.312
tí	-10.3124
wat	-10.3137
▁joibo	-10.314
▁die	-10.3144
▁interesting	-10.3146
▁III	-10.3147
▁wöbla	-10.3152
▁Man	-10.3156
▁absolutely	-10.3156
kat	-10.3157
▁hønsɛ	-10.3159
▁holy	-10.3165
▁directly	-10.3167
▁sign	-10.3168
▁shke	-10.3169
kuru	-10.317
▁threat	-10.3172
der	-10.3175
ire	-10.3177
▁Ucampis	-10.3178
▁moral	-10.318
▁2010	-10.318
▁2005	-10.3185
kun	-10.3186
,000	-10.3192
hára	-10.3197
▁shirampari	-10.32
kuni	-10.3201
▁jupa	-10.3201
▁qawa	-10.3203
mein	-10.3205
▁Jose	-10.3207
00	-10.3208
▁produced	-10.3209
▁Ká	-10.3209
jquej	-10.3211
▁tá	-10.3212
▁comment	-10.3216
liz	-10.3218
▁partners	-10.3219
▁attack	-10.3228
▁noja	-10.3238
▁businesses	-10.3241
ze	-10.3242
tili	-10.3247
▁chaski	-10.3251
▁supported	-10.3265
▁exist	-10.3274
▁front	-10.3276
▁late	-10.3279
▁handi	-10.3279
▁letter	-10.3281
köl	-10.3285
▁Ireland	-10.3287
mate	-10.3288
▁Egypt	-10.3291
▁scientific	-10.3291
▁sub	-10.33
▁li	-10.3302
▁Janiw	-10.3302
▁Furthermore	-10.3307
kati	-10.331
ad	-10.331
▁highly	-10.3311
▁26	-10.3311
▁package	-10.3312
sej	-10.3317
▁unemployment	-10.3318
rusa	-10.3327
▁status	-10.3328
▁industrial	-10.3331
▁siwa	-10.3332
▁initiatives	-10.3338
edi	-10.3341
tac	-10.3342
▁St	-10.3345
▁quinequi	-10.3347
▁ideas	-10.335
rö	-10.3357
▁kept	-10.3361
▁pep	-10.3371
nó	-10.3373
▁hatun	-10.3375
▁disciples	-10.3379
▁calli	-10.338
machi	-10.338
▁organization	-10.3387
▁Dr	-10.3389
▁humans	-10.3389
▁thanks	-10.3391
▁kiane	-10.3392
rd	-10.3395
▁priorities	-10.3395
▁atipana	-10.3397
▁individuals	-10.34
tika	-10.3409
▁steps	-10.3414
▁tú	-10.3414
cahua	-10.3426
▁wahetsie	-10.3427
take	-10.3429
chan	-10.3433
▁nulá	-10.3436
▁melahuac	-10.3438
▁habu	-10.3439
▁clean	-10.3447
rojj	-10.3451
tes	-10.3453
▁cheka	-10.3454
tama	-10.3458
▁election	-10.3461
▁tlaca	-10.3467
▁Ji	-10.3469
▁Lord	-10.3469
▁lower	-10.3472
▁measure	-10.3475
▁increasingly	-10.3477
▁Take	-10.3477
▁bodies	-10.3489
▁Greece	-10.3494
▁cohesion	-10.3494
▁calling	-10.3496
▁Fa	-10.3497
▁Iraq	-10.3498
▁built	-10.35
▁Most	-10.3502
▁num	-10.3502
ãva	-10.3505
▁brother	-10.3509
▁hunt	-10.3511
▁neraga	-10.3521
▁ñoqa	-10.3525
▁kati	-10.3526
▁Mary	-10.3529
▁gain	-10.3536
▁Development	-10.3537
ei	-10.3538
kam	-10.3538
▁faithful	-10.3548
jtoque	-10.355
▁politics	-10.3552
▁plant	-10.3556
▁nígame	-10.3559
▁September	-10.3563
▁friend	-10.357
▁Just	-10.3571
▁providing	-10.3573
▁deep	-10.3574
▁Tsame	-10.3578
▁seriously	-10.358
saq	-10.359
▁nait	-10.3594
▁Social	-10.3598
aque	-10.3598
▁memi	-10.3598
huatl	-10.3599
▁assessment	-10.3601
▁president	-10.3604
tä	-10.3608
▁ehe	-10.3609
▁mì	-10.3612
▁Italy	-10.3614
▁implement	-10.3615
▁leading	-10.3627
itsikame	-10.3632
llu	-10.3634
▁familia	-10.3634
▁followed	-10.3638
neri	-10.3638
ize	-10.3638
▁mía	-10.364
▁ní	-10.3642
▁neither	-10.3642
ware	-10.3643
▁require	-10.3644
▁ejperégame	-10.3648
jei	-10.3649
▁wonder	-10.3649
▁ikana	-10.3651
▁Jacob	-10.3653
▁ndu	-10.3654
▁uyari	-10.3658
▁ahead	-10.3663
▁Tatitojj	-10.3664
cue	-10.3669
rakitö	-10.3676
▁continued	-10.3676
kara	-10.3678
apjjäna	-10.3678
▁More	-10.3682
▁tempa	-10.3684
9	-10.3685
▁rates	-10.3691
▁parl	-10.3692
▁Ibon	-10.3692
▁goal	-10.3693
▁tunca	-10.3694
̂	-10.3696
npi	-10.3699
▁borders	-10.3699
▁jaì	-10.3702
▁buy	-10.3706
▁spoke	-10.3706
Tsika	-10.3706
▁relating	-10.3707
▁tabled	-10.3709
▁neka	-10.371
▁counsel	-10.3711
▁contribute	-10.3711
▁iixpa	-10.3712
▁Miguel	-10.3717
▁Santiago	-10.3717
▁independent	-10.3722
▁2012	-10.3722
▁Avincatsarite	-10.3723
▁Nevertheless	-10.3723
▁table	-10.3724
kunamanta	-10.3727
ketian	-10.3729
▁medium	-10.3729
▁Ce	-10.373
▁irinti	-10.3733
erieka	-10.3741
▁West	-10.3742
▁Min	-10.3743
▁japi	-10.3743
▁anilichi	-10.3745
tati	-10.3748
▁rete	-10.375
kunayuqmi	-10.376
▁oin	-10.3761
▁29	-10.378
▁sexual	-10.378
▁outcome	-10.3784
▁class	-10.3793
▁spent	-10.3793
▁Mä	-10.3801
▁oba	-10.3806
▁medical	-10.3808
▁powerful	-10.3808
▁Ibo	-10.3809
▁border	-10.3811
▁uywa	-10.3812
▁jiw	-10.3816
▁critical	-10.3823
mby	-10.3824
▁olá	-10.3826
▁ava	-10.3829
rima	-10.3831
▁record	-10.3834
▁burden	-10.3836
▁reference	-10.3839
zi	-10.3841
ngu	-10.3842
▁ukasti	-10.3848
▁servants	-10.3852
ps	-10.3855
▁chance	-10.3855
▁court	-10.3856
▁jupar	-10.3859
ging	-10.3862
▁kanqa	-10.3867
▁emissions	-10.3867
▁paid	-10.3867
▁asking	-10.3868
▁monitoring	-10.387
▁Spanish	-10.3874
▁origin	-10.388
▁nochipa	-10.3883
cta	-10.3892
▁product	-10.3893
70	-10.3894
▁kan	-10.3902
lica	-10.3902
line	-10.3915
Jawe	-10.3917
rate	-10.3918
iyaritsie	-10.3924
▁concept	-10.3926
▁0	-10.393
are	-10.3937
▁ancient	-10.394
sho	-10.3945
▁mochi	-10.3947
▁ukampis	-10.3953
nde	-10.3958
▁Prime	-10.3959
▁agriculture	-10.3962
▁budgetary	-10.3964
▁Ex	-10.3965
▁manner	-10.397
▁views	-10.3973
▁años	-10.3976
▁enter	-10.3977
▁sun	-10.3978
▁presidency	-10.3978
▁Apa	-10.3982
▁represent	-10.3985
▁çan	-10.3986
▁xij	-10.3989
▁quichihua	-10.3989
ries	-10.3991
aman	-10.3992
▁implemented	-10.3994
chari	-10.3994
▁Yejhua	-10.3995
▁Ukat	-10.3999
▁protest	-10.4004
dor	-10.4004
pt	-10.4009
▁physical	-10.4011
▁2004	-10.4011
bestho	-10.4013
▁(*	-10.4013
▁drugs	-10.4016
▁ŕi	-10.4017
▁tsá	-10.4024
▁teaching	-10.4025
ulewa	-10.4025
▁tsinane	-10.4035
era	-10.4036
tai	-10.4039
▁Ikaxbi	-10.404
ction	-10.4041
▁ready	-10.4044
▁peerani	-10.405
pit	-10.4051
▁nai	-10.4054
▁hipat	-10.4054
nic	-10.4056
▁failed	-10.4058
▁níima	-10.4062
▁credit	-10.4064
▁combat	-10.4066
▁suffer	-10.4068
awi	-10.4069
▁Meeca	-10.4069
▁related	-10.4072
Pi	-10.4077
▁prison	-10.4078
pé	-10.4079
▁cameetsatatsi	-10.408
aje	-10.4081
▁strength	-10.4086
▁mɛ	-10.4091
▁brain	-10.4092
▁orake	-10.4093
▁immediately	-10.4093
▁discussions	-10.4094
▁fiscal	-10.4095
▁Spain	-10.4095
rame	-10.4096
oc	-10.4096
▁ñä	-10.4097
▁xete	-10.4099
▁Am	-10.41
▁negative	-10.4106
▁fo	-10.4106
age	-10.4108
cui	-10.411
▁jey	-10.4112
ehe	-10.4113
▁amuyt	-10.4114
pabi	-10.4117
▁ir	-10.4119
▁hetsiena	-10.4119
▁wakin	-10.4123
▁innovation	-10.4128
▁consideration	-10.4137
ntari	-10.4137
ñehe	-10.4138
▁useful	-10.4141
▁yaqha	-10.4143
den	-10.4148
▁effectively	-10.4149
ization	-10.4149
▁exactly	-10.4152
▁mant	-10.4154
▁kapuynin	-10.4156
▁Carlos	-10.4162
▁Esúsika	-10.4167
▁alí	-10.4172
▁aba	-10.4173
midya	-10.4173
▁muwa	-10.4176
▁representatives	-10.4178
pero	-10.4179
▁summit	-10.4179
▁plans	-10.4179
▁loving	-10.4179
▁amojuanti	-10.418
▁interested	-10.4191
▁infrastructure	-10.4195
0	-10.4196
▁greatest	-10.42
▁worse	-10.4201
▁Their	-10.4202
▁ancha	-10.4207
iko	-10.4209
▁yachachi	-10.4211
▁2001	-10.4211
tij	-10.4214
▁false	-10.4216
isation	-10.4222
▁rabé	-10.4225
▁narori	-10.4232
▁conclude	-10.4233
▁tame	-10.4235
▁taypin	-10.4235
▁haihára	-10.4236
▁mokõi	-10.4237
▁jonin	-10.4242
▁iroñaaka	-10.4246
njja	-10.4248
pata	-10.4256
▁pasa	-10.4259
▁November	-10.4263
▁expected	-10.4266
▁wide	-10.4267
▁Conference	-10.4269
▁solutions	-10.427
▁Un	-10.4273
▁reduction	-10.4277
▁immigration	-10.4286
ral	-10.4296
▁appear	-10.4297
▁ré	-10.4298
▁refer	-10.4298
pach	-10.4302
▁learning	-10.4303
▁1999	-10.4303
▁qu	-10.4304
nce	-10.4305
▁oquin	-10.4311
▁break	-10.4313
▁Antonio	-10.4314
▁prove	-10.4317
nc	-10.4318
▁oro	-10.4319
▁Chu	-10.4319
dy	-10.4319
▁ve	-10.432
▁partnership	-10.4326
huac	-10.4332
▁heitserie	-10.4333
▁okarati	-10.4339
▁music	-10.434
ner	-10.4344
-19	-10.4345
▁apostol	-10.4353
▁omba	-10.4357
tanaka	-10.4358
idad	-10.4358
eka	-10.436
▁difficulties	-10.4361
▁santo	-10.4363
▁nic	-10.4365
atsi	-10.4366
▁Wiköl	-10.4367
▁English	-10.4371
▁Daniel	-10.4371
▁setting	-10.4372
▁wañu	-10.4378
▁income	-10.438
tro	-10.4382
▁structural	-10.4383
kä	-10.4386
val	-10.4388
▁eat	-10.4389
▁correct	-10.4394
puni	-10.4395
añataqui	-10.4396
ibo	-10.4396
nakap	-10.4397
▁bar	-10.4402
▁program	-10.4403
▁contra	-10.4403
king	-10.4404
▁nocha	-10.441
▁original	-10.4419
ft	-10.4421
▁reported	-10.4426
▁pointed	-10.443
▁cover	-10.4433
cen	-10.4437
▁average	-10.444
▁alemi	-10.4442
▁approved	-10.4444
▁oko	-10.4446
fer	-10.4448
▁complex	-10.4451
▁merely	-10.4456
▁vision	-10.4456
80	-10.4461
ỹ	-10.447
▁raise	-10.4472
▁ī	-10.4472
▁mayu	-10.4476
ramo	-10.4476
▁jonibaon	-10.4476
▁ci	-10.4479
▁spend	-10.4481
▁limit	-10.4481
▁jupasti	-10.4483
▁couple	-10.4483
▁red	-10.4485
aru	-10.4488
▁kñ	-10.4488
tsata	-10.4491
▁shima	-10.4491
▁genuine	-10.4492
▁ministry	-10.4492
▁Western	-10.4493
▁science	-10.4496
▁kípu	-10.4498
▁hinx	-10.45
ising	-10.4501
kè	-10.4506
éi	-10.4512
L	-10.4512
tal	-10.4519
▁oja	-10.452
xu	-10.4521
ence	-10.4531
▁ucanaca	-10.4533
▁conference	-10.4533
pampa	-10.4534
▁union	-10.4534
▁sectors	-10.4535
▁jati	-10.4535
▁dalër	-10.4537
▁speed	-10.4537
▁yoiti	-10.4544
▁kó	-10.4544
yotl	-10.4547
ler	-10.4549
tui	-10.4554
▁killed	-10.4555
ntsi	-10.4556
▁October	-10.4556
▁jiway	-10.4561
nder	-10.4561
▁runaqa	-10.4563
pí	-10.4565
90	-10.4571
kë	-10.4573
▁oma	-10.4574
▁forget	-10.4574
mb	-10.4574
▁Aca	-10.4574
▁irp	-10.4576
▁danger	-10.458
kawa	-10.458
▁io	-10.4583
▁riógichi	-10.4586
▁chè	-10.4588
▁aimed	-10.4591
▁expression	-10.4593
ía	-10.4597
▁relevant	-10.4597
▁nsunda	-10.4598
▁popular	-10.4602
▁administration	-10.4603
▁quitla	-10.4605
60	-10.4605
▁heaven	-10.4615
▁catsini	-10.4621
for	-10.4623
iku	-10.4624
▁rewagachi	-10.4627
▁putting	-10.4628
▁spread	-10.4632
▁goods	-10.4633
▁door	-10.4637
▁presence	-10.4639
▁forced	-10.4643
▁National	-10.4644
▁forth	-10.4648
▁yachay	-10.4648
hue	-10.465
▁akana	-10.4652
▁moved	-10.4652
▁rural	-10.4653
▁pass	-10.4654
▁Middle	-10.4656
tlal	-10.4659
▁annual	-10.4659
kunawan	-10.4664
▁ikiane	-10.4664
▁closely	-10.4671
▁showed	-10.4673
▁banks	-10.4677
▁domestic	-10.468
▁timatsi	-10.4682
▁...	-10.4683
▁soul	-10.4684
tsu	-10.4689
▁pachapi	-10.4691
tantyari	-10.4691
▁mú	-10.4698
riki	-10.4698
▁Diosajj	-10.4701
▁nayajj	-10.4702
▁normal	-10.471
nija	-10.4711
▁fisheries	-10.4715
▁Scriptures	-10.4717
span	-10.4719
yeti	-10.4719
▁31	-10.4723
▁appreciate	-10.4726
nè	-10.4731
▁ukham	-10.4737
▁Diosmanta	-10.4743
(	-10.4744
▁Isaac	-10.4744
▁appeal	-10.4745
▁item	-10.475
▁øthʉ	-10.4754
▁Your	-10.4756
uki	-10.4756
tra	-10.4759
▁firm	-10.476
▁lose	-10.4766
nátame	-10.4768
jeitanaque	-10.4769
▁Paraguái	-10.4772
▁eye	-10.4774
▁test	-10.4776
yeteri	-10.4777
ɛ	-10.4777
▁senen	-10.4778
bí	-10.4781
ists	-10.4783
sma	-10.4783
▁Justice	-10.4793
wélala	-10.4794
jeitaqueri	-10.4798
hé	-10.4801
▁secret	-10.4803
▁kuya	-10.4804
▁usually	-10.4807
▁listen	-10.4809
▁mitz	-10.481
▁remind	-10.481
▁Rosa	-10.4812
▁closer	-10.4813
▁top	-10.4817
▁referred	-10.4817
bin	-10.4817
▁yök	-10.4818
▁network	-10.4822
▁Ttè	-10.4824
▁yehuatl	-10.4827
▁destruction	-10.4829
▁najkí	-10.4829
▁rupive	-10.4833
axi	-10.4833
▁practices	-10.4843
▁convinced	-10.4843
side	-10.4844
▁Diosmi	-10.4846
sé	-10.4853
▁Latin	-10.486
netsi	-10.4863
▁explain	-10.4864
ward	-10.4867
▁soldado	-10.4867
kiro	-10.4872
▁mengu	-10.4874
ski	-10.488
▁risks	-10.4882
▁Does	-10.4882
anti	-10.4884
ep	-10.4884
▁shared	-10.4886
oti	-10.4894
mic	-10.4896
▁Hmuhʉ	-10.4896
▁tape	-10.4897
▁stay	-10.4898
▁participation	-10.4901
▁oñembo	-10.4905
ies	-10.4906
▁2002	-10.4909
▁perfect	-10.4918
arika	-10.4919
▁*	-10.492
▁gone	-10.4925
pä	-10.4926
kunapas	-10.493
▁2003	-10.4932
▁officials	-10.4934
ors	-10.4935
ec	-10.4937
▁discrimination	-10.4938
pini	-10.4941
▁standard	-10.4942
▁angel	-10.4944
▁yajaya	-10.4949
▁py	-10.495
▁inon	-10.4951
▁jamfri	-10.4953
eke	-10.4953
▁witnesses	-10.4953
▁Instead	-10.4955
▁impossible	-10.4955
toca	-10.4956
quiti	-10.4957
▁doesn	-10.4958
▁ou	-10.4958
ñembi	-10.4961
wamete	-10.4961
vers	-10.4964
▁»	-10.4964
ip	-10.4965
▁wisha	-10.4966
▁Za	-10.4967
▁export	-10.4968
port	-10.4968
▁nayriri	-10.4974
▁inquitequi	-10.4974
▁Onorúgameka	-10.4975
▁inside	-10.4984
▁2013	-10.4987
tashi	-10.4989
▁considerable	-10.4989
chigó	-10.4993
▁picture	-10.4997
mieme	-10.4998
▁predica	-10.4998
▁yapa	-10.5001
▁Moisesi	-10.501
gé	-10.5011
caj	-10.5013
▁Mu	-10.5015
▁please	-10.5016
▁demands	-10.5016
▁properly	-10.5019
▁mani	-10.5021
▁safe	-10.5023
mela	-10.5025
ding	-10.5027
▁drug	-10.5029
ph	-10.5033
▁spending	-10.5035
boribi	-10.5036
▁provision	-10.504
úva	-10.5041
▁Church	-10.5041
▁born	-10.505
▁continues	-10.5051
▁Jews	-10.5053
▁yupaycha	-10.5055
▁datse	-10.5061
▁itla	-10.5061
▁strategic	-10.5067
▁black	-10.5068
▁kiekari	-10.5069
nsa	-10.5069
▁worth	-10.5073
▁economies	-10.5078
▁contrary	-10.5079
▁difference	-10.5084
▁Economic	-10.5084
▁daily	-10.5085
yø	-10.509
Pa	-10.5092
nmi	-10.5098
ren	-10.51
▁Mana	-10.5101
mʉ	-10.5102
▁choose	-10.5103
nanchis	-10.5103
▁wan	-10.5106
▁facing	-10.5109
pim	-10.5109
▁Twitter	-10.5114
▁coordination	-10.5115
raquiw	-10.5122
▁memu	-10.5127
tú	-10.513
▁currency	-10.5133
asin	-10.5139
▁Jesuspa	-10.5139
▁duty	-10.5145
▁mra	-10.5146
▁ngo	-10.5147
íri	-10.5148
▁jani	-10.515
▁aja	-10.5151
ichálila	-10.5152
▁adoption	-10.5159
▁precisely	-10.5161
▁lay	-10.5162
▁weapons	-10.5168
▁aty	-10.5168
cac	-10.5176
▁Federal	-10.5176
▁willing	-10.518
▁Babilonia	-10.5181
▁nirqan	-10.5181
▁designed	-10.5185
▁urge	-10.5189
▁nima	-10.5189
▁affect	-10.519
▁iskay	-10.519
▁pisi	-10.5193
▁competitiveness	-10.5202
▁xipabi	-10.5202
▁hese	-10.5208
tirori	-10.5212
boki	-10.5214
▁ayéna	-10.5215
▁Qu	-10.5222
shan	-10.5222
▁los	-10.5222
▁fund	-10.5222
▁heñói	-10.5225
▁Judea	-10.5226
tors	-10.5227
▁Ana	-10.5234
▁1,	-10.5239
▁jaqinaka	-10.5239
▁parliamentary	-10.5242
nco	-10.5243
▁kimsa	-10.5248
▁)	-10.525
pana	-10.5252
ihe	-10.5257
▁happening	-10.5264
▁jeri	-10.5268
▁biré	-10.5271
▁causes	-10.5281
▁efficiency	-10.5285
aqui	-10.5285
▁online	-10.5286
▁attempt	-10.5288
▁oñemo	-10.5292
▁jaskáakin	-10.5297
▁overall	-10.5298
qkuna	-10.53
▁sex	-10.5306
▁atl	-10.5313
▁Cho	-10.5318
▁Tohueyiteco	-10.5327
ave	-10.5327
▁condition	-10.5327
▁itztoc	-10.533
▁Irosati	-10.5332
▁Ukraine	-10.5333
bicho	-10.5333
▁wahepa	-10.5333
▁Ad	-10.5338
▁Naya	-10.5338
▁monetary	-10.5339
▁chunka	-10.5348
▁tapicha	-10.5351
▁Lima	-10.5357
▁fariseo	-10.5369
▁Ci	-10.5372
▁jakenaca	-10.5374
▁described	-10.5375
▁tábiri	-10.5377
já	-10.5377
▁jaa	-10.5379
▁feeling	-10.5387
▁miemete	-10.5387
▁dehe	-10.5387
nahuati	-10.5396
rmi	-10.5398
tĩ	-10.5399
▁Ndä	-10.54
▁improving	-10.5402
▁image	-10.5403
▁Péicha	-10.5404
▁sufficient	-10.5404
▁chuyma	-10.5406
▁ekí	-10.5407
▁bringing	-10.5409
▁wisdom	-10.5409
▁Sal	-10.5409
▁humanitarian	-10.5415
▁hetsie	-10.5416
▁heimana	-10.5418
ente	-10.5419
▁>	-10.5425
▁prayer	-10.5428
▁seeking	-10.5428
▁Simón	-10.5428
▁dada	-10.5433
▁yakha	-10.5436
para	-10.5438
▁loss	-10.5444
kiw	-10.5445
▁whatever	-10.5446
▁path	-10.5447
▁zu	-10.5452
▁Also	-10.5452
▁series	-10.5459
▁July	-10.5464
▁birth	-10.5466
▁pruwinsyapi	-10.5467
▁wise	-10.5469
▁knows	-10.5473
▁irio	-10.5475
▁piti	-10.5477
▁Amérikagua	-10.5479
▁scope	-10.5485
▁jema	-10.5488
▁thu	-10.5488
▁Mué	-10.5489
▁Law	-10.5489
▁Yahweh	-10.5492
▁pain	-10.5492
▁ensuring	-10.5498
yök	-10.5502
X	-10.5504
nanchik	-10.5511
rori	-10.5514
ets	-10.5516
▁claim	-10.552
▁eight	-10.5522
▁uqhama	-10.5524
▁meaning	-10.5525
▁advantage	-10.5529
jeiti	-10.5536
▁nina	-10.5539
bú	-10.5541
▁pur	-10.5542
▁thogui	-10.5542
▁video	-10.5542
▁Bilé	-10.5546
You	-10.5546
quis	-10.5548
▁nayar	-10.5548
kanon	-10.555
ain	-10.5555
ctli	-10.5559
▁Only	-10.5561
▁Israeli	-10.5562
▁llank	-10.5563
▁Pro	-10.5566
▁Security	-10.5569
▁Pre	-10.5569
▁chayta	-10.5574
away	-10.5576
one	-10.5577
▁April	-10.5582
▁ihuaya	-10.5584
▁tumini	-10.5585
▁passed	-10.5591
taxa	-10.5594
▁kirika	-10.56
▁Roman	-10.5604
tanaque	-10.5604
▁Arab	-10.5614
▁intervention	-10.5614
pax	-10.5617
▁explained	-10.5618
▁acts	-10.5618
▁ñämfo	-10.5621
fo	-10.5622
▁jche	-10.5623
▁generation	-10.5627
▁manda	-10.5628
niwa	-10.5632
▁Ara	-10.5634
▁mene	-10.5639
▁specifically	-10.5641
▁nayax	-10.5642
▁Alà	-10.5647
▁retãme	-10.5653
▁aspect	-10.5654
▁proved	-10.5656
▁commercial	-10.566
▁Agreement	-10.566
▁iken	-10.5661
itu	-10.5668
min	-10.5669
▁hue	-10.5671
▁chopa	-10.5674
▁offered	-10.5677
▁arsu	-10.5677
▁method	-10.568
▁yaxeik	-10.5681
▁supporting	-10.5685
▁ucampis	-10.5685
▁doctor	-10.5686
▁occasion	-10.5686
▁uraqi	-10.5696
ology	-10.5696
▁Upe	-10.5699
▁magazine	-10.57
▁Sha	-10.5705
▁tenda	-10.5706
aneni	-10.5708
▁languages	-10.5713
▁hä	-10.5716
▁kiri	-10.5717
▁guidelines	-10.5719
▁save	-10.5722
walí	-10.5727
▁pá	-10.5729
▁itomi	-10.5733
▁improved	-10.5737
▁onca	-10.5737
▁Wë	-10.574
▁minimum	-10.5745
▁Health	-10.5745
▁scale	-10.5745
▁inuköl	-10.5747
▁kasuku	-10.5749
hmu	-10.575
▁maya	-10.5753
▁Shi	-10.5756
▁īhuān	-10.5758
▁llaqtam	-10.576
▁fu	-10.576
▁helping	-10.5764
em	-10.5767
▁opening	-10.5772
▁oĩva	-10.5775
▁meme	-10.5775
tech	-10.578
utait	-10.578
takeri	-10.5781
▁faced	-10.5782
▁árape	-10.5783
▁jupan	-10.5785
ihu	-10.5786
▁juc	-10.5791
tanta	-10.5792
▁alternative	-10.5793
▁tey	-10.5795
▁appears	-10.5795
▁Liko	-10.5795
▁jupax	-10.5796
ture	-10.5799
▁Échi	-10.5804
ez	-10.5806
▁rightly	-10.5808
qua	-10.5808
▁Quemaj	-10.5808
bra	-10.581
nari	-10.581
▁nurá	-10.5813
▁institutional	-10.5814
▁moving	-10.5818
▁ukanak	-10.5822
▁tej	-10.5823
▁oinxon	-10.5823
▁structure	-10.5824
jeite	-10.5827
▁sources	-10.5829
▁candidate	-10.5833
▁ikon	-10.5834
atsie	-10.5834
iriri	-10.5835
▁defend	-10.5836
rdaë	-10.5847
▁péva	-10.5852
▁sumaq	-10.5853
pia	-10.5853
▁jaskáa	-10.5853
ī	-10.5855
▁yanta	-10.5856
▁youth	-10.5858
▁taught	-10.5862
▁iba	-10.5862
lf	-10.5862
yetiro	-10.5864
▁wè	-10.5865
piqa	-10.5867
▁piensa	-10.5867
lekeri	-10.5869
▁jiwi	-10.5869
jí	-10.5878
▁Unfortunately	-10.5884
▁traditional	-10.5886
▁sutiyuq	-10.5891
tsipa	-10.5892
▁ytoca	-10.5897
▁operation	-10.5898
▁regular	-10.5898
▁60	-10.5899
chka	-10.59
▁promoting	-10.5911
mer	-10.5921
▁Her	-10.5922
▁Moses	-10.5925
▁Tatituw	-10.5927
▁oinna	-10.5928
▁jaweki	-10.593
▁communities	-10.5931
▁staff	-10.5932
eme	-10.5941
▁kachi	-10.5944
▁lu	-10.5944
▁ák	-10.5946
izing	-10.5947
nel	-10.5948
▁Nochi	-10.5952
▁contact	-10.5955
▁%	-10.5955
aurie	-10.5962
▁elements	-10.5963
lachi	-10.5965
tat	-10.5966
▁largest	-10.597
om	-10.597
nakampi	-10.5971
In	-10.5971
▁rejcholi	-10.5978
▁size	-10.5981
▁chica	-10.5984
▁regret	-10.5984
▁westiora	-10.5984
▁inform	-10.5986
loc	-10.5988
▁karai	-10.5993
▁won	-10.5994
iva	-10.5997
▁LORD	-10.5998
▁Euro	-10.6001
ỹva	-10.6007
▁minister	-10.6007
▁trigo	-10.6008
▁motla	-10.6009
tsika	-10.6011
▁unable	-10.6013
▁ɛnxɛ	-10.6016
▁watch	-10.6017
▁naya	-10.6018
gen	-10.602
▁Tatit	-10.6021
tó	-10.6022
called	-10.6025
▁mass	-10.603
▁Yu	-10.6031
▁pio	-10.6034
▁conclusions	-10.604
acha	-10.6042
riwa	-10.6043
tel	-10.6045
▁cancer	-10.6047
▁ishi	-10.6047
▁mahyoni	-10.6053
▁munts	-10.6054
▁happens	-10.6054
tri	-10.6054
gí	-10.6056
▁hundreds	-10.606
katu	-10.6061
▁iwa	-10.6061
▁Facebook	-10.6065
▁beautiful	-10.6065
▁pankotsi	-10.6065
▁yesterday	-10.6072
▁michoë	-10.6072
▁tiya	-10.6076
▁Nza	-10.6076
▁intended	-10.6079
▁feet	-10.608
▁efficient	-10.608
sqanmanta	-10.6082
▁drawn	-10.6083
▁waik	-10.6084
▁Qullunaka	-10.6093
yero	-10.6095
taqui	-10.6095
ard	-10.6096
ditsö	-10.6097
▁enormous	-10.6099
▁asylum	-10.6099
▁Kosovo	-10.6106
uk	-10.611
jqui	-10.6111
▁walk	-10.6113
▁white	-10.6113
ud	-10.6115
xat	-10.6123
▁Uma	-10.6132
▁existence	-10.6134
▁Democrats	-10.6137
responsibilities	-10.614
year	-10.6142
▁Job	-10.6143
ino	-10.6143
▁feelings	-10.6144
▁fi	-10.6145
▁entirely	-10.6146
▁wijchimoba	-10.6147
van	-10.6154
▁niquin	-10.6157
▁differences	-10.6161
▁neskáakin	-10.6161
arieni	-10.6167
▁apytépe	-10.6168
▁Tatitur	-10.6169
▁ayllu	-10.6171
ribira	-10.6171
▁IV	-10.6172
▁balanced	-10.6182
”,	-10.6182
▁omoteneuh	-10.6185
▁astawan	-10.6188
▁disaster	-10.6188
▁studies	-10.6188
▁Gi	-10.6189
▁luqt	-10.6197
kunatapas	-10.6207
▁methods	-10.6208
▁ganíliga	-10.6209
▁broad	-10.6211
▁financing	-10.6212
nse	-10.6212
▁camfri	-10.6214
▁design	-10.6221
ligo	-10.6223
▁comp	-10.6224
▁reduced	-10.6225
▁Palestinian	-10.6225
nake	-10.6226
asïna	-10.6226
making	-10.6229
▁Italian	-10.6232
▁machi	-10.6234
▁bebon	-10.6236
▁unacceptable	-10.6237
▁tetãvore	-10.6237
▁huta	-10.6239
▁Ve	-10.624
▁introduced	-10.6244
▁represents	-10.6245
Ta	-10.6247
▁aski	-10.6249
▁yancuic	-10.625
▁hangu	-10.6258
▁sitting	-10.626
▁obviously	-10.6263
▁lies	-10.6266
hai	-10.6272
mbabi	-10.6274
▁favor	-10.6289
mini	-10.6292
hy	-10.6294
▁jawekibo	-10.6294
▁networks	-10.6295
14	-10.6297
▁pusi	-10.6298
▁mymba	-10.6299
rayku	-10.6303
▁paper	-10.6304
▁keen	-10.6308
▁lived	-10.631
▁maye	-10.6311
▁chonka	-10.6318
▁Firstly	-10.6324
▁seeing	-10.6328
▁corruption	-10.6329
▁ikanai	-10.6333
▁wicked	-10.6333
▁jila	-10.6334
▁Oshequi	-10.6334
rieka	-10.6334
▁noted	-10.6338
▁nica	-10.634
▁defence	-10.6341
▁colleague	-10.6342
▁books	-10.6343
pil	-10.6344
▁introduction	-10.6348
▁tumu	-10.6348
Ima	-10.635
▁Yi	-10.6351
▁qhawari	-10.6352
▁politicians	-10.6356
▁worldwide	-10.6356
▁Irish	-10.6359
▁urgent	-10.6362
cameetsa	-10.6365
tlali	-10.6366
tata	-10.6366
▁ocha	-10.6368
chus	-10.6372
25	-10.6375
rani	-10.6381
▁separate	-10.6382
hueyi	-10.6382
▁lurata	-10.6389
▁cawquïri	-10.639
▁round	-10.6391
vin	-10.6392
▁grant	-10.6396
▁cuajli	-10.6397
▁icantiri	-10.6397
▁mira	-10.6399
kiwa	-10.6403
▁Perhaps	-10.6404
▁degree	-10.6406
▁apite	-10.6409
▁ichaké	-10.6409
▁péicha	-10.6411
▁Policy	-10.6411
▁Yora	-10.6411
▁range	-10.6413
pun	-10.6413
▁discussing	-10.6413
karaiñe	-10.6416
▁ári	-10.6419
▁territory	-10.6425
▁peti	-10.6427
apxi	-10.6427
▁evening	-10.6428
▁cenca	-10.6428
▁includes	-10.643
▁ximo	-10.6431
▁analysis	-10.6432
tlaca	-10.6439
▁aré	-10.6443
▁laid	-10.6443
nchu	-10.6448
▁equality	-10.6448
▁elders	-10.6449
bata	-10.6452
▁Korea	-10.6452
taro	-10.6453
▁Macedonia	-10.6453
nátaga	-10.6453
kero	-10.6454
▁acceptable	-10.6456
▁Like	-10.6457
▁factors	-10.6459
▁reducing	-10.646
out	-10.646
▁unfortunately	-10.6462
wara	-10.6467
▁sons	-10.6471
▁fast	-10.6477
▁ibo	-10.648
▁ajtí	-10.6481
▁pat	-10.6481
kon	-10.6482
▁tari	-10.6487
wekai	-10.6487
▁cor	-10.6488
axon	-10.649
▁mexi	-10.6496
macja	-10.6496
▁win	-10.6501
kota	-10.6502
▁Saywitu	-10.6502
▁slow	-10.6506
via	-10.6506
▁jara	-10.6507
sɛ	-10.6507
nquir	-10.6509
▁team	-10.6509
▁abuse	-10.651
ypi	-10.6512
▁1.	-10.6523
▁axcan	-10.6525
yani	-10.6525
▁Mediterranean	-10.6525
nama	-10.6529
ken	-10.6531
ight	-10.6533
▁katuq	-10.6534
▁reyi	-10.6534
▁nearly	-10.6534
ãi	-10.6537
meh	-10.654
▁perspective	-10.6542
▁tamamata	-10.6552
▁promise	-10.6556
11	-10.6557
▁umba	-10.6558
▁Wikimedia	-10.6559
▁ucjja	-10.6563
▁generally	-10.6564
my	-10.6574
ávo	-10.6577
▁Alarigá	-10.6583
▁Green	-10.6583
▁UK	-10.6584
▁Huk	-10.6592
▁rama	-10.6594
▁yunaime	-10.6595
tine	-10.6602
▁Mexihco	-10.6602
▁Mēxihco	-10.6606
ping	-10.6609
pake	-10.6613
▁affairs	-10.6613
▁examples	-10.6614
▁strengthening	-10.6614
▁inchato	-10.6615
▁Creator	-10.6617
▁impo	-10.6626
▁jakiribi	-10.6627
apxam	-10.6628
▁imagine	-10.6631
▁avirori	-10.6631
▁propose	-10.6636
▁attacks	-10.6637
▁contains	-10.6637
noxiki	-10.6638
▁ichéitö	-10.6641
▁floor	-10.6645
▁Manuel	-10.6645
▁paha	-10.6647
▁tonal	-10.6647
jeitiri	-10.665
▁Nor	-10.665
▁sides	-10.665
▁introduce	-10.665
▁judgment	-10.6651
cy	-10.6653
▁traffic	-10.6659
▁television	-10.666
▁upépe	-10.6664
car	-10.6665
▁hérava	-10.6671
lle	-10.6673
▁looked	-10.6675
▁vaerã	-10.6675
▁board	-10.668
raki	-10.668
▁Irootaque	-10.6681
▁crowd	-10.6681
ged	-10.6684
▁Constitution	-10.6684
▁bana	-10.6693
▁Great	-10.6693
ncha	-10.6697
male	-10.6697
▁layku	-10.6697
▁metro	-10.6697
▁competitive	-10.6697
▁wiñay	-10.6699
ned	-10.6702
▁solve	-10.6704
▁kíti	-10.6705
▁Jainxon	-10.6707
▁chaynataq	-10.6707
▁decades	-10.6709
▁placed	-10.6715
ò	-10.6717
▁showing	-10.672
antsi	-10.672
▁kal	-10.6724
▁older	-10.6729
▁carefully	-10.673
▁timieme	-10.6731
▁write	-10.6735
▁dé	-10.6735
▁criticism	-10.6739
▁Dí	-10.6742
▁chiqa	-10.6744
▁sit	-10.6744
▁administrative	-10.6746
▁guarã	-10.6747
▁obvious	-10.6748
▁oime	-10.675
▁reasonable	-10.6752
▁delegation	-10.6754
Q	-10.6754
quea	-10.6755
encia	-10.6756
▁xu	-10.6759
▁Alawala	-10.6761
ny	-10.6765
▁upéicha	-10.6765
▁independence	-10.6768
▁hora	-10.677
▁fighting	-10.6776
pasti	-10.6776
shita	-10.6779
sqankuta	-10.678
▁blu	-10.6781
▁lokt	-10.6784
▁camfrihʉ	-10.6786
▁voi	-10.6788
▁recognise	-10.679
▁chú	-10.6791
▁tlali	-10.6792
▁starting	-10.6792
▁kie	-10.6796
▁fail	-10.6799
IT	-10.68
mari	-10.6805
ably	-10.6809
amani	-10.6809
ýva	-10.6811
▁righteous	-10.6811
▁construction	-10.6812
▁meant	-10.6813
▁&	-10.6817
tantari	-10.6818
▁yoba	-10.682
▁kiekaritsie	-10.682
▁nimitz	-10.682
uri	-10.6823
guru	-10.6823
▁iuh	-10.6825
▁figure	-10.6829
api	-10.6831
unj	-10.6833
ura	-10.6836
▁cal	-10.6837
▁covered	-10.6839
quï	-10.684
▁batse	-10.684
▁fuel	-10.6841
▁continent	-10.6841
▁keeping	-10.6846
▁Itonal	-10.685
ntero	-10.6851
▁nuua	-10.6853
yki	-10.6857
ñataqmi	-10.6861
ngo	-10.6865
▁base	-10.6868
nacasti	-10.6873
▁ampara	-10.688
▁iamax	-10.688
▁altar	-10.6886
▁arms	-10.6894
▁uku	-10.6894
▁actual	-10.6896
▁bijchiá	-10.69
▁Where	-10.6903
▁rikch	-10.6906
▁target	-10.6906
kunam	-10.6907
▁berá	-10.6909
▁tecpatl	-10.6915
▁honourable	-10.6916
▁nócha	-10.6917
ability	-10.6918
▁peka	-10.6921
▁paqarisqa	-10.6922
▁enomí	-10.6922
keri	-10.6925
▁Hall	-10.6925
▁ttsé	-10.6927
mine	-10.6928
▁transfer	-10.6929
▁secure	-10.693
▁High	-10.693
▁kaman	-10.6931
▁chimí	-10.6933
macac	-10.694
▁ñu	-10.6944
eriet	-10.6948
xjua	-10.6949
notza	-10.6953
▁Foreign	-10.6959
▁servi	-10.6959
▁Brazil	-10.696
huaj	-10.6962
▁diseases	-10.6964
neltoc	-10.6965
isa	-10.6965
▁nimech	-10.6966
weni	-10.6966
▁recognition	-10.6967
▁unga	-10.6967
▁(2	-10.6969
▁Ary	-10.6971
▁Despi	-10.6971
▁easier	-10.6974
use	-10.6975
▁enterprises	-10.6975
▁Regulation	-10.6982
Commons	-10.6982
▁totally	-10.6986
▁semáriga	-10.6989
bɛgo	-10.6991
▁llapa	-10.6993
mete	-10.6994
▁Sea	-10.6994
▁strongly	-10.6995
▁easily	-10.6997
uyu	-10.6998
▁aririka	-10.7002
▁species	-10.7004
▁vino	-10.7004
isi	-10.7012
▁hearing	-10.7015
▁niraga	-10.7019
▁tamanti	-10.702
yé	-10.7024
maka	-10.7025
▁determined	-10.7025
▁expenditure	-10.7026
17	-10.7026
ē	-10.7028
▁establishing	-10.703
▁temple	-10.7032
teki	-10.7037
una	-10.7039
yó	-10.704
▁vaca	-10.7044
▁wökirpa	-10.7044
▁planet	-10.7046
ld	-10.7047
▁nóchali	-10.7048
▁heavenly	-10.7049
European	-10.705
▁mainly	-10.7053
▁tkër	-10.7053
kunan	-10.7054
▁tembiapo	-10.7055
▁Adam	-10.7056
▁rejected	-10.7058
▁otimi	-10.7066
jeiteri	-10.7069
▁yoiwe	-10.7072
nanku	-10.7075
fu	-10.7078
▁comprehensive	-10.7079
▁accordance	-10.7079
▁waranqa	-10.7083
▁wörki	-10.7087
▁establishment	-10.7091
▁johya	-10.7092
yatsie	-10.7092
mɛhni	-10.7094
▁Par	-10.7095
sqayki	-10.7104
19	-10.711
▁minutes	-10.7113
pxäna	-10.7114
▁tend	-10.7118
tle	-10.7124
▁reflect	-10.7126
▁mapo	-10.7126
▁managed	-10.7126
arieka	-10.7136
ntiri	-10.7139
▁Summit	-10.7139
paru	-10.7144
▁answers	-10.7144
▁chicahuac	-10.715
▁game	-10.7152
tive	-10.7155
ñi	-10.7157
har	-10.7159
▁Du	-10.716
▁metztli	-10.7164
yuq	-10.7165
▁grateful	-10.7169
▁refugees	-10.7169
▁bilena	-10.717
▁experienced	-10.7172
▁factor	-10.7174
▁”?	-10.7174
▁ob	-10.7175
!"	-10.7177
▁tecatsi	-10.7177
wing	-10.7178
▁eté	-10.7182
▁becomes	-10.7184
▁Brussels	-10.7184
▁oike	-10.7185
▁Ben	-10.7186
all	-10.7187
ngui	-10.7188
▁repeat	-10.7191
chó	-10.7191
▁figures	-10.7192
▁ijqui	-10.7194
nare	-10.7197
apini	-10.7198
nacampi	-10.7198
▁wait	-10.7201
xonra	-10.7202
▁sé	-10.7205
15	-10.7206
▁Herodes	-10.7208
▁offering	-10.7209
▁chaypi	-10.7214
▁dó	-10.7217
▁Martin	-10.7221
▁ambitious	-10.7222
▁meteni	-10.7225
yetatsiri	-10.7227
▁aqui	-10.7228
û	-10.723
▁extend	-10.7231
▁Pin	-10.7234
uximayatsika	-10.7236
▁hit	-10.7237
▁goals	-10.7238
▁February	-10.7238
cagui	-10.724
▁producers	-10.7245
▁akham	-10.7248
kunaman	-10.7249
ky	-10.7251
ço	-10.7253
▁1990	-10.7254
pro	-10.7257
bal	-10.7259
nemi	-10.7261
▁lines	-10.7262
▁emphasise	-10.7262
kuspa	-10.7264
▁kill	-10.7267
▁nirá	-10.7269
titlan	-10.7276
gro	-10.7276
▁mañaku	-10.7279
▁hipame	-10.7284
▁hyanda	-10.7291
jama	-10.7292
ndu	-10.7294
▁Ña	-10.7296
▁hinam	-10.7298
ified	-10.7298
resa	-10.73
▁associated	-10.7302
▁pende	-10.7302
▁developments	-10.7307
▁married	-10.7309
▁train	-10.7309
▁masá	-10.731
▁churin	-10.7315
▁yuh	-10.7316
▁extra	-10.7319
▁mexica	-10.7328
xei	-10.7328
▁Epáña	-10.733
▁tayta	-10.7331
▁niru	-10.7332
ñam	-10.7334
▁1998	-10.7338
▁mate	-10.7341
▁wind	-10.7352
▁running	-10.7354
iz	-10.7356
▁datsi	-10.7357
▁ante	-10.7358
▁declared	-10.736
▁tamí	-10.7366
▁xekene	-10.7371
taqueri	-10.7375
ray	-10.7376
▁panta	-10.7376
▁thuts	-10.7379
▁plants	-10.738
ñan	-10.7381
▁sí	-10.7383
▁qullqi	-10.7384
▁implementing	-10.7386
▁teach	-10.7388
▁Xuua	-10.7392
nal	-10.7397
▁talks	-10.7397
▁sis	-10.7397
uya	-10.7398
▁pollution	-10.7399
▁safeguard	-10.74
▁hmanda	-10.7401
▁ucajj	-10.7402
▁patients	-10.7406
▁(1	-10.7406
▁2009	-10.7407
jan	-10.7411
▁documents	-10.7412
▁battle	-10.7417
wati	-10.7418
teyurie	-10.7419
▁tlal	-10.742
▁hua	-10.7421
win	-10.7421
imo	-10.7422
▁Joseph	-10.7425
▁hucha	-10.743
▁Pan	-10.7437
▁Timoteo	-10.7438
▁applies	-10.7438
▁spoken	-10.7439
▁treat	-10.7439
▁ike	-10.7441
tzon	-10.7441
▁Jesusqa	-10.7442
ãhára	-10.7443
kax	-10.7446
▁advice	-10.7446
▁baptized	-10.7446
▁commitments	-10.7451
▁concrete	-10.7454
asiña	-10.7456
▁Public	-10.7462
▁ñi	-10.7464
▁race	-10.7466
ments	-10.747
aruw	-10.7474
▁citizen	-10.7477
▁technologies	-10.7477
▁utt	-10.7485
▁tse	-10.7489
▁iwé	-10.7493
▁definition	-10.7493
98	-10.7498
▁vakapipopo	-10.7501
▁ācatl	-10.7501
kita	-10.7502
▁meyu	-10.7507
▁teko	-10.7507
▁jaki	-10.7508
▁honor	-10.7509
ded	-10.7509
TA	-10.7511
tting	-10.7513
xata	-10.7514
▁comfort	-10.7515
ikuaa	-10.7516
▁Jewish	-10.7516
▁girl	-10.7517
wani	-10.7518
▁weight	-10.7522
nen	-10.7522
tay	-10.7524
porã	-10.7527
▁situations	-10.7527
ification	-10.7536
▁scientists	-10.7536
dihʉ	-10.7536
▁finance	-10.754
▁patient	-10.7541
▁Enra	-10.7544
▁ought	-10.7544
▁Per	-10.7544
anan	-10.7545
quixti	-10.7547
▁signed	-10.7547
▁ittökatapa	-10.7549
thapi	-10.755
13	-10.7552
▁bla	-10.7553
tory	-10.7554
▁labor	-10.7555
tzinco	-10.7556
naypaq	-10.7562
▁ánjeli	-10.7563
▁TV	-10.7564
▁VI	-10.7566
oki	-10.757
▁approval	-10.7579
poca	-10.7585
ngi	-10.7587
▁serving	-10.7587
▁element	-10.7589
based	-10.7589
▁gawí	-10.759
rqani	-10.7593
ére	-10.7596
kite	-10.7598
kka	-10.7599
maca	-10.7599
▁2.	-10.7602
▁lliw	-10.7603
▁immediate	-10.7605
jam	-10.7606
▁njaua	-10.7607
mbu	-10.761
▁holding	-10.7613
▁oikóva	-10.7615
▁paragraph	-10.7616
tiyu	-10.7617
ajeiteri	-10.7618
▁dimension	-10.7619
ica	-10.7622
▁chika	-10.7623
▁governance	-10.7627
▁mʉi	-10.7627
▁cast	-10.7628
▁inmech	-10.7631
▁hanaq	-10.7633
▁Vyretáña	-10.7635
▁kacha	-10.7636
▁Over	-10.764
▁ŕo	-10.7641
▁jepe	-10.7642
▁Alekeri	-10.7647
jcahua	-10.7649
▁overcome	-10.7652
▁oreko	-10.7652
▁uva	-10.7655
▁ipi	-10.7658
▁wine	-10.7664
phi	-10.7666
▁uñacht	-10.7666
▁warm	-10.7671
saká	-10.7671
apjjam	-10.7673
▁jesús	-10.7674
▁idir	-10.7675
▁jawekeska	-10.7675
▁kampa	-10.7679
▁WTO	-10.7683
▁nejé	-10.7684
▁attend	-10.7685
▁granted	-10.7685
unchay	-10.7686
toque	-10.7686
▁Fo	-10.769
tía	-10.7691
▁200	-10.7698
cayo	-10.7701
▁newspaper	-10.7701
unt	-10.7705
rita	-10.7706
chane	-10.7712
▁Rey	-10.7713
▁camp	-10.7716
sunman	-10.7716
cent	-10.7717
yamipa	-10.7717
▁kawsay	-10.7721
▁opened	-10.7722
▁recognize	-10.7723
▁opyta	-10.7723
nola	-10.7725
ø	-10.7727
uma	-10.773
▁opposed	-10.7735
▁utanaka	-10.7735
▁Diosax	-10.7736
▁Ipan	-10.7736
▁1997	-10.7739
uch	-10.7748
roma	-10.775
▁iñe	-10.7753
▁peaceful	-10.7753
▁army	-10.7757
▁cells	-10.7759
az	-10.776
▁encouraging	-10.7763
▁sheep	-10.7763
▁pani	-10.7764
▁70	-10.7766
▁wealth	-10.7766
▁ohecha	-10.777
▁hour	-10.777
▁Pakistan	-10.7772
col	-10.7772
game	-10.7772
▁amuy	-10.7775
▁ipampa	-10.7778
▁eventually	-10.778
▁hinan	-10.7782
▁witness	-10.7785
▁tiniwarutah	-10.7785
nque	-10.7786
▁Ac	-10.7787
▁mawá	-10.7789
▁anime	-10.7793
▁achieving	-10.7795
baonra	-10.7795
▁iyaws	-10.7801
▁punchaw	-10.7802
▁libro	-10.7803
▁explains	-10.7806
▁w	-10.781
▁mark	-10.7812
naro	-10.7813
▁nisa	-10.7813
▁elected	-10.7815
▁entiende	-10.7815
▁deliver	-10.7815
▁Fe	-10.7815
-20	-10.7816
▁timatsiri	-10.7817
▁informed	-10.7818
lar	-10.7818
▁intention	-10.7819
▁tōnalli	-10.7819
▁pädi	-10.7819
aja	-10.782
....	-10.7825
▁promised	-10.7828
▁churigá	-10.7828
▁areko	-10.7831
jli	-10.7833
meta	-10.7835
▁realize	-10.7846
▁tema	-10.7848
▁symbol	-10.7848
▁bank	-10.7849
▁Nayriri	-10.7851
▁GDP	-10.7852
▁purposes	-10.7853
▁addressed	-10.7854
ES	-10.7854
eki	-10.7855
én	-10.7856
tsixi	-10.7856
▁rabi	-10.7857
▁island	-10.7857
▁Samuel	-10.786
mpiri	-10.7863
échi	-10.7868
nxon	-10.7869
uc	-10.7869
run	-10.7872
▁aims	-10.7874
▁continuing	-10.7876
▁sara	-10.7878
▁fraud	-10.7879
▁thousand	-10.7881
▁otherwise	-10.7884
▁sanctions	-10.7887
▁Chayna	-10.7889
oca	-10.789
▁tlacamej	-10.7892
▁nílige	-10.7893
▁Israelites	-10.7893
▁react	-10.7899
ýpe	-10.7899
kata	-10.79
▁consensus	-10.7908
▁reject	-10.791
▁Felipe	-10.7911
bel	-10.7913
▁check	-10.7916
▁reken	-10.7917
▁oveja	-10.7919
▁rain	-10.792
lur	-10.7924
▁tinitah	-10.7927
▁yoinabo	-10.7929
piya	-10.7929
raka	-10.793
lco	-10.793
utiyuat	-10.7931
pic	-10.7931
nos	-10.7934
eva	-10.7938
▁piña	-10.7942
▁zofo	-10.7942
jti	-10.7944
▁payqa	-10.7945
▁osa	-10.7946
▁treated	-10.7947
▁ø	-10.7947
sized	-10.795
▁à	-10.7951
▁nampitsi	-10.7954
▁emphasis	-10.7954
Be	-10.7955
▁kàl	-10.7957
stro	-10.7962
machti	-10.7964
tura	-10.7964
yon	-10.7965
raquiwa	-10.7965
▁happiness	-10.7966
▁janiraquiw	-10.7967
tlahtōlli	-10.7968
▁simile	-10.7972
▁xobonko	-10.7976
xeiyani	-10.7977
16	-10.7979
▁apt	-10.798
▁quimati	-10.7984
vent	-10.7985
▁personally	-10.7987
▁jumanacajj	-10.7988
xqui	-10.7989
betan	-10.7992
tiuh	-10.7994
▁ukaxa	-10.7997
▁opurahéiva	-10.7999
▁janirakiw	-10.8
▁professional	-10.8001
▁$	-10.8002
mó	-10.8002
nakar	-10.8003
▁Day	-10.8008
▁ukhama	-10.8015
▁conscience	-10.8015
▁linked	-10.8016
qta	-10.8022
▁Zidadahʉ	-10.8023
tana	-10.8024
by	-10.8026
▁gite	-10.8027
sto	-10.8028
tawan	-10.803
▁witsi	-10.803
▁tōchtli	-10.8032
▁fruit	-10.8032
▁ad	-10.8034
▁sensitive	-10.8035
▁director	-10.8035
▁nsu	-10.8036
▁search	-10.8037
°	-10.8039
cäna	-10.8042
manmi	-10.8043
añataki	-10.8043
tantsi	-10.8045
▁sata	-10.8047
▁alá	-10.8047
ther	-10.8047
ntyari	-10.8048
▁leader	-10.805
dal	-10.805
▁wökir	-10.8051
▁gri	-10.8054
▁meke	-10.8055
▁trouble	-10.8057
▁fiero	-10.8057
tap	-10.8059
▁judicial	-10.806
ador	-10.8061
Bʉ	-10.8063
▁Quena	-10.8063
▁nubyá	-10.8066
txa	-10.8066
▁itsipa	-10.8071
▁computer	-10.8072
hä	-10.8073
▁inti	-10.8076
▁oñepyrũ	-10.8076
ions	-10.8077
▁compared	-10.8077
▁August	-10.8078
▁hets	-10.808
▁Israelan	-10.8081
▁resolve	-10.8082
mor	-10.8083
▁gua	-10.8086
kanta	-10.8086
ante	-10.8086
▁dänga	-10.8087
pxi	-10.8088
▁menia	-10.809
▁tiwa	-10.809
ser	-10.809
▁böl	-10.8093
▁contrast	-10.8094
▁drink	-10.8094
▁tiempopi	-10.8099
gov	-10.8099
▁wetsabo	-10.8101
▁Brasil	-10.8101
sco	-10.8106
▁agencies	-10.8106
▁□	-10.8106
jtoya	-10.8109
▁miemetexi	-10.8109
rieni	-10.8111
▁miles	-10.8111
▁finding	-10.8114
▁mandate	-10.8115
▁Under	-10.8116
▁obligations	-10.8118
tlaj	-10.8118
▁yamipa	-10.8121
▁onanke	-10.8123
▁tlahuel	-10.8123
▁yʉt	-10.8124
▁planning	-10.8124
▁Eli	-10.8126
▁tiquin	-10.8129
▁universal	-10.8131
▁standing	-10.8132
cayotl	-10.8133
▁ysyry	-10.8133
12	-10.8137
▁Portugal	-10.8138
▁nokame	-10.8139
▁heavy	-10.814
▁sinta	-10.814
▁makué	-10.8141
▁Onorúgamete	-10.8141
tita	-10.8143
▁heko	-10.8143
rro	-10.8144
há	-10.8149
▁consultation	-10.815
▁riku	-10.815
yama	-10.8153
▁piece	-10.8153
▁Don	-10.8154
▁Yë	-10.8154
▁struggle	-10.8156
▁release	-10.8157
RI	-10.8159
ĩ	-10.8161
▁tka	-10.8161
▁uelis	-10.8163
FR	-10.8165
▁walt	-10.8166
tsua	-10.8166
▁permanent	-10.8167
▁feed	-10.8172
▁kiekatari	-10.8173
▁deeply	-10.8174
▁tree	-10.8175
▁Saúl	-10.8175
ora	-10.8175
▁imaa	-10.8176
▁hnequi	-10.8177
▁mat	-10.8179
▁Ngu	-10.8184
nate	-10.8187
ako	-10.819
reko	-10.8191
tos	-10.8193
teyu	-10.8195
▁bokana	-10.8198
naykipaq	-10.8199
ixa	-10.8199
▁qua	-10.8199
▁tkë	-10.8202
▁35	-10.8202
nsti	-10.8204
▁qh	-10.8204
▁Z	-10.8206
▁iwe	-10.8206
▁achi	-10.8207
▁nuga	-10.8207
▁numbers	-10.8209
▁askha	-10.8209
▁users	-10.8211
▁touch	-10.8213
▁Har	-10.8213
wesi	-10.8213
▁ix	-10.8214
▁keska	-10.8214
0,000	-10.8221
▁ñanarentsi	-10.8223
▁Aitaque	-10.8223
nequi	-10.8225
petay	-10.823
▁ó	-10.823
▁(3	-10.8233
▁Ver	-10.8233
▁via	-10.8234
sare	-10.8239
▁Turkish	-10.824
▁institution	-10.8242
▁middle	-10.8244
iwama	-10.8246
▁hospital	-10.8249
tiyuriene	-10.8253
▁peẽme	-10.8253
▁mouth	-10.8254
18	-10.8255
▁town	-10.8257
nili	-10.8257
▁kuimba	-10.8258
▁gʉ	-10.8259
simi	-10.8262
▁waiting	-10.8263
▁played	-10.8265
anaque	-10.8266
▁ik	-10.8267
▁reply	-10.8274
▁iva	-10.8275
quiz	-10.8275
▁announced	-10.8276
▁mochiuh	-10.8277
▁casta	-10.8278
▁anmech	-10.8278
▁homes	-10.8279
▁vai	-10.828
▁Poland	-10.8284
▁gohi	-10.8285
▁zø	-10.8286
ban	-10.8286
▁dealt	-10.8289
▁tlahtohuani	-10.8291
▁participate	-10.8292
ári	-10.8293
▁grí	-10.8294
▁amech	-10.8295
01	-10.8295
▁boja	-10.8295
▁green	-10.8296
▁writes	-10.83
▁brings	-10.8301
▁author	-10.8303
▁huts	-10.8307
▁daughter	-10.831
wn	-10.8312
nza	-10.8315
▁acha	-10.8317
cauh	-10.8319
cul	-10.832
_	-10.8325
kök	-10.8326
▁statements	-10.8327
▁experts	-10.8329
chasqa	-10.8331
▁schools	-10.8332
▁Society	-10.8333
abi	-10.8336
cara	-10.8338
rta	-10.8338
waq	-10.834
ations	-10.834
▁Eastern	-10.8342
cur	-10.8343
istic	-10.8346
▁awin	-10.8347
▁Romania	-10.8348
▁Before	-10.835
▁leadership	-10.8351
▁prevention	-10.8352
▁simí	-10.8354
▁imo	-10.8358
▁apnak	-10.8359
▁aqham	-10.836
▁mil	-10.836
▁prepare	-10.8361
ý	-10.8361
sión	-10.8361
▁iklö	-10.8363
rachi	-10.8365
mara	-10.8365
▁1996	-10.8368
amti	-10.8371
▁thou	-10.8375
▁consumption	-10.8376
▁prophecy	-10.8376
▁sö	-10.838
▁wañusqa	-10.8385
▁itztoque	-10.8385
▁nemi	-10.8389
lor	-10.8389
só	-10.8389
dge	-10.839
mina	-10.839
▁pet	-10.8391
▁suffered	-10.8391
mán	-10.8395
▁ndaha	-10.84
▁píri	-10.84
▁lei	-10.8404
shin	-10.8408
▁op	-10.8413
tanaki	-10.8414
▁examine	-10.8415
▁jikxat	-10.8415
▁ttekölpa	-10.8415
▁Britain	-10.8419
▁Jesussen	-10.842
chwan	-10.842
▁quichihuaj	-10.8421
▁petay	-10.8422
▁mental	-10.8425
▁operate	-10.8425
▁leaving	-10.8428
▁numerous	-10.8428
▁galírale	-10.8428
▁Yn	-10.8428
war	-10.8432
▁nj	-10.8434
▁jaya	-10.8434
▁Judas	-10.8436
▁aleripa	-10.8436
▁pene	-10.8437
▁inspired	-10.8439
▁accident	-10.844
▁organisation	-10.844
▁site	-10.8442
▁ucat	-10.8445
▁looks	-10.8447
kui	-10.8451
▁transparent	-10.8453
▁Charter	-10.8454
▁liberal	-10.846
paruw	-10.8462
▁xeikía	-10.8463
nita	-10.847
▁ucan	-10.8471
▁Abi	-10.8473
▁hake	-10.8478
ykichis	-10.8478
▁capable	-10.848
tiu	-10.8481
▁promises	-10.8483
▁marcan	-10.8484
hña	-10.8486
▁yvate	-10.8492
▁convention	-10.8501
guasu	-10.8503
▁yvypóra	-10.8504
▁2011-2014	-10.8505
matl	-10.8511
▁targets	-10.8513
▁nimo	-10.8519
▁wonderful	-10.8521
▁seemed	-10.8521
nakat	-10.8521
wari	-10.8521
ẖu	-10.8523
op	-10.8524
zz	-10.8526
▁rapid	-10.8526
▁yum	-10.8526
niyoq	-10.8528
▁positions	-10.8529
riká	-10.853
▁Afghanistan	-10.8531
▁akanai	-10.8532
▁juman	-10.8532
▁osẽ	-10.8534
▁Witness	-10.8535
tajja	-10.8536
▁ethnic	-10.8536
▁nobi	-10.8538
▁Jerusale	-10.854
▁kimisha	-10.854
▁version	-10.854
▁sight	-10.8545
▁Environment	-10.855
▁nóchame	-10.8551
▁ukhamarak	-10.8554
▁hamu	-10.8555
97	-10.8556
▁vast	-10.8556
▁Va	-10.8559
▁Xa	-10.8561
chin	-10.8565
▁bloggers	-10.8568
▁pikota	-10.8572
▁center	-10.8574
▁atipanke	-10.8575
▁Trade	-10.8577
▁antaro	-10.8577
▁yol	-10.8581
yohʉ	-10.8581
▁stories	-10.8583
▁weak	-10.8584
ped	-10.8585
tih	-10.8585
▁yama	-10.8586
ible	-10.8592
eha	-10.8592
▁jaskati	-10.8592
▁yon	-10.8595
ben	-10.8598
▁playing	-10.8599
▁involving	-10.8601
▁welfare	-10.8601
▁improvement	-10.8601
▁film	-10.8602
▁reyix	-10.8603
▁praise	-10.8604
▁north	-10.8609
▁batamik	-10.861
▁suggest	-10.861
taje	-10.8613
▁kita	-10.8615
▁mechanism	-10.8615
▁prophet	-10.8616
▁ndí	-10.8617
21	-10.8618
huía	-10.8619
▁manage	-10.8619
yøthʉ	-10.862
yaritsie	-10.862
cahuili	-10.8621
▁nimantzi	-10.8623
▁Estado	-10.8624
▁sempa	-10.8629
▁Sara	-10.8636
▁sarnak	-10.8638
▁kuinie	-10.864
ría	-10.8643
uru	-10.8644
▁Fu	-10.8644
▁named	-10.8647
▁hap	-10.865
▁highest	-10.865
92	-10.8653
kak	-10.8653
▁destroyed	-10.8653
▁uqham	-10.8654
▁Way	-10.8654
▁apnaq	-10.8655
▁evil	-10.8656
▁jananekipe	-10.8656
▁Fi	-10.8661
▁thereby	-10.8661
Na	-10.8663
maika	-10.8663
▁drá	-10.867
88	-10.867
nxa	-10.867
▁ver	-10.867
Ca	-10.8673
▁sintla	-10.8675
▁unless	-10.8676
▁yoina	-10.8677
▁ship	-10.8681
▁eltoc	-10.8681
sú	-10.8687
▁accounts	-10.8692
▁loved	-10.8694
▁recovery	-10.8694
▁cen	-10.8696
ake	-10.8697
▁understood	-10.8698
chiuh	-10.8699
ical	-10.8699
▁University	-10.8699
▁jupajj	-10.8706
▁camanali	-10.8707
▁uadi	-10.871
▁luraña	-10.8712
▁mote	-10.8715
▁entitled	-10.8715
▁strange	-10.8715
▁reyejj	-10.8716
rakiw	-10.8717
▁London	-10.8724
▁violent	-10.8724
▁divine	-10.8724
utah	-10.8725
▁massive	-10.8725
▁carbon	-10.8725
yéna	-10.8728
yame	-10.8729
▁encouraged	-10.8731
▁Ze	-10.8733
▁membership	-10.8734
icatza	-10.8735
▁manaña	-10.8736
▁jilïri	-10.8737
▁zøhø	-10.8742
▁Taqi	-10.8743
▁irotake	-10.8745
ller	-10.8748
▁ucajja	-10.8749
▁blogger	-10.875
lio	-10.875
Imaynata	-10.875
▁employees	-10.8751
▁kare	-10.8751
▁mhää	-10.8751
atsiri	-10.8752
▁Canada	-10.8752
ota	-10.8759
▁constructive	-10.876
▁acknowledge	-10.8761
▁Joa	-10.8767
▁wër	-10.8779
▁served	-10.878
▁Pegro	-10.878
▁code	-10.878
lala	-10.878
▁Hence	-10.8783
▁tariku	-10.8783
ndy	-10.8784
▁hundred	-10.8794
yetakeri	-10.8794
rblé	-10.8795
▁um	-10.8796
▁combating	-10.8797
▁taqpach	-10.8797
▁tima	-10.88
▁raza	-10.88
▁jisa	-10.8801
chik	-10.8803
▁Bri	-10.881
bʉhni	-10.881
▁Gu	-10.8811
▁Indian	-10.8812
ágã	-10.8813
▁submitted	-10.8814
▁integrated	-10.8815
▁rö	-10.8817
▁super	-10.8818
▁crimes	-10.882
jeitaque	-10.882
yemisantaririnte	-10.8822
▁inflation	-10.8822
cani	-10.8824
▁Rather	-10.8824
69	-10.8824
ere	-10.8827
▁obtain	-10.8827
▁idi	-10.8828
▁ojapóva	-10.8831
▁kitule	-10.8831
▁peta	-10.8832
▁property	-10.8834
▁phaxsi	-10.8834
▁Emi	-10.8835
▁association	-10.8839
▁female	-10.884
▁ntsu	-10.8843
▁terrorist	-10.8845
▁runakunaqa	-10.8845
▁thy	-10.8846
EC	-10.8846
▁imatapas	-10.8847
border	-10.8848
ló	-10.8849
▁Awki	-10.885
▁involvement	-10.885
▁south	-10.8852
▁count	-10.8855
▁delay	-10.8856
▁pleasure	-10.8858
▁parla	-10.8858
▁mutual	-10.8862
ger	-10.8864
▁quiijtohua	-10.8864
▁alcohol	-10.8866
akeri	-10.8868
tema	-10.8869
▁Moa	-10.8869
▁unique	-10.8872
▁tembi	-10.8873
▁om	-10.8874
▁anointed	-10.8877
cari	-10.8877
yetero	-10.8879
▁Chile	-10.8881
▁pima	-10.8881
▁details	-10.8882
▁Watchtower	-10.8885
▁involve	-10.8885
▁hual	-10.8887
nkir	-10.8887
ration	-10.8888
toquili	-10.8891
▁wasi	-10.8891
▁link	-10.8891
kunapa	-10.8892
▁believed	-10.8893
▁Bolivia	-10.8894
tsti	-10.8895
▁ministers	-10.8897
▁Once	-10.8897
ykuna	-10.8898
háicha	-10.8899
▁López	-10.8903
▁járome	-10.8906
▁gender	-10.891
▁Au	-10.8912
bom	-10.8919
ada	-10.8921
aspa	-10.8921
▁júkó	-10.8922
PA	-10.8923
tsari	-10.8927
▁è	-10.8927
thó	-10.8929
nra	-10.8931
▁yokata	-10.8932
▁ill	-10.8932
▁Oje	-10.8936
kea	-10.8942
▁ñawpaq	-10.8942
rry	-10.8942
▁depend	-10.8946
max	-10.8946
aneme	-10.8947
▁kuña	-10.8948
▁signal	-10.8949
itz	-10.895
eriwa	-10.895
▁ojo	-10.8952
of	-10.8956
▁flexibility	-10.8957
▁namuti	-10.8966
rist	-10.8967
uel	-10.8968
jki	-10.8968
ntli	-10.8969
pampi	-10.897
mpita	-10.897
▁wai	-10.897
▁Nemachiyōtīlli	-10.8975
▁closed	-10.8977
niro	-10.8977
▁insist	-10.8982
▁behavior	-10.8984
▁changing	-10.8984
▁shkö	-10.8984
▁sulusi	-10.8984
zca	-10.8984
illa	-10.8985
▁Soviet	-10.8987
▁mane	-10.8988
▁sacrifice	-10.8989
tanaca	-10.899
▁courage	-10.899
tibo	-10.899
08	-10.8991
íchame	-10.8991
chkan	-10.8992
99	-10.8996
▁arrived	-10.8998
▁careful	-10.8999
▁recommendations	-10.9001
▁largely	-10.9001
▁valuable	-10.9002
▁Para	-10.9004
▁marcanaca	-10.9004
▁blind	-10.9004
▁latest	-10.9006
▁ralámulika	-10.9009
▁tells	-10.901
▁cheke	-10.9012
▁Sch	-10.9014
▁pota	-10.9016
▁España	-10.9021
▁fit	-10.9021
cat	-10.9021
▁command	-10.9022
▁Read	-10.9026
▁llapallan	-10.9027
tiku	-10.9028
▁radio	-10.9028
▁alaköl	-10.9029
▁limits	-10.9031
▁determine	-10.9031
▁Samaria	-10.9039
▁yemek	-10.9041
▁micro	-10.9043
▁followers	-10.9044
▁nemo	-10.9045
▁centuries	-10.9048
cá	-10.9049
ito	-10.9059
ýi	-10.906
▁meripai	-10.906
yet	-10.906
▁33	-10.9061
bre	-10.9062
▁kena	-10.9069
nanchispaq	-10.907
▁suyuxa	-10.9071
ncia	-10.9072
▁sue	-10.9076
▁saraquïnwa	-10.9083
▁las	-10.9084
▁identity	-10.9085
▁Moise	-10.9085
▁kinds	-10.9093
▁taheima	-10.9094
▁eliyaya	-10.9097
kaik	-10.9099
wichí	-10.9099
spanku	-10.91
▁piri	-10.9102
▁jeman	-10.9106
tar	-10.9106
anene	-10.9111
▁quita	-10.9111
wakai	-10.9111
▁tuqi	-10.9115
▁concluded	-10.9115
▁allows	-10.9116
sina	-10.9117
▁phone	-10.9117
▁partner	-10.9119
▁controls	-10.9122
▁Gua	-10.9128
ux	-10.9128
▁ohasa	-10.9129
▁Research	-10.9131
▁sovereignty	-10.9131
▁session	-10.9133
end	-10.9135
89	-10.9135
▁afraid	-10.914
▁biti	-10.914
▁ico	-10.914
▁tlama	-10.9142
▁priest	-10.9143
ene	-10.9144
kasai	-10.9146
▁historical	-10.9147
▁dapa	-10.9148
▁succeed	-10.9149
▁claims	-10.9151
íchili	-10.9152
▁bø	-10.9154
▁Ber	-10.9154
chtli	-10.9157
▁wishes	-10.9158
▁Espáña	-10.9158
mento	-10.9159
bua	-10.9159
tiy	-10.9162
apy	-10.9162
▁paka	-10.9168
▁articles	-10.9168
name	-10.9169
▁mawata	-10.917
▁gap	-10.9173
▁Que	-10.9174
▁chosen	-10.9175
mie	-10.9175
▁shinanya	-10.9179
▁substantial	-10.918
ataw	-10.9181
▁qhapaq	-10.9186
tique	-10.9189
anu	-10.9192
may	-10.9193
pajj	-10.9195
▁elis	-10.9195
▁era	-10.9198
▁detail	-10.9199
▁web	-10.9202
▁chayna	-10.9207
▁glad	-10.9208
boi	-10.9208
oh	-10.9211
▁Consider	-10.9214
▁waters	-10.9216
▁facts	-10.9218
▁kéturu	-10.9218
▁prefer	-10.9224
▁icanti	-10.9224
▁Life	-10.9226
▁imi	-10.9229
▁host	-10.9232
▁nubu	-10.9232
▁ītōca	-10.9233
▁James	-10.9234
▁initial	-10.9236
▁wasitat	-10.9238
toya	-10.9238
▁akaibo	-10.9239
lö	-10.924
▁dur	-10.924
gar	-10.9241
▁titla	-10.9241
▁healthy	-10.9241
▁unity	-10.9243
▁mechanisms	-10.9245
▁exists	-10.925
▁arrangements	-10.9251
▁Christendom	-10.9251
▁adequate	-10.9255
▁allowing	-10.9256
▁tools	-10.9257
▁surely	-10.9257
▁Mba	-10.9259
yman	-10.9259
ahe	-10.9259
▁Pri	-10.9259
▁drive	-10.926
▁trans	-10.926
▁driving	-10.9261
▁Without	-10.9262
▁kalö	-10.9262
▁wall	-10.9268
▁protecting	-10.9269
cant	-10.927
▁Ñandejára	-10.927
▁Gra	-10.927
▁kusisqa	-10.9271
▁returned	-10.9272
takix	-10.9272
▁Dis	-10.9273
▁jupanakax	-10.9274
▁reaction	-10.9275
▁suyuwa	-10.9276
▁mepe	-10.9277
24	-10.9279
▁mitã	-10.9281
▁kuxi	-10.9281
org	-10.9281
▁kui	-10.9288
▁revolution	-10.9288
▁color	-10.929
▁kachkan	-10.929
▁Mon	-10.9291
▁naki	-10.9291
▁vo	-10.9294
▁huriyutsixi	-10.9298
ẽva	-10.93
▁ané	-10.9301
▁opoña	-10.9302
▁constantly	-10.9303
yete	-10.9305
rix	-10.9307
▁ojokuaikuaáva	-10.9307
▁keskati	-10.9308
baka	-10.9309
nch	-10.9311
▁itztoya	-10.9312
añch	-10.9312
▁blúie	-10.9312
▁structures	-10.9314
▁Municipalidad	-10.9317
▁maine	-10.932
▁customs	-10.9321
nene	-10.9322
▁kunan	-10.9322
▁jaoca	-10.9328
dad	-10.9328
▁warning	-10.9329
quiw	-10.9332
apki	-10.9335
▁appreciation	-10.9336
▁kanih	-10.9336
▁Ministers	-10.9337
lic	-10.9338
▁sister	-10.9339
camanal	-10.9341
nada	-10.9342
▁goho	-10.9343
▁Pay	-10.9343
▁niutay	-10.9349
kú	-10.9351
sur	-10.9351
neni	-10.9352
asanot	-10.9352
maya	-10.9353
▁regularly	-10.9354
huitl	-10.9355
▁mine	-10.9355
fully	-10.9357
kwak	-10.9359
▁Tatitusti	-10.9362
▁minority	-10.9365
▁beníri	-10.9367
▁belief	-10.937
▁kaa	-10.937
▁Japanese	-10.9374
▁Rules	-10.9374
quen	-10.9376
▁upéva	-10.9378
▁charge	-10.9381
▁pray	-10.9385
▁naturally	-10.9392
09	-10.9395
▁ixonra	-10.9397
jtoyaj	-10.9397
▁pipas	-10.9398
vé	-10.9405
▁alive	-10.9409
▁demonstrated	-10.9409
hya	-10.9417
▁apart	-10.942
ches	-10.9421
▁renewable	-10.9421
▁kaxon	-10.9426
▁yoii	-10.9426
▁nenqui	-10.9432
nacapa	-10.9432
▁meniti	-10.9434
tziri	-10.9435
▁Paper	-10.9436
▁mfädi	-10.944
ike	-10.944
pacho	-10.9442
▁lla	-10.9445
▁below	-10.9447
▁extreme	-10.9449
▁background	-10.945
▁1995	-10.945
▁shift	-10.945
▁Americans	-10.9456
▁observed	-10.9456
▁1914	-10.946
RO	-10.9464
▁greatly	-10.9467
▁protected	-10.9469
▁yquac	-10.9478
▁involves	-10.9478
86	-10.9479
sqanchik	-10.9479
ative	-10.9479
▁usu	-10.948
ish	-10.9481
coco	-10.9485
▁churi	-10.9486
▁admit	-10.9487
rime	-10.9488
shiri	-10.949
▁kahe	-10.9497
▁dollars	-10.9499
polo	-10.9504
▁nine	-10.9506
▁Isaiah	-10.9507
▁njap	-10.9511
▁kindness	-10.9513
▁Ora	-10.9513
reta	-10.9516
▁Women	-10.9516
▁Mayukuna	-10.9517
▁yame	-10.9517
▁yuqapa	-10.9519
▁wawanakapa	-10.952
93	-10.9521
▁forever	-10.9522
▁Would	-10.9526
▁types	-10.9528
▁intend	-10.9531
pipas	-10.9533
▁Á	-10.9534
nkichis	-10.9535
▁raana	-10.9535
To	-10.9537
▁noki	-10.9537
ros	-10.9538
▁retã	-10.9538
cial	-10.954
▁anger	-10.9542
utu	-10.9542
▁mfenihʉ	-10.9544
▁Agency	-10.9545
▁electricity	-10.9545
day	-10.9546
ayat	-10.9548
▁arori	-10.9548
form	-10.9552
ram	-10.9556
chigóriga	-10.9559
rurqa	-10.9561
▁nulame	-10.9565
ninta	-10.9565
▁yvyra	-10.9567
▁yoikin	-10.9568
▁dream	-10.9572
▁worst	-10.9574
▁arika	-10.9577
▁Every	-10.9578
aita	-10.9578
▁demonstrate	-10.9584
▁murder	-10.9586
▁ndehe	-10.9591
▁Diosman	-10.9593
▁ayac	-10.9595
▁Mari	-10.9598
▁säna	-10.9601
▁argument	-10.9602
▁lie	-10.9602
▁payments	-10.9604
▁diwö	-10.9606
xti	-10.9607
▁80	-10.961
ychis	-10.9611
iwawiya	-10.9611
▁ynin	-10.9611
tol	-10.9612
nakaw	-10.9612
▁pursue	-10.9615
▁comply	-10.962
kaki	-10.962
▁mahyɛgui	-10.9622
▁emergency	-10.9622
tter	-10.9629
▁forest	-10.9631
▁discharge	-10.9632
ever	-10.9633
▁summer	-10.9634
▁endorse	-10.9634
rina	-10.9638
▁jananeki	-10.9639
ure	-10.9639
ile	-10.9641
AN	-10.9642
▁occurred	-10.9642
▁Bernabé	-10.9651
▁primarily	-10.9651
▁True	-10.9651
▁Monetar	-10.9652
▁taxes	-10.9653
sign	-10.9655
rɛ	-10.966
▁option	-10.9663
▁Other	-10.9665
▁hmi	-10.9665
ajero	-10.9671
▁righteousness	-10.9672
▁uchéchigo	-10.9673
▁Oĩ	-10.9675
▁stronger	-10.9676
squíaj	-10.9678
▁Both	-10.9678
▁jisc	-10.9678
▁manu	-10.968
▁resurrection	-10.968
▁reqsi	-10.9681
kwakpa	-10.9684
▁Times	-10.9684
▁ojehecha	-10.9686
▁zone	-10.9688
▁monitor	-10.9688
jeitero	-10.9696
▁Col	-10.9697
▁pit	-10.9699
▁ako	-10.9699
▁itztoyaj	-10.9699
▁Though	-10.97
▁ikanwe	-10.9707
leey	-10.9708
▁Sweden	-10.971
▁shiyakantsi	-10.9713
▁baby	-10.9715
▁arm	-10.9715
▁jumar	-10.9716
▁Bas	-10.972
▁girls	-10.9728
▁kenkitsarentsi	-10.9729
▁occur	-10.9729
▁declaration	-10.973
atap	-10.9731
▁assist	-10.9731
▁pai	-10.9733
mente	-10.9736
82	-10.9737
▁referendum	-10.9739
sar	-10.974
▁offers	-10.974
▁operations	-10.9744
▁Egyptian	-10.9744
▁maran	-10.9745
ona	-10.9745
aitian	-10.9746
▁CO	-10.9748
tewa	-10.975
75	-10.9751
▁ojejapo	-10.9752
▁Rome	-10.9754
let	-10.9755
▁contain	-10.9756
ija	-10.9756
▁shape	-10.9757
▁boy	-10.9758
▁highlight	-10.9758
▁jesussen	-10.9759
▁advance	-10.9759
nará	-10.976
▁tool	-10.976
▁arrest	-10.9769
▁ḇefi	-10.9769
▁yejhuamej	-10.977
▁hague	-10.977
pjjäna	-10.9771
▁milk	-10.9771
til	-10.9771
▁jupanakar	-10.9776
▁estudia	-10.9779
▁patkë	-10.978
tantyarori	-10.978
▁ultimately	-10.9781
mú	-10.9787
nikeyu	-10.979
PL	-10.9791
uit	-10.9791
▁rei	-10.9792
taha	-10.9792
▁otla	-10.9794
▁trial	-10.9797
asy	-10.9798
▁function	-10.98
mal	-10.98
kän	-10.9804
rup	-10.9806
▁Villa	-10.9806
▁ken	-10.9807
78	-10.9807
▁liberalisation	-10.9808
▁hin	-10.9808
▁tlaneltocani	-10.9811
▁huala	-10.9811
▁niukieya	-10.9811
▁rock	-10.9812
▁conflicts	-10.9812
▁Two	-10.9813
cion	-10.9818
▁appointed	-10.9821
xca	-10.9822
▁lands	-10.9823
stra	-10.9823
85	-10.9823
ase	-10.9824
▁Por	-10.9829
▁representative	-10.9829
ekuéra	-10.983
▁anmo	-10.9832
▁firstly	-10.9834
▁Yaya	-10.9835
▁Syria	-10.9835
▁destroy	-10.9836
▁yeca	-10.9837
taquena	-10.9837
▁urban	-10.9838
egi	-10.9838
cer	-10.9839
▁organizations	-10.9843
▁promotion	-10.9847
▁surface	-10.9847
▁wëpa	-10.9848
▁uc	-10.9851
▁foot	-10.9854
▁Jesusasti	-10.9854
▁oña	-10.9855
▁keskáakin	-10.9857
▁ofrenda	-10.986
96	-10.9863
▁coajica	-10.9867
▁discipline	-10.9867
▁insurance	-10.9867
▁street	-10.987
nquiri	-10.9872
mik	-10.9875
▁Jach	-10.9878
▁larger	-10.9879
cked	-10.9881
▁doctors	-10.9886
▁500	-10.9888
▁vehicles	-10.9889
▁"¡	-10.989
▁discovered	-10.9892
▁refused	-10.9894
▁juchañch	-10.9897
▁judge	-10.9901
▁ova	-10.9902
▁counter	-10.9904
▁speakers	-10.9905
35	-10.991
▁2020	-10.991
▁Gaza	-10.9915
▁severe	-10.9924
▁bound	-10.9926
▁See	-10.9928
26	-10.9931
▁nana	-10.9932
▁Obama	-10.9937
▁realized	-10.9939
▁opinions	-10.994
▁llaqtanqa	-10.9941
▁uni	-10.9942
raqmi	-10.9943
▁character	-10.9946
▁pine	-10.9947
▁mène	-10.9947
▁benxoa	-10.9949
▁Plan	-10.9949
▁urqu	-10.9951
kanke	-10.9951
▁Jain	-10.9954
rine	-10.9955
▁distribution	-10.9957
▁impression	-10.9957
rwa	-10.9958
▁wishawe	-10.9958
▁ipe	-10.996
▁materials	-10.9962
anaca	-10.9963
▁constitution	-10.9965
cle	-10.9966
ano	-10.9967
▁opposite	-10.9967
▁heitseriemek	-10.9968
▁tø	-10.9973
▁afford	-10.9976
tixe	-10.9977
dio	-10.9979
rblö	-10.998
▁treaty	-10.9983
||	-10.9983
ashita	-10.9987
blo	-10.9991
▁experiences	-10.9992
täna	-10.9995
nwa	-10.9996
▁united	-10.9997
▁thuni	-10.9997
▁primary	-10.9997
▁1970	-10.9998
Re	-10.9998
▁collective	-11.0001
▁ibanko	-11.0002
TS	-11.0002
▁invited	-11.0003
▁icheke	-11.0006
ayäna	-11.0007
▁yoikana	-11.0009
lotl	-11.0009
▁pil	-11.0011
pha	-11.0012
▁notice	-11.0012
sol	-11.0013
▁nemejhuamej	-11.0017
▁southern	-11.0017
▁kuie	-11.0018
▁kipatsi	-11.002
rblöke	-11.0024
mù	-11.0024
▁jaqix	-11.0026
▁lurat	-11.0029
▁desde	-11.003
oka	-11.0031
▁icone	-11.0034
It	-11.0034
riga	-11.0035
▁qelqa	-11.0036
▁Rusaleni	-11.0037
▁tama	-11.004
kunaq	-11.004
ede	-11.0041
anaka	-11.0042
äta	-11.0043
ound	-11.0046
biri	-11.0047
▁translation	-11.0048
▁darërëë	-11.0051
▁chó	-11.0051
ved	-11.0051
He	-11.0052
95	-11.0053
▁Nos	-11.0054
▁mountain	-11.0054
▁Amsterdam	-11.0058
▁Cyprus	-11.0058
▁Rama	-11.0058
kà	-11.0058
▁qillqa	-11.0059
antyari	-11.0059
px	-11.0061
▁awareness	-11.0062
rant	-11.0062
▁Ee	-11.0062
▁ruling	-11.0062
▁noká	-11.0062
▁axsar	-11.0066
▁sebasa	-11.0067
▁biggest	-11.0068
▁Wakin	-11.0068
▁somewhat	-11.0068
dom	-11.0071
▁harm	-11.0072
▁markar	-11.0075
oi	-11.0076
▁Papa	-11.0077
▁immigrants	-11.0077
off	-11.008
▁yatich	-11.0082
▁Thank	-11.0083
ychik	-11.0084
tachari	-11.0085
▁cell	-11.0086
▁Timatsi	-11.0088
▁elsewhere	-11.0088
02	-11.0088
▁revealed	-11.0094
▁wahamat	-11.0094
arienik	-11.0095
▁parliaments	-11.0097
▁facilitate	-11.0098
▁Bal	-11.0098
▁ab	-11.0101
▁Nuna	-11.0103
▁chapter	-11.0103
▁Did	-11.0103
▁causing	-11.0108
▁mission	-11.0111
▁wañuchi	-11.0112
▁guarantees	-11.0112
▁achka	-11.0114
▁Mbo	-11.0118
▁tobacco	-11.0118
▁benírame	-11.0118
▁proceed	-11.0119
▁1994	-11.0119
▁jatíbitian	-11.012
▁punku	-11.0122
▁Cámara	-11.0129
▁performance	-11.0129
▁markanaka	-11.0129
▁Warmi	-11.0131
▁brief	-11.0133
▁sleep	-11.0137
tlajtol	-11.0137
▁entry	-11.0139
▁meat	-11.014
▁iku	-11.0141
▁answered	-11.0141
bs	-11.0142
▁jiskt	-11.0142
▁flesh	-11.0143
kunapaq	-11.0143
▁blame	-11.0143
▁Saulo	-11.0144
▁gate	-11.0144
▁Iri	-11.0144
▁mere	-11.0148
▁catok	-11.0148
▁temporary	-11.0149
▁ajágame	-11.0149
▁cat	-11.0149
nema	-11.0151
▁relatively	-11.0154
▁notes	-11.0155
▁quipia	-11.0158
▁Peerani	-11.0159
▁remove	-11.0162
▁object	-11.0163
▁ukhamat	-11.0164
▁icamanal	-11.0164
▁Last	-11.0166
▁njabu	-11.0166
▁entered	-11.0167
rema	-11.0169
▁Ladies	-11.0169
▁Guarani	-11.017
▁Gatho	-11.0177
▁kin	-11.0178
tha	-11.0179
▁xiuhpan	-11.018
AS	-11.0181
ruwa	-11.0182
ens	-11.0191
liru	-11.0192
nge	-11.0193
▁respected	-11.0193
03	-11.0195
▁cars	-11.0195
▁obligation	-11.0196
teta	-11.0197
▁tacat	-11.0198
▁skills	-11.0199
yetachari	-11.0202
▁opi	-11.0204
irinaka	-11.0205
▁dalö	-11.0205
sqanku	-11.0206
▁tukaritsie	-11.0208
los	-11.0208
mɛfa	-11.021
▁yës	-11.0213
▁bata	-11.0214
gre	-11.0214
▁ikanti	-11.0216
▁votes	-11.0217
27	-11.0218
▁sanoyej	-11.0221
quiwa	-11.0222
▁Hmu	-11.0222
▁stake	-11.0224
▁döraë	-11.0226
▁drawing	-11.0227
▁thoughts	-11.0229
roni	-11.0231
▁Chamber	-11.0231
▁haika	-11.0232
enda	-11.0237
▁strike	-11.0238
▁village	-11.0238
▁Babylon	-11.0241
▁decisive	-11.0241
▁equipment	-11.0242
▁impose	-11.0243
▁constitutional	-11.0244
mpix	-11.0245
▁quicua	-11.0246
▁bra	-11.0249
nguéra	-11.025
gihu	-11.0251
china	-11.0252
▁Santo	-11.0252
▁considering	-11.0253
ley	-11.0254
kha	-11.0255
▁bilateral	-11.0255
▁pakök	-11.0255
76	-11.0258
▁maybe	-11.0258
toj	-11.0259
▁mfats	-11.026
▁carrying	-11.026
▁kema	-11.0261
▁pekao	-11.0261
ymi	-11.0266
huaya	-11.0268
▁released	-11.0271
▁gobierno	-11.0272
cks	-11.0273
yamaa	-11.0276
uximayatamete	-11.0276
▁tackle	-11.0279
▁wo	-11.0279
▁guard	-11.028
tur	-11.0281
mber	-11.0283
▁Tatay	-11.0283
▁flag	-11.0286
▁preach	-11.0286
lepi	-11.0287
▁equally	-11.0288
eth	-11.0289
▁stock	-11.029
▁Cal	-11.029
▁Ishire	-11.0293
▁González	-11.0293
▁Cuba	-11.0296
▁ñit	-11.0297
asqa	-11.0299
tequipano	-11.03
▁trees	-11.0303
▁diversity	-11.0303
▁detailed	-11.0304
han	-11.0304
79	-11.0307
▁timi	-11.0308
▁proportion	-11.0313
▁atipj	-11.0314
▁kashan	-11.0315
▁honest	-11.0316
▁extended	-11.0316
▁assume	-11.0317
▁telling	-11.0318
kuntix	-11.0322
▁oncameetsateji	-11.0324
▁paitapeerica	-11.0324
líaj	-11.0324
anak	-11.0324
▁ntha	-11.0326
▁sharing	-11.0332
ptin	-11.0332
xani	-11.0332
uchu	-11.0333
▁markam	-11.0334
▁llaqtayuq	-11.0335
kopi	-11.0342
"-	-11.0342
▁represented	-11.0342
▁hearts	-11.0343
▁dalë	-11.0343
zar	-11.0344
▁ijcon	-11.0345
katayna	-11.0345
▁1980	-11.0346
▁jumanakax	-11.0348
siga	-11.0351
▁wahets	-11.0352
▁tata	-11.0352
araqui	-11.0364
ans	-11.0365
▁peoples	-11.0368
xan	-11.037
sima	-11.0372
hinto	-11.0373
▁xiquin	-11.0373
▁Jero	-11.0374
▁yuyayku	-11.0374
▁Have	-11.0374
▁identify	-11.0375
▁300	-11.0375
▁jaská	-11.0386
▁vulnerable	-11.0387
▁qhichwa	-11.0387
▁meniu	-11.0387
▁paykunata	-11.0387
uximat	-11.0388
▁Ministerio	-11.0389
▁Vice	-11.0389
umi	-11.0392
▁formal	-11.0392
▁supposed	-11.0393
ial	-11.0394
▁Juani	-11.0396
▁ruwime	-11.0397
▁Nura	-11.0398
ctor	-11.04
rpa	-11.0402
▁rising	-11.0403
▁saqe	-11.0403
▁yoto	-11.0404
▁tsaya	-11.0404
▁sesen	-11.0405
▁tawa	-11.0406
▁32	-11.0407
mos	-11.0407
▁tomin	-11.0407
▁jicjjat	-11.0407
▁kapa	-11.0411
23	-11.0413
▁trip	-11.0414
▁subsidies	-11.0418
jeitaquee	-11.0419
araquïna	-11.0419
▁Quema	-11.0421
▁Far	-11.0421
▁esé	-11.0425
quisa	-11.0425
▁dua	-11.0427
ajeitaqueri	-11.0428
▁Hyãsia	-11.0429
pre	-11.0432
▁sell	-11.0434
▁apostles	-11.0436
▁filled	-11.0436
45	-11.0439
▁possibly	-11.0439
▁tsama	-11.044
07	-11.0442
squi	-11.0444
punin	-11.0445
▁ore	-11.045
▁Serbia	-11.045
▁amounts	-11.0451
nexti	-11.0451
▁resulting	-11.0452
ô	-11.0456
▁heavens	-11.0459
66	-11.046
tus	-11.0461
▁double	-11.0463
Do	-11.0465
▁yanapt	-11.0466
▁apani	-11.047
▁firmly	-11.0471
▁jupanacajj	-11.0473
seli	-11.0473
ang	-11.0475
▁constant	-11.0475
▁tuicha	-11.0476
▁Ijcuac	-11.0479
añatak	-11.0481
▁Quchakuna	-11.0481
▁proud	-11.0482
▁helps	-11.0482
▁argue	-11.0485
EN	-11.0488
▁covenant	-11.0492
▁Oñe	-11.0492
▁Juda	-11.0495
▁otho	-11.0496
▁ph	-11.0496
▁wild	-11.0496
guápe	-11.0498
▁jaws	-11.0498
▁Bra	-11.05
nica	-11.0501
▁Nuga	-11.0501
▁kananpaq	-11.0502
▁tourism	-11.0502
akame	-11.0506
▁grounds	-11.0507
▁Zi	-11.0508
▁launched	-11.0509
87	-11.051
▁kai	-11.0511
▁NATO	-11.0513
▁olagá	-11.0513
araki	-11.052
36	-11.0523
▁quichihuas	-11.0527
▁survive	-11.0527
niere	-11.053
oshi	-11.0531
▁Assembly	-11.0534
asip	-11.0534
▁MEPs	-11.0535
▁suggested	-11.0535
over	-11.0536
▁itso	-11.0537
▁Val	-11.0538
Mo	-11.054
ranku	-11.0541
▁imposed	-11.0542
▁ttèwa	-11.0542
yʉ	-11.0543
liga	-11.0543
▁xeimieme	-11.0545
▁ñankha	-11.0546
▁kié	-11.0549
56	-11.055
▁assure	-11.055
▁kana	-11.0551
▁priests	-11.0552
▁restrictions	-11.0552
▁nthebe	-11.0557
anet	-11.0558
▁ahmo	-11.0559
aibo	-11.0562
▁contract	-11.0562
▁Payqa	-11.0563
meran	-11.0565
▁1992	-11.0567
▁naj	-11.0568
▁stick	-11.057
▁Year	-11.0572
▁streets	-11.0574
tzino	-11.0574
▁olame	-11.0577
▁judío	-11.0581
rka	-11.0586
bri	-11.0586
▁ter	-11.0587
tshʉ	-11.0587
▁Ser	-11.0589
▁kanò	-11.059
émika	-11.0592
▁trafficking	-11.0598
▁pitsipamintsare	-11.0599
▁lee	-11.0599
mbe	-11.0599
▁planned	-11.0599
▁gift	-11.0599
[	-11.0604
gon	-11.0605
▁otima	-11.0605
▁preparing	-11.0609
▁Urqukuna	-11.0609
tali	-11.061
nakasti	-11.0613
▁manuy	-11.0618
▁recommend	-11.0619
▁dignity	-11.0619
▁haḇu	-11.0619
▁ndeznä	-11.062
▁student	-11.062
uyuri	-11.062
▁chief	-11.0621
▁Chaymantapas	-11.0621
▁leads	-11.0623
▁Jara	-11.0623
▁smaller	-11.0624
▁Diosar	-11.0626
▁Strategy	-11.063
▁pyahu	-11.0631
▁muui	-11.0633
▁Nja	-11.0635
▁kibi	-11.0637
▁recorded	-11.0638
▁Georgia	-11.0642
▁iko	-11.0643
tasanot	-11.0643
▁organised	-11.0644
áli	-11.0647
▁upéi	-11.0648
nitsie	-11.0649
▁Jesoquirishito	-11.0651
▁Similarly	-11.0652
▁chain	-11.0657
▁surprised	-11.0659
øde	-11.0659
tch	-11.0663
▁jaqinakax	-11.0663
▁gold	-11.0669
bat	-11.0673
▁karan	-11.0673
▁Netherlands	-11.0673
ast	-11.0675
ciones	-11.0676
pýpe	-11.0677
kira	-11.0678
égui	-11.068
▁jaskatax	-11.0681
▁occasions	-11.0682
arakïna	-11.0682
jjaru	-11.0684
▁agency	-11.0684
wágame	-11.0686
▁3:	-11.0687
▁yej	-11.0689
05	-11.069
▁iligá	-11.0691
▁aside	-11.0691
▁itima	-11.0692
▁flow	-11.0693
▁defined	-11.0696
▁Moises	-11.0698
47	-11.0699
▁minds	-11.0699
▁Jainoax	-11.0699
lë	-11.0702
▁rapporteurs	-11.0704
▁altepet	-11.0705
▁integrity	-11.0705
▁legitimate	-11.0705
ign	-11.0709
▁sought	-11.071
▁adapt	-11.0714
▁oúva	-11.0714
▁bus	-11.0715
▁Colombia	-11.0716
bö	-11.0717
▁Sar	-11.0718
▁manifest	-11.0719
jere	-11.072
▁kanman	-11.0721
eriekai	-11.0725
▁Eara	-11.0726
▁familiar	-11.0726
▁Report	-11.0729
▁dayë	-11.073
▁map	-11.0732
83	-11.0738
▁mocahua	-11.0738
nding	-11.0739
▁recommendation	-11.0741
▁joá	-11.0743
nanai	-11.0744
▁hinalla	-11.0746
inta	-11.0747
rúame	-11.075
▁wani	-11.0751
▁ucqha	-11.0753
old	-11.0756
▁Given	-11.0756
▁huey	-11.0757
▁cancaña	-11.0758
▁busi	-11.0759
▁Ur	-11.0759
▁obey	-11.076
▁dedicated	-11.076
▁prospect	-11.0761
▁Amendments	-11.0761
▁decade	-11.0762
▁confirm	-11.0762
▁quisa	-11.0764
▁Saul	-11.0765
▁jilïr	-11.0766
▁noma	-11.0767
▁cold	-11.077
▁credibility	-11.077
▁everybody	-11.077
▁Australia	-11.077
▁nxa	-11.0773
▁umbabi	-11.0774
ipit	-11.0774
▁Alue	-11.0775
▁jiwaray	-11.0775
▁mir	-11.0777
▁teachers	-11.0778
mantaqa	-11.0779
vita	-11.0781
kema	-11.0781
▁qualities	-11.0781
▁relief	-11.0781
▁2:	-11.0781
▁prosperity	-11.0781
▁yoka	-11.0786
ple	-11.0786
▁wösh	-11.079
▁cooperate	-11.0792
▁kutt	-11.0792
▁3.	-11.0793
▁qallta	-11.0793
pegua	-11.0794
▁Com	-11.0794
uwábaga	-11.0797
ñʉ	-11.0798
▁identified	-11.0803
▁engage	-11.0804
▁protests	-11.0804
22	-11.0804
▁Sam	-11.0806
ehára	-11.0808
▁Belarus	-11.0811
yacan	-11.0816
28	-11.082
ON	-11.0823
▁Juma	-11.0823
▁sick	-11.0824
▁nä	-11.0825
▁nisqan	-11.0825
▁opo	-11.0827
pawa	-11.0827
▁visited	-11.0828
▁previously	-11.0829
65	-11.083
▁mè	-11.083
▁indicate	-11.0831
▁nejhua	-11.0831
▁qucha	-11.0832
etsitaru	-11.0832
ef	-11.0835
▁evaluation	-11.0836
▁eyi	-11.0836
▁conducted	-11.0837
▁guide	-11.0837
mashi	-11.084
▁van	-11.0841
mitl	-11.0842
▁tleno	-11.0844
ixi	-11.0846
▁hot	-11.0846
▁ixquich	-11.0846
▁camaari	-11.0849
▁pioneer	-11.0849
▁cunjäm	-11.0849
▁Njabʉ	-11.0849
▁consistent	-11.0852
kh	-11.0853
▁uñst	-11.0853
▁rapidly	-11.0854
39	-11.0856
▁contained	-11.0857
▁Ican	-11.0858
rista	-11.0858
▁phase	-11.0859
itari	-11.0859
▁tiqui	-11.086
njam	-11.0861
▁surprise	-11.0861
▁chiní	-11.0866
lum	-11.0867
▁minorities	-11.0869
hecha	-11.0871
kinana	-11.0872
tsiri	-11.0879
▁assembly	-11.0879
▁journey	-11.0879
▁ideal	-11.0879
▁bé	-11.0881
jeitari	-11.0884
tio	-11.0884
▁investments	-11.0884
▁mbohapy	-11.0886
▁fell	-11.0887
wet	-11.0888
▁grand	-11.0889
▁Aaron	-11.0891
▁Pact	-11.0893
▁rail	-11.0894
▁dark	-11.0894
▁Ea	-11.0899
▁distance	-11.0901
teca	-11.0904
48	-11.0906
▁applying	-11.0907
if	-11.0907
33	-11.0907
ats	-11.0913
▁star	-11.0916
▁cristianokuna	-11.0918
▁testigo	-11.0919
▁tlan	-11.0921
▁paykuna	-11.0923
▁neskara	-11.0923
▁Jerusalen	-11.0924
hn	-11.0925
▁directives	-11.0925
▁fields	-11.0928
▁oha	-11.0929
▁delighted	-11.0929
▁(18	-11.0929
▁nejí	-11.0932
stela	-11.0932
▁hñe	-11.0933
▁Earth	-11.0935
▁espada	-11.0935
▁ich	-11.0935
▁display	-11.0936
▁refuse	-11.0938
▁define	-11.0938
▁teki	-11.0939
guí	-11.094
▁focused	-11.094
▁Energy	-11.0946
like	-11.0946
▁wake	-11.0947
tions	-11.0949
▁Yvy	-11.095
▁kayta	-11.0958
taka	-11.096
▁raro	-11.0961
▁iketianra	-11.0961
▁bachi	-11.0962
▁expectations	-11.0962
▁contributions	-11.0963
▁xeati	-11.0971
▁nugui	-11.0978
▁hek	-11.0978
▁Watch	-11.0981
▁trend	-11.0982
kurqan	-11.0987
work	-11.0988
▁electronic	-11.099
▁strict	-11.0992
▁Any	-11.0996
▁baritia	-11.0997
▁belong	-11.0999
mɛt	-11.1
cah	-11.1
▁imomachtijcahua	-11.1001
▁bamí	-11.1001
paya	-11.1003
5%	-11.1004
▁USA	-11.1005
▁evolution	-11.1008
▁teacher	-11.1011
▁studying	-11.1012
▁subsidiarity	-11.1012
▁īhuīc	-11.1012
▁90	-11.1015
▁condemn	-11.1022
▁fresh	-11.1023
ula	-11.1026
▁Kong	-11.1028
▁balé	-11.103
▁indicated	-11.1031
▁qullu	-11.1032
▁iñi	-11.1034
▁ipype	-11.1038
ayasi	-11.1039
▁Diosapa	-11.104
ça	-11.1045
▁Paykuna	-11.105
▁emotional	-11.1052
▁mápu	-11.1055
▁Tra	-11.1056
spaqa	-11.1057
▁universe	-11.1057
▁neskati	-11.1058
▁organized	-11.106
▁pick	-11.1066
▁principal	-11.1068
▁digital	-11.1068
▁expensive	-11.1068
▁Red	-11.1068
▁yamé	-11.1071
▁eating	-11.1074
▁Quej	-11.1075
▁jumajj	-11.108
▁pachá	-11.108
tempi	-11.108
▁Fernando	-11.1081
▁talked	-11.1082
49	-11.1082
▁muyu	-11.1083
▁store	-11.1084
▁kilo	-11.1085
yeni	-11.1086
ag	-11.1089
▁compensation	-11.109
▁jaqin	-11.1092
▁sutiyoq	-11.1093
▁Portuguese	-11.1102
mach	-11.1102
ïnwa	-11.1103
nero	-11.1103
▁paying	-11.1105
▁Web	-11.1107
▁uraqin	-11.1111
▁quipiyaj	-11.1111
▁Cunapachatejj	-11.1113
▁Schengen	-11.1113
▁ongoing	-11.1113
▁Nokon	-11.1113
gh	-11.1114
▁yuritayna	-11.1114
▁noko	-11.1115
▁apthapi	-11.1115
▁quima	-11.1116
▁latter	-11.1116
68	-11.1117
pati	-11.1117
▁iyolo	-11.1118
▁tsibi	-11.1119
▁khespiy	-11.1119
▁español	-11.1119
▁nun	-11.112
▁knowing	-11.112
▁jakenacajj	-11.1122
inti	-11.1127
rama	-11.1129
▁makawe	-11.113
▁chök	-11.113
▁stands	-11.1131
▁track	-11.1135
▁okwá	-11.1136
▁bread	-11.1137
▁Time	-11.1139
▁ikonha	-11.114
▁pun	-11.1143
▁requirement	-11.1145
▁yokapa	-11.1145
▁industries	-11.1147
▁jupanacarojj	-11.1147
▁tengu	-11.1147
▁resist	-11.1148
rusu	-11.115
▁elderly	-11.1151
▁anchata	-11.1153
xonbi	-11.1153
llapi	-11.1154
▁proof	-11.1156
▁adopting	-11.1156
▁Swedish	-11.1158
▁recognised	-11.1158
pay	-11.1161
▁ruin	-11.1164
▁rioka	-11.1164
late	-11.1165
temo	-11.1165
hí	-11.1165
asinjja	-11.1165
▁appeared	-11.1166
▁societies	-11.1169
▁trading	-11.1169
▁fiesta	-11.1169
▁irineane	-11.1171
▁gets	-11.1173
▁yupaych	-11.1177
▁̱́	-11.1177
bores	-11.1179
▁emerging	-11.118
▁SMEs	-11.118
▁skin	-11.1181
29	-11.119
wiri	-11.119
▁import	-11.119
▁Dutch	-11.1192
▁pata	-11.1194
▁joined	-11.1195
▁mburuvicha	-11.1195
▁kids	-11.1197
▁wayna	-11.12
od	-11.1203
▁tle	-11.1205
haye	-11.1208
46	-11.1209
▁koshibo	-11.1209
▁ië	-11.1209
▁pekáo	-11.121
veta	-11.1213
▁hogi	-11.1214
▁Devil	-11.1215
hor	-11.1217
▁keyo	-11.1219
▁debates	-11.122
▁deficit	-11.1222
▁statistics	-11.1226
our	-11.1226
guihʉ	-11.1229
▁tetãme	-11.1232
▁tucu	-11.1236
37	-11.1237
vio	-11.1237
▁umíva	-11.1238
▁Uk	-11.124
enti	-11.1242
jeitempi	-11.1242
lling	-11.1245
▁Bats	-11.1247
EL	-11.1247
▁Procedure	-11.1249
▁Bulgaria	-11.1249
Ya	-11.125
▁neno	-11.125
right	-11.1251
▁Los	-11.1251
rjam	-11.1252
▁Among	-11.1253
bon	-11.1254
▁excessive	-11.1254
tsate	-11.1256
▁distritu	-11.1259
61	-11.126
*	-11.1264
▁widely	-11.1272
▁ies	-11.1272
tiki	-11.1276
▁heat	-11.1279
ïna	-11.128
mantam	-11.1281
▁thiya	-11.1281
llaña	-11.1283
▁waranka	-11.1284
del	-11.1284
▁quichijqui	-11.1285
▁household	-11.1287
▁difficulty	-11.1287
▁quitaiteri	-11.1289
▁removed	-11.1291
tetl	-11.1294
llata	-11.1294
mantapas	-11.1301
▁commit	-11.1302
▁confirmed	-11.1304
▁yoa	-11.1309
▁ark	-11.131
▁binding	-11.131
▁patent	-11.1311
cie	-11.1312
anuku	-11.1314
▁mobility	-11.1318
rah	-11.1321
tyaro	-11.1321
▁tsitsi	-11.1325
▁profit	-11.1325
▁qhispiy	-11.1325
74	-11.1326
kinra	-11.1327
▁substances	-11.1328
▁Bre	-11.1329
▁arguments	-11.133
▁hurt	-11.1331
uan	-11.1332
tán	-11.1333
nacaru	-11.1336
mata	-11.1336
44	-11.1337
aran	-11.1337
▁prisoners	-11.1338
▁aish	-11.1338
tinin	-11.134
06	-11.1347
▁ucanac	-11.1347
▁boost	-11.1348
▁depends	-11.1351
▁Austria	-11.1353
naq	-11.1355
▁parent	-11.1359
▁1991	-11.1364
känti	-11.1365
oj	-11.1365
▁Bush	-11.1369
64	-11.1374
▁intellectual	-11.1375
▁utji	-11.1375
▁ended	-11.1375
▁sugar	-11.1377
obachi	-11.1378
▁Xij	-11.1378
käna	-11.1379
sua	-11.138
55	-11.1381
xäna	-11.1381
ulu	-11.1382
mble	-11.1383
▁master	-11.1385
aritikuru	-11.1386
▁obametantatsiri	-11.1386
▁amt	-11.1387
▁asqui	-11.139
▁Pat	-11.1394
ayi	-11.1394
▁Isaías	-11.1397
▁sasaw	-11.1398
▁Jordán	-11.1402
▁oîva	-11.1404
cus	-11.1405
sióni	-11.1406
▁determination	-11.1407
titlani	-11.1408
▁motsa	-11.141
▁scene	-11.141
▁Regional	-11.1411
▁remaining	-11.1417
▁apsu	-11.1418
▁grá	-11.1418
këpa	-11.1418
▁mochile	-11.1418
▁interview	-11.1421
stri	-11.1424
▁quipatsiqui	-11.1426
ísi	-11.1428
asaw	-11.143
▁elhuicac	-11.1431
▁turning	-11.1431
kta	-11.1431
▁Ax	-11.1432
▁inhabitants	-11.1433
▁maximum	-11.1433
▁newá	-11.1439
cht	-11.1439
,"	-11.1442
xar	-11.1442
31	-11.1442
▁waxt	-11.1446
▁sho	-11.145
▁shimape	-11.145
▁oki	-11.1452
▁bats	-11.1452
▁imp	-11.1454
▁twenty	-11.1456
▁Putin	-11.1456
▁Programme	-11.1458
tinake	-11.1459
▁regulatory	-11.146
▁Jacobo	-11.1461
71	-11.1465
antari	-11.1466
▁victim	-11.1467
▁harmony	-11.1468
▁kasqanmanta	-11.1469
▁stable	-11.1474
tun	-11.1474
ab	-11.1475
▁purahéi	-11.1475
▁pimp	-11.1477
beta	-11.1478
▁website	-11.1479
▁variety	-11.1479
▁ichupe	-11.1479
▁churches	-11.148
▁bädi	-11.1482
▁Mario	-11.1488
▁ojejuhu	-11.1491
77	-11.1494
japo	-11.1495
rous	-11.1497
▁jiwasa	-11.1498
▁onana	-11.1498
rum	-11.1499
▁glory	-11.1503
▁absence	-11.1503
▁naman	-11.1505
ier	-11.1507
▁kallpa	-11.1513
▁ninkata	-11.1516
apxani	-11.1516
▁etc	-11.1517
wja	-11.1518
art	-11.152
gging	-11.1522
▁jáwa	-11.1524
sqanchikta	-11.1524
▁ucqhajja	-11.1525
▁tsé	-11.1526
▁távape	-11.1527
banon	-11.1527
▁jé	-11.1528
JNE	-11.1528
▁iyiwak	-11.153
tök	-11.1533
▁neten	-11.1533
▁Men	-11.1533
▁ñanqha	-11.1534
▁payment	-11.1535
gyá	-11.1535
uximayaka	-11.1535
▁amena	-11.1536
▁Barroso	-11.1538
▁famous	-11.1538
54	-11.1539
▁simíbale	-11.1543
▁imba	-11.1544
ñataq	-11.1548
▁extensive	-11.1549
▁Tim	-11.155
▁approve	-11.1554
▁nozo	-11.1555
▁ninká	-11.1557
quita	-11.1558
▁slave	-11.1561
law	-11.1563
▁everlasting	-11.1564
▁xehetsie	-11.1564
qmi	-11.1565
▁resulted	-11.1567
▁sisters	-11.1567
▁Second	-11.1567
▁Gal	-11.1568
▁xeni	-11.1568
▁presidente	-11.1571
mabi	-11.1571
▁resolved	-11.1572
Ra	-11.1573
▁Czech	-11.1573
▁Josué	-11.1573
mieni	-11.1574
▁grave	-11.1574
utoridades	-11.1575
upit	-11.1578
▁Sant	-11.1584
▁Congreso	-11.1585
▁substance	-11.1585
▁Hebrew	-11.1586
▁Nojquiya	-11.1586
▁Ab	-11.1586
sio	-11.1586
▁mujé	-11.1586
ariekai	-11.1588
tarori	-11.1588
▁privilege	-11.159
ök	-11.1591
▁title	-11.1592
PT	-11.1592
nīn	-11.1593
psa	-11.1594
▁jiwar	-11.1597
▁Upéicha	-11.1599
rdo	-11.1599
calli	-11.1601
pú	-11.1603
▁relates	-11.1606
▁nimechilhuía	-11.1608
tiuka	-11.1608
▁iwák	-11.1608
▁stopped	-11.1609
ev	-11.161
▁successfully	-11.1612
▁passengers	-11.1612
▁ajjsar	-11.1614
vic	-11.1616
▁sad	-11.1617
▁kuska	-11.1618
ava	-11.1618
▁papuru	-11.1619
Z	-11.1623
▁yapu	-11.1624
▁station	-11.1624
▁qan	-11.1627
mawe	-11.163
73	-11.1631
▁ze	-11.1635
▁bet	-11.1636
taquero	-11.1638
▁soil	-11.1641
pp	-11.1642
▁Teipa	-11.1642
▁arrested	-11.1644
▁plenary	-11.1644
▁xøcambeni	-11.1644
ñá	-11.1644
kaniti	-11.1645
▁quimsa	-11.1645
.000	-11.1647
épe	-11.1647
▁enjoyed	-11.1647
▁fulfilled	-11.1649
iritsi	-11.1649
▁mʉihʉ	-11.1649
▁processes	-11.165
▁xapa	-11.1651
▁nochá	-11.1652
▁Paris	-11.1653
▁kunjäm	-11.1653
▁parliament	-11.1655
▁literature	-11.1656
épa	-11.1656
shed	-11.166
▁tasks	-11.1661
rite	-11.1661
▁leaves	-11.1661
▁Isa	-11.1662
uring	-11.1662
▁niqui	-11.1664
ntacari	-11.1665
▁walking	-11.1665
62	-11.1666
nextili	-11.1667
▁disasters	-11.1668
▁spring	-11.1668
▁Heta	-11.167
eh	-11.167
▁Kamachi	-11.1674
qha	-11.1678
nkuman	-11.1679
š	-11.1679
▁enemies	-11.1679
regá	-11.1683
▁atmosphere	-11.1683
▁accurate	-11.1685
▁operating	-11.1692
mun	-11.1701
arojj	-11.1705
táva	-11.1705
▁xeiya	-11.1707
▁tene	-11.1709
▁kanku	-11.1713
▁Rule	-11.1714
▁prior	-11.1715
▁receiving	-11.1715
▁reward	-11.1715
▁yoca	-11.1716
rapi	-11.1717
kanteri	-11.1717
▁Ter	-11.1718
▁ignore	-11.172
▁Ali	-11.172
▁mutuy	-11.1722
▁Solomon	-11.1727
pol	-11.1728
▁jays	-11.1731
▁arsuta	-11.1733
▁issued	-11.1733
glo	-11.1733
▁chugui	-11.1734
ej	-11.1735
▁mix	-11.1735
▁yuyari	-11.1736
57	-11.1737
▁uñ	-11.1737
34	-11.1738
▁fädi	-11.1739
▁umugí	-11.1739
rón	-11.1739
▁militar	-11.1742
▁chik	-11.1748
titu	-11.1752
▁George	-11.1752
sses	-11.1753
▁strengthened	-11.1753
pped	-11.1754
▁ttök	-11.1756
▁drinking	-11.1756
▁justified	-11.1757
▁catch	-11.1757
▁broken	-11.1758
sapa	-11.1762
▁hudi	-11.1763
▁location	-11.1763
raquïnwa	-11.1764
▁niya	-11.1766
▁munaku	-11.1767
▁remarks	-11.177
▁soldiers	-11.1772
▁transition	-11.1772
rku	-11.1773
▁loyal	-11.1775
▁earthquake	-11.1775
▁theory	-11.1776
yea	-11.1776
▁Elías	-11.1777
▁estimated	-11.1778
▁harmful	-11.178
▁kapi	-11.1781
▁irir	-11.1783
▁Others	-11.1788
Ne	-11.1788
▁journalists	-11.1788
Imatan	-11.1795
ico	-11.1796
▁Bel	-11.1796
vil	-11.1796
▁yonoti	-11.1797
uili	-11.1798
▁listening	-11.1799
▁dalewa	-11.18
wime	-11.1805
jero	-11.1807
katei	-11.1808
▁quemisantajeit	-11.1809
▁everywhere	-11.1812
asinsti	-11.1815
▁oguahẽ	-11.1816
59	-11.1821
▁méso	-11.1821
fr	-11.1821
▁proposing	-11.1823
▁estado	-11.1824
▁VII	-11.1824
▁acting	-11.1827
yetirori	-11.1828
▁producing	-11.1829
▁sake	-11.1829
mantan	-11.183
▁yoká	-11.183
▁janchi	-11.1831
wawe	-11.1834
▁tucuy	-11.1834
zquia	-11.1834
▁purin	-11.1835
▁seba	-11.1835
▁raweli	-11.1837
▁rely	-11.1837
tonin	-11.1838
▁scheme	-11.1839
▁shinanxon	-11.1841
▁ské	-11.1841
▁Ainiro	-11.1842
acan	-11.1842
▁buildings	-11.1847
▁basi	-11.1847
▁flexible	-11.1847
▁Paraguaýpe	-11.1847
▁ocean	-11.1848
▁pampacha	-11.185
▁obstacles	-11.1851
▁City	-11.1852
▁replace	-11.1852
▁Aririka	-11.1857
pua	-11.1861
▁qala	-11.1861
▁imapas	-11.1865
▁nub	-11.1867
▁Kan	-11.1868
43	-11.1869
úpe	-11.187
rjama	-11.1871
38	-11.1871
▁37	-11.1871
▁BBC	-11.1872
▁sontalo	-11.1872
▁invest	-11.1873
▁stu	-11.1874
▁differ	-11.1874
▁sport	-11.1877
tqui	-11.1878
▁atipanyamake	-11.1879
▁pages	-11.188
irï	-11.1881
kir	-11.1882
▁Us	-11.1882
▁makan	-11.1886
poli	-11.1887
▁pano	-11.1889
▁cent	-11.189
▁meri	-11.1891
tanake	-11.1891
ato	-11.1896
▁California	-11.1896
▁migration	-11.1896
▁persecution	-11.1896
▁platform	-11.1896
bil	-11.1896
▁sold	-11.1899
nex	-11.19
bar	-11.1901
▁uñjasi	-11.1903
gs	-11.1905
▁phuqh	-11.1905
▁bøni	-11.1906
▁1989	-11.1909
▁realistic	-11.191
▁neighbor	-11.1913
chicahua	-11.1916
▁reaching	-11.1917
▁youths	-11.1917
rale	-11.1918
▁supports	-11.1919
▁noso	-11.192
▁chaypas	-11.1921
▁qhawa	-11.1923
▁Anta	-11.1926
ological	-11.1926
▁mesa	-11.1928
sqanchista	-11.1928
▁spot	-11.1931
▁kanan	-11.1932
▁qallarisqa	-11.1932
▁uɛnda	-11.1932
chihuili	-11.1934
č	-11.1939
41	-11.194
▁blue	-11.1941
aweni	-11.1942
▁axe	-11.1944
▁ipy	-11.1944
Ì	-11.1944
▁technological	-11.1945
▁García	-11.1945
▁basically	-11.1946
▁impe	-11.1946
mä	-11.1946
▁phisqa	-11.1947
▁atiripee	-11.1949
▁kú	-11.1954
▁ordinary	-11.1957
▁White	-11.1957
▁Pavoro	-11.1958
▁killing	-11.1958
▁complicated	-11.1959
eriwani	-11.1961
▁këkëpa	-11.1961
▁Ñoqa	-11.1962
timate	-11.1965
Imaynatam	-11.1965
▁Later	-11.1966
▁ilí	-11.1967
▁sihuatl	-11.1968
yena	-11.1969
▁1993	-11.197
pping	-11.1973
échí	-11.1973
éichapa	-11.1974
▁remained	-11.1979
▁afternoon	-11.1981
ān	-11.1986
ically	-11.1986
tantarori	-11.1989
▁abi	-11.1992
▁amongst	-11.1993
▁committees	-11.1994
▁ali	-11.2002
▁mistake	-11.2002
tire	-11.2005
tric	-11.2005
▁Yoyo	-11.2008
yiri	-11.201
▁munan	-11.2011
▁Judah	-11.2014
llay	-11.2015
▁advanced	-11.2015
▁óga	-11.2017
▁pretty	-11.2018
tón	-11.202
ajsi	-11.2021
▁kopíra	-11.2028
yéname	-11.2028
▁evident	-11.203
nax	-11.2031
▁ukjamaraki	-11.2032
drí	-11.2032
▁sarnaq	-11.2032
▁delivered	-11.2033
calaqui	-11.2034
▁yam	-11.2034
▁Pë	-11.2035
not	-11.2036
▁oral	-11.2036
▁pekuru	-11.204
nanta	-11.2041
▁England	-11.2043
ícha	-11.2043
jjäna	-11.2043
▁internet	-11.2045
▁taxation	-11.2048
pul	-11.205
ymanta	-11.2051
▁carro	-11.2051
erieni	-11.2053
nkuta	-11.2054
tsite	-11.2056
▁quit	-11.2058
▁imojuanti	-11.2059
yot	-11.2062
▁branch	-11.2063
▁hy	-11.2063
▁kuyaxi	-11.2063
añapataqui	-11.2064
▁mapi	-11.2064
▁Having	-11.2064
▁payta	-11.2065
▁taki	-11.2065
her	-11.2065
Aritikuru	-11.2068
▁Agriculture	-11.2068
▁Espíritu	-11.2068
▁qualified	-11.2068
▁spite	-11.2069
teji	-11.207
sel	-11.207
▁atsa	-11.2071
ayeit	-11.2074
niyon	-11.2074
▁core	-11.2075
▁45	-11.2077
nkuna	-11.208
▁widespread	-11.208
itsi	-11.2081
▁Abrá	-11.2082
olo	-11.2084
misa	-11.2085
▁escape	-11.2085
▁apparently	-11.2085
▁kara	-11.2086
▁Mapu	-11.2087
▁bák	-11.2091
▁recall	-11.2093
▁Gobierno	-11.2094
▁jist	-11.2095
AR	-11.2096
pqui	-11.2099
▁names	-11.2099
▁4.	-11.21
▁qam	-11.2101
▁tekove	-11.2103
▁survey	-11.2105
▁nijnequi	-11.2105
▁Market	-11.2108
benta	-11.2108
▁Az	-11.2111
51	-11.2112
▁maintaining	-11.2114
kì	-11.2115
▁kristo	-11.2117
▁tukj	-11.2119
▁victory	-11.212
▁pruwinsya	-11.212
▁Was	-11.2121
▁perform	-11.2122
▁follows	-11.2122
▁improvements	-11.2123
lt	-11.2127
▁guaranteed	-11.2128
▁School	-11.213
▁blessing	-11.213
▁mochihua	-11.2132
▁voluntary	-11.2133
▁kaai	-11.2134
caguihʉ	-11.2137
▁masehuali	-11.2142
▁terrible	-11.2142
▁msnm	-11.2142
▁hinhya	-11.2142
▁presidential	-11.2144
▁Matt	-11.2145
▁niwe	-11.2146
▁amta	-11.2146
huij	-11.2148
keska	-11.2149
▁Sur	-11.215
72	-11.2151
cuitla	-11.2151
▁ninka	-11.2152
lly	-11.2153
▁chair	-11.2154
iyani	-11.2155
▁politically	-11.2155
Jawekeska	-11.2157
▁cʉt	-11.2157
▁ikain	-11.2158
▁Jaská	-11.2158
▁coco	-11.2158
▁jacha	-11.216
▁viewed	-11.2161
xtla	-11.2163
▁oti	-11.2165
42	-11.2165
▁meal	-11.2166
▁opavave	-11.2167
▁Sunday	-11.2167
Jaweti	-11.2168
nakaxa	-11.2169
▁push	-11.2169
yetari	-11.2172
anga	-11.2174
▁kanchis	-11.2175
▁chemical	-11.2175
oya	-11.2177
wewie	-11.2177
head	-11.2178
▁titayari	-11.2181
▁reká	-11.2182
▁Islamic	-11.2183
pjje	-11.2184
▁mika	-11.2186
state	-11.2188
▁competence	-11.2188
anque	-11.2192
◆	-11.2192
▁nawá	-11.2194
▁inolá	-11.2195
tiuyuri	-11.2201
▁yamake	-11.2201
▁revenue	-11.2205
▁qullan	-11.2205
▁solid	-11.2206
▁2014	-11.2207
▁guerra	-11.2207
▁coast	-11.221
▁Paraguáipe	-11.2211
pasa	-11.2213
▁benbo	-11.2215
mot	-11.2216
Dios	-11.2216
▁Matthew	-11.2217
▁Psalm	-11.2217
▁Croatia	-11.2217
▁historic	-11.222
▁Sapa	-11.2221
ome	-11.2226
▁except	-11.2229
▁rukele	-11.223
▁oficial	-11.223
▁ukanaka	-11.2232
▁Funds	-11.2232
▁Ucat	-11.2233
▁settlement	-11.2234
meri	-11.2235
▁resolutions	-11.2236
▁Ger	-11.2238
iyarit	-11.2241
kane	-11.2242
▁armed	-11.2242
▁municipales	-11.2246
lon	-11.2246
▁wars	-11.2246
Min	-11.2248
▁whereas	-11.225
tpach	-11.225
▁hair	-11.2251
▁increases	-11.2252
▁pehẽngue	-11.2255
▁Res	-11.2258
▁ACP	-11.2258
▁proposes	-11.2258
yaka	-11.2261
▁divided	-11.2261
▁hinaspam	-11.2261
▁subjects	-11.2265
dos	-11.2267
▁Structural	-11.2267
://	-11.2268
‘	-11.2268
32	-11.2269
▁imports	-11.2272
apxäta	-11.2272
has	-11.2273
▁Nayasti	-11.2274
xtli	-11.2275
raquï	-11.2275
▁runakunam	-11.2276
▁teiteri	-11.2276
63	-11.2277
cept	-11.2278
▁exports	-11.2281
▁pictures	-11.2282
phʉ	-11.2283
▁bill	-11.2284
,”	-11.2284
▁completed	-11.2289
▁cope	-11.229
▁Copenhagen	-11.2293
▁divorce	-11.2293
apqui	-11.2293
reke	-11.2293
iqi	-11.2294
rotsi	-11.2296
▁irima	-11.2296
ykichik	-11.2297
▁refers	-11.23
▁cualli	-11.2302
▁Piruwpi	-11.2305
▁taypi	-11.2305
▁Asunción	-11.2305
▁najtékame	-11.2305
▁Please	-11.2305
▁length	-11.2306
▁Urqunaka	-11.2306
▁Diego	-11.2306
▁prime	-11.2306
▁paitarica	-11.2307
sunki	-11.2307
▁ohupyty	-11.231
▁restore	-11.2311
▁conversation	-11.2315
▁koshia	-11.2316
coc	-11.2316
▁lesson	-11.2317
▁Association	-11.2318
racjʉ	-11.232
▁erule	-11.2322
▁Ani	-11.2327
▁Ava	-11.2327
▁kóva	-11.2327
▁raising	-11.2328
ñapataki	-11.2328
▁niukiyari	-11.233
▁júlale	-11.2331
ntayetiri	-11.2335
nacap	-11.2343
weme	-11.2343
▁satisfied	-11.2343
yuhayewa	-11.2346
jch	-11.2349
tè	-11.2351
▁pusa	-11.2355
▁adult	-11.2355
▁shadow	-11.2356
tzitzi	-11.2357
▁caught	-11.2358
▁jisct	-11.2359
▁Thirdly	-11.236
iret	-11.2362
▁directed	-11.2363
▁ichök	-11.2363
▁templo	-11.2364
huiz	-11.2365
▁vessels	-11.2365
▁jalsu	-11.2365
▁aycha	-11.2365
▁yajqui	-11.2366
▁surrounding	-11.2371
▁héra	-11.2376
▁bearing	-11.2377
▁mach	-11.2377
▁Budget	-11.2379
ynin	-11.238
▁sébale	-11.238
rito	-11.238
▁submit	-11.238
▁ishaninca	-11.238
▁rabiti	-11.238
nkichik	-11.238
▁ontimatye	-11.2381
▁confident	-11.2381
▁electoral	-11.2382
▁negotiating	-11.2382
▁http	-11.2382
▁photograph	-11.2382
▁nunutsi	-11.2382
ygua	-11.2384
▁functioning	-11.2384
otl	-11.2385
elo	-11.2386
égame	-11.2388
53	-11.239
91	-11.239
tivo	-11.2395
▁auto	-11.2396
▁nawa	-11.2397
▁kaqkuna	-11.2399
▁ukar	-11.24
▁helpful	-11.24
▁karu	-11.2401
▁waka	-11.2404
▁birds	-11.2404
atl	-11.2405
gob	-11.2408
▁penalty	-11.2408
▁keenai	-11.2408
▁referring	-11.2408
mple	-11.2408
Imarayku	-11.2409
▁hmu	-11.2411
▁wah	-11.2415
teĩ	-11.2415
ale	-11.2418
▁pen	-11.2419
▁significance	-11.242
▁pinquemisant	-11.242
▁dependent	-11.2421
President	-11.2421
▁oikuaa	-11.2423
▁season	-11.2424
▁arise	-11.2425
▁claimed	-11.2426
▁Socialist	-11.2427
▁omombe	-11.2429
▁jäpi	-11.243
▁beñhʉ	-11.2432
▁threats	-11.2433
naya	-11.2434
▁katunt	-11.2435
▁marked	-11.2436
▁frequently	-11.2436
▁kepauka	-11.2438
▁paro	-11.2438
taquejj	-11.244
”.	-11.244
94	-11.2441
▁necessarily	-11.2446
ney	-11.2447
▁2015	-11.2448
▁box	-11.2448
sus	-11.245
▁ipati	-11.245
▁freedoms	-11.2451
▁Moishishi	-11.2455
▁Balkans	-11.2455
nati	-11.2457
▁purini	-11.2457
ritsi	-11.2458
▁alawégame	-11.2459
ñepi	-11.246
rekó	-11.2461
▁Ucampisa	-11.2463
▁Ára	-11.2467
▁kítera	-11.2468
mueka	-11.247
▁barriers	-11.2472
▁castiga	-11.2473
▁sipan	-11.2475
▁Peru	-11.2476
óva	-11.2477
▁formed	-11.2479
gan	-11.2479
lise	-11.2481
▁investigation	-11.2483
▁nen	-11.2483
▁Meka	-11.2484
▁guidance	-11.2484
ncy	-11.2484
▁posts	-11.2487
Émi	-11.2488
yamawe	-11.2488
▁Legal	-11.2489
bur	-11.2492
tikamie	-11.2493
ich	-11.2493
▁kama	-11.2495
iwiya	-11.2495
guáva	-11.2496
▁rijimala	-11.2497
log	-11.2498
othogui	-11.2498
▁jupanakarux	-11.2498
▁suddenly	-11.2501
▁chiban	-11.2501
▁pejqui	-11.2501
▁kuini	-11.2503
▁fourth	-11.2506
▁duö	-11.2508
▁Biblia	-11.251
▁ʉtsa	-11.2511
▁iñiqmasinchik	-11.2512
ajeri	-11.2513
▁gradually	-11.2513
wanqa	-11.2514
chisqa	-11.2515
▁jichhajj	-11.2517
eriwat	-11.2518
▁amuyu	-11.2518
tlajtlani	-11.2519
nïnwa	-11.2519
▁tlaltepactli	-11.2523
▁iya	-11.2524
▁congregations	-11.2525
lled	-11.2526
cious	-11.2528
▁declare	-11.2529
mani	-11.2529
pal	-11.2535
▁perfectly	-11.2536
▁undoubtedly	-11.2536
▁uniform	-11.2536
ema	-11.2536
omi	-11.2539
▁chibi	-11.2539
maquixti	-11.254
▁Wawa	-11.2541
waka	-11.2542
▁nokota	-11.2544
▁arust	-11.2546
▁tucj	-11.2547
▁yak	-11.2548
▁conviction	-11.2549
▁tragic	-11.2549
▁bijchígi	-11.2549
▁itimi	-11.2552
▁Sil	-11.2553
apjje	-11.2554
▁Robert	-11.2555
▁violations	-11.2556
íchale	-11.2558
antyarori	-11.256
▁Still	-11.2563
▁kastilla	-11.2564
jeitaje	-11.2566
▁udi	-11.2567
jke	-11.2567
▁demanding	-11.2569
▁api	-11.257
cking	-11.2572
nmanta	-11.2572
▁mid	-11.2574
▁Consumer	-11.2575
▁explanation	-11.2575
sqankumanta	-11.2575
▁tepe	-11.2576
shu	-11.2577
▁Ica	-11.2579
▁phuqha	-11.2583
▁fill	-11.2583
▁Bá	-11.2583
▁guecua	-11.2587
wiyani	-11.2587
▁njaḇu	-11.2588
▁straight	-11.2588
▁arrangement	-11.2589
▁etele	-11.259
llow	-11.259
▁"¿	-11.259
▁tongue	-11.2591
▁maintained	-11.2591
▁contributed	-11.2593
quiri	-11.2597
kar	-11.2597
▁darërë	-11.2597
▁biyöchökwak	-11.2598
▁AIDS	-11.2599
▁xiuitl	-11.2601
mpejj	-11.2602
qual	-11.2603
▁tsir	-11.2604
etho	-11.2605
▁interpretation	-11.2605
▁itlajtol	-11.2606
Ka	-11.2607
arike	-11.2607
uhqui	-11.2608
ayetiri	-11.2609
▁Mor	-11.261
sanori	-11.261
▁sp	-11.261
ñataqui	-11.2611
af	-11.2612
▁tlatla	-11.2613
▁iwö	-11.2613
▁gíte	-11.2614
▁kitenie	-11.2614
▁motor	-11.2615
▁aitaque	-11.2616
taya	-11.2616
▁34	-11.2617
scale	-11.2617
▁port	-11.2619
▁river	-11.262
guy	-11.2621
pxam	-11.2624
xte	-11.2626
aneneme	-11.2626
▁taltipacti	-11.2627
▁audience	-11.2627
▁northern	-11.2627
▁facilities	-11.2627
▁nopona	-11.2628
▁appearance	-11.2628
▁sarakïnwa	-11.2632
▁believes	-11.2633
▁observe	-11.2635
jeitaquena	-11.2635
▁kawa	-11.2637
▁ruway	-11.2638
▁quick	-11.2639
▁México	-11.264
▁ikenbi	-11.2641
▁hate	-11.2641
▁yosi	-11.2642
avi	-11.2642
▁career	-11.2643
vetacari	-11.2645
tianbi	-11.2646
ida	-11.2649
▁Puerto	-11.2653
▁Tower	-11.2654
▁preserve	-11.2659
▁charges	-11.2659
▁Bet	-11.2659
ator	-11.2659
▁regionales	-11.2663
bla	-11.2664
cam	-11.2664
éame	-11.2667
▁fulfillment	-11.2667
▁oimehápe	-11.2667
▁Ojehechá	-11.2669
▁preventing	-11.267
▁quito	-11.2671
▁effectiveness	-11.2673
weti	-11.2674
free	-11.2675
▁Jeri	-11.2676
▁xahnate	-11.268
▁Queario	-11.268
▁arsta	-11.268
▁nel	-11.2682
ntaro	-11.2687
▁heads	-11.2691
▁kun	-11.2692
▁arandu	-11.2692
▁Partido	-11.2693
▁cual	-11.2693
▁amigo	-11.2693
▁servant	-11.2694
▁globalisation	-11.2695
▁outstanding	-11.2696
▁ttsö	-11.2696
▁reflected	-11.2696
gg	-11.2697
▁joa	-11.2699
nke	-11.2703
pix	-11.2704
▁unfair	-11.2706
ichi	-11.2708
RA	-11.271
namiqui	-11.271
▁Has	-11.271
keme	-11.2711
iji	-11.2712
imi	-11.2712
▁jóni	-11.2712
▁aravo	-11.2713
yale	-11.2715
▁images	-11.2715
▁oî	-11.2716
▁kitaiteri	-11.2717
▁cuts	-11.2719
Applause	-11.2719
▁attended	-11.2722
04	-11.2724
kariya	-11.2726
tigá	-11.2727
▁Pamene	-11.2728
wima	-11.2729
▁ruvicha	-11.2732
▁tragedy	-11.2732
▁nire	-11.2732
▁Food	-11.2733
▁nuleme	-11.2733
▁riógachi	-11.2734
▁ojekuaa	-11.2735
▁abandon	-11.2736
▁Berlin	-11.2737
▁yatiñ	-11.2737
▁otsipa	-11.2738
mination	-11.2742
khá	-11.2742
▁kalindaryukama	-11.2746
▁sama	-11.2752
▁muk	-11.2752
apx	-11.2753
▁ake	-11.2757
▁suit	-11.2758
▁tequiti	-11.2758
▁Should	-11.2759
▁forthcoming	-11.2759
▁Anti	-11.2762
balök	-11.2762
▁lessons	-11.2763
67	-11.2763
oja	-11.2765
nikiekai	-11.2767
karo	-11.2768
▁links	-11.2772
▁2007-2010	-11.2772
▁tlaltipactli	-11.2772
cher	-11.2781
bling	-11.2781
▁koshin	-11.2783
▁nacionpi	-11.2784
uximaya	-11.2785
▁stood	-11.2785
▁Mil	-11.2786
▁duties	-11.2787
▁punta	-11.2787
▁jina	-11.2788
▁bánet	-11.2789
chay	-11.2792
hna	-11.2795
tava	-11.2796
maxon	-11.2798
ʉca	-11.2805
med	-11.2806
aciones	-11.2807
▁nulalíwa	-11.2808
là	-11.281
kunatam	-11.281
▁5.	-11.281
▁bomb	-11.2811
▁drop	-11.2812
▁uywata	-11.2813
yek	-11.2815
▁requested	-11.2816
äki	-11.2816
▁fun	-11.2818
▁nju	-11.2819
▁chanin	-11.2819
águi	-11.2822
▁relative	-11.2822
▁lasting	-11.2824
▁mboyve	-11.2825
▁Nopa	-11.2829
▁threatened	-11.283
▁Í	-11.2833
▁candidates	-11.2834
▁huehue	-11.2835
▁chiqan	-11.2835
ñachu	-11.2837
▁significantly	-11.2837
catzin	-11.2837
▁recognized	-11.2838
kantero	-11.2838
▁yehuantin	-11.2839
▁options	-11.284
▁wishati	-11.2841
kewa	-11.2841
▁rabe	-11.2842
▁marandu	-11.2844
▁repeatedly	-11.2844
%	-11.2846
▁welcomed	-11.2846
jiri	-11.2848
▁calm	-11.2849
▁hakewa	-11.2852
▁Jordan	-11.2852
▁oya	-11.2852
ajiri	-11.2853
▁quarter	-11.2856
▁Peace	-11.2857
ztli	-11.2857
▁kaynata	-11.2858
▁Jani	-11.2858
▁khiti	-11.2858
▁visa	-11.2864
▁kusiku	-11.2865
▁Clearly	-11.2865
▁inclusion	-11.2865
▁quipixqui	-11.2867
▁bixon	-11.2869
▁match	-11.287
▁awe	-11.287
▁Tar	-11.287
▁nakí	-11.2872
ham	-11.2874
tah	-11.2876
▁xekani	-11.2876
macas	-11.2877
▁bottom	-11.2879
▁assignment	-11.2879
▁Andrés	-11.2879
▁Action	-11.288
ticatca	-11.2883
uximayatame	-11.2883
▁Jupa	-11.2884
añapataki	-11.2884
pot	-11.2885
ỹi	-11.2886
▁Tur	-11.2887
tlatla	-11.2887
▁achu	-11.2889
▁Ph	-11.2891
▁phenomenon	-11.2892
▁amazing	-11.2893
▁nit	-11.2895
anaje	-11.2895
▁Jupasti	-11.2897
sqanchis	-11.2897
aguy	-11.2898
▁khu	-11.2898
ñapataqui	-11.2898
▁tantea	-11.2899
light	-11.2905
▁Oka	-11.2907
▁pension	-11.2908
▁sequin	-11.2909
▁deserve	-11.291
▁fla	-11.2911
▁pashinipe	-11.2911
▁decline	-11.2912
▁sports	-11.2914
▁paké	-11.2914
miri	-11.2915
▁atipa	-11.2919
▁Nazaret	-11.2919
arit	-11.2921
▁alter	-11.2922
jú	-11.2923
▁apà	-11.2923
mmer	-11.2923
▁Jawen	-11.2924
▁sutin	-11.2924
▁(4	-11.2924
▁paypa	-11.2925
▁fulfil	-11.2926
▁Muslim	-11.2927
chaq	-11.2927
yuku	-11.2928
▁ime	-11.2929
caraqui	-11.2932
▁smoke	-11.2932
▁Revelation	-11.2933
jari	-11.2933
▁Free	-11.2933
▁revision	-11.2936
▁charine	-11.2936
▁constitute	-11.2937
▁Nugui	-11.2938
▁mistu	-11.2939
▁sipansa	-11.294
▁absolute	-11.294
tiya	-11.2941
▁4:	-11.2941
▁suyunaka	-11.2943
venta	-11.2945
▁ˈ	-11.2945
usa	-11.2949
▁kul	-11.2949
▁mera	-11.2951
▁centre	-11.2952
▁ohechauka	-11.2953
▁personality	-11.2953
▁attempts	-11.2955
tzqui	-11.2957
▁jaken	-11.2959
ligame	-11.2959
▁hindi	-11.2961
Ñ	-11.2962
▁tlaque	-11.2962
mabo	-11.2963
▁wawanacapa	-11.2964
▁llaki	-11.2964
84	-11.2969
nakapax	-11.297
▁reina	-11.2972
ñì	-11.2972
▁puts	-11.2972
▁ça	-11.2976
▁raké	-11.2976
Hanja	-11.2977
enie	-11.298
yemie	-11.298
tē	-11.2981
ritsie	-11.2982
▁thak	-11.2984
▁undermine	-11.2985
kayu	-11.2986
▁losing	-11.2986
▁savings	-11.2987
▁strategies	-11.2987
▁federal	-11.2987
▁xobon	-11.2989
▁exception	-11.2989
ÿ	-11.2994
▁hamat	-11.2998
aji	-11.3
ketianra	-11.3002
cneli	-11.3003
▁roll	-11.3005
▁pira	-11.3009
▁hualas	-11.3009
▁ice	-11.301
▁Gue	-11.3012
bopi	-11.3012
▁wood	-11.3013
aba	-11.3013
▁Could	-11.3014
▁queario	-11.3016
tico	-11.302
▁kiàn	-11.3021
▁Tri	-11.3024
ixpan	-11.3025
hueli	-11.3026
▁harmonisation	-11.3027
▁signs	-11.3029
▁quinamiqui	-11.303
▁goná	-11.3031
▁ichaj	-11.3036
▁gätsi	-11.3038
▁farming	-11.3039
▁tsø	-11.3041
▁1:	-11.3041
kúchila	-11.3041
▁hembiapo	-11.3042
▁iriotaque	-11.3042
▁nisqapi	-11.3042
tiani	-11.3043
58	-11.3045
▁anampiki	-11.3047
▁radical	-11.3049
utiyuane	-11.3051
▁abroad	-11.3055
▁foretold	-11.3055
▁smoking	-11.3055
▁tests	-11.3055
▁imaymana	-11.3055
▁okantakota	-11.3056
▁1950	-11.3057
▁Sin	-11.3057
▁peẽ	-11.3059
maritime	-11.3061
▁osá	-11.3062
▁precise	-11.3062
▁calaqui	-11.3066
▁quineltoca	-11.3067
▁Itália	-11.3069
atawa	-11.3069
▁minute	-11.307
▁senenha	-11.307
▁muku	-11.3071
yurie	-11.3072
tiz	-11.3075
▁Nub	-11.3076
▁Icantiri	-11.3079
niliga	-11.3079
▁Hungarian	-11.3082
tayna	-11.3085
▁finish	-11.3086
What	-11.3086
tianra	-11.3087
pachaw	-11.3088
▁arrive	-11.3088
íame	-11.3092
▁dalöiè	-11.3096
▁tlajtlamach	-11.3096
▁wimari	-11.3096
▁permit	-11.3097
itian	-11.3097
▁cuenta	-11.3098
▁Inter	-11.3098
▁Holy	-11.3099
▁dispute	-11.3103
▁apaniro	-11.3105
▁noise	-11.3106
▁rika	-11.3108
▁ttökatapa	-11.3108
▁Martín	-11.3109
▁beneficial	-11.311
▁dynamic	-11.311
▁window	-11.311
▁kawkha	-11.311
pyre	-11.3112
▁ninkáxon	-11.3112
nacajja	-11.3114
▁cuɛ	-11.3114
▁Iranian	-11.3115
▁broke	-11.3115
▁witari	-11.3118
▁accidents	-11.3118
▁retain	-11.3119
▁bejtégame	-11.3123
▁pishaninca	-11.3125
▁krus	-11.3126
▁tradition	-11.3127
ER	-11.3127
▁táni	-11.3128
▁Gar	-11.3128
▁regardless	-11.3129
▁Moab	-11.3129
▁tsʉ	-11.3129
▁River	-11.313
▁pija	-11.3131
▁parte	-11.3134
sila	-11.3134
52	-11.3135
▁About	-11.3137
▁të	-11.3139
añapa	-11.3139
manpas	-11.3141
▁block	-11.3145
naku	-11.3145
▁tupa	-11.3147
Plantilla	-11.3147
▁copy	-11.3148
▁diplomatic	-11.3151
▁mochímala	-11.3153
pel	-11.3154
▁compliance	-11.3157
▁Up	-11.3157
jketl	-11.3157
▁user	-11.3158
▁ñuni	-11.3161
cä	-11.3163
▁sensible	-11.3165
▁grew	-11.3165
▁kikinbires	-11.3167
paka	-11.3171
lina	-11.3172
nkuchu	-11.3174
▁poll	-11.3175
ámala	-11.3175
das	-11.3178
▁huejcajquiya	-11.3178
▁fat	-11.3179
▁VIII	-11.3181
▁invite	-11.3186
▁paykunaqa	-11.3188
évo	-11.3189
▁osarentsi	-11.3191
▁papan	-11.3192
▁Financial	-11.3192
▁wakich	-11.3193
Sa	-11.3193
▁mobile	-11.3194
▁garden	-11.3195
▁legally	-11.3195
▁—¿	-11.3195
Al	-11.3196
▁wataqa	-11.3199
▁moma	-11.3201
zqui	-11.3202
▁enra	-11.3205
lation	-11.3205
▁writer	-11.3205
▁quta	-11.3205
▁ihcuac	-11.3206
▁eyök	-11.3209
▁omoañete	-11.321
▁combined	-11.321
▁suggests	-11.3211
▁stone	-11.3212
▁reflects	-11.3213
pani	-11.3216
▁gepu	-11.3219
▁Auditors	-11.322
▁Leví	-11.322
sile	-11.3226
▁section	-11.3226
▁achtohui	-11.3227
ninchis	-11.3227
▁axeti	-11.3227
bes	-11.3227
▁jainxonra	-11.3228
phe	-11.3228
▁topic	-11.323
▁precious	-11.3235
▁toke	-11.324
▁mer	-11.3245
▁watsata	-11.3246
▁Uqham	-11.3246
▁Mal	-11.3246
▁obtained	-11.3249
rian	-11.3249
huili	-11.3253
▁arunak	-11.3254
ntakeri	-11.3254
▁mayor	-11.3256
▁jakejj	-11.3256
▁quipatsi	-11.3256
ismo	-11.326
▁Home	-11.326
iteri	-11.3261
▁Following	-11.3262
▁communicate	-11.3262
▁begun	-11.3262
▁definitely	-11.3264
▁beliefs	-11.3267
▁pot	-11.3267
▁Táva	-11.3268
▁medicine	-11.327
▁houses	-11.3271
▁flood	-11.3272
uq	-11.3274
makin	-11.3275
kena	-11.3275
vel	-11.3276
sic	-11.3279
▁shinanbo	-11.328
some	-11.3282
▁grown	-11.3283
jʉ	-11.3283
▁operators	-11.3287
▁diö	-11.3289
▁oquimijlij	-11.329
▁Secretary	-11.329
mpiro	-11.329
▁Chayta	-11.329
▁luras	-11.3292
▁xcr	-11.3292
▁seed	-11.3294
uximayatsikatsie	-11.3294
▁iriri	-11.3296
▁Rio	-11.3301
▁realise	-11.3301
▁(?	-11.3302
tewiya	-11.3304
berg	-11.3305
yamakanwe	-11.3305
▁angels	-11.3307
▁prayers	-11.3311
▁Méhiko	-11.3318
▁xitlahuac	-11.3318
ker	-11.3319
▁Peteĩ	-11.332
▁nthe	-11.3322
tiaya	-11.3322
▁Cua	-11.3324
▁nochimej	-11.3326
quij	-11.3329
▁sisqui	-11.3329
▁toTeco	-11.3331
▁Sichu	-11.3331
ytaqa	-11.3332
▁missing	-11.3332
▁sarak	-11.3336
Ni	-11.3339
▁max	-11.3341
qucha	-11.3342
▁style	-11.3343
▁ret	-11.3343
▁Consequently	-11.3346
▁Strasbourg	-11.3346
▁whilst	-11.3346
▁remarkable	-11.3346
▁Piñanatero	-11.3347
81	-11.3348
▁com	-11.3356
▁Northern	-11.336
▁educational	-11.3361
pjjam	-11.3361
▁vida	-11.3366
▁eliminate	-11.3366
came	-11.3367
▁firms	-11.3369
jä	-11.3369
▁wiyari	-11.337
bro	-11.337
ute	-11.3371
▁clarify	-11.3374
▁concentration	-11.3374
rami	-11.3375
▁uqhamat	-11.3377
▁kunatix	-11.3378
mpiru	-11.3379
wanpas	-11.3379
▁bajchá	-11.338
▁earthly	-11.338
▁Num	-11.3383
▁engaged	-11.3384
▁onanna	-11.3384
▁prospects	-11.3385
▁gained	-11.3386
▁park	-11.3386
▁Gui	-11.3387
▁rewagáchika	-11.3388
▁NGOs	-11.3389
▁gun	-11.3392
▁(5	-11.3394
alla	-11.3402
antaitatiyempani	-11.3402
▁supplies	-11.3402
▁sets	-11.3402
▁chupekuéra	-11.3403
▁modest	-11.3403
▁míyal	-11.3403
blö	-11.3403
▁Eve	-11.3405
▁encouragement	-11.3406
kuta	-11.3407
▁chéve	-11.3407
▁Asian	-11.3407
ese	-11.341
wekaku	-11.3412
▁Christianity	-11.3414
▁Abraámi	-11.3416
▁xcuajli	-11.3416
▁generations	-11.3416
▁michĩ	-11.3419
▁Baltic	-11.3421
▁mono	-11.3423
▁gathered	-11.3423
▁tough	-11.3424
tâ	-11.3428
▁Oc	-11.3429
▁freely	-11.3429
▁huejhueyi	-11.343
▁cunjäma	-11.3431
▁arc	-11.3431
▁oraken	-11.3433
▁rational	-11.3436
tixek	-11.3436
▁foundation	-11.3436
▁governing	-11.3436
dre	-11.3436
▁concentrate	-11.3437
▁ijina	-11.3438
▁deaths	-11.3438
▁Tito	-11.3438
▁dollar	-11.3441
ihi	-11.3441
rity	-11.3442
rienik	-11.3444
ey	-11.3444
▁jumax	-11.3444
▁struck	-11.3445
▁Tribunal	-11.3445
▁Bueno	-11.3445
▁uñisiri	-11.3446
món	-11.3447
▁arma	-11.345
▁cada	-11.3451
▁36	-11.3452
yamakin	-11.3452
boa	-11.3453
▁investors	-11.3454
lichi	-11.3454
fall	-11.3455
▁jawira	-11.3455
ego	-11.3459
▁fault	-11.3459
▁Stability	-11.3459
▁Ay	-11.3463
mti	-11.3463
▁Pamenero	-11.3465
▁quiso	-11.3466
taña	-11.3466
▁gueque	-11.3468
table	-11.3469
▁reka	-11.3473
▁reliable	-11.3473
▁ocameetsati	-11.3473
▁memory	-11.3475
▁blow	-11.3478
▁soft	-11.3481
cjʉ	-11.3481
▁xipa	-11.3484
▁bachá	-11.3485
bly	-11.3486
▁oñeme	-11.3487
▁hunger	-11.3488
▁Jichhasti	-11.3488
▁farm	-11.349
huel	-11.3491
▁actively	-11.3491
▁itechcopa	-11.3491
▁Tsi	-11.3492
▁ypa	-11.3497
▁ñot	-11.3499
▁eurozone	-11.3501
▁extension	-11.3501
▁satisfaction	-11.3501
▁yield	-11.3502
▁exposed	-11.3504
▁markat	-11.3507
▁catuy	-11.3508
▁pini	-11.3511
▁kicha	-11.3512
▁axea	-11.3513
qkunaqa	-11.3513
▁PPE	-11.3516
▁bridge	-11.3517
▁janipuniw	-11.3517
øhø	-11.3519
qku	-11.3519
Je	-11.352
cänti	-11.3524
▁saved	-11.3525
▁ajayu	-11.3526
▁asale	-11.3526
▁yú	-11.3526
êva	-11.3529
▁highlighted	-11.353
▁Luxembourg	-11.353
▁nevertheless	-11.353
▁choices	-11.3531
▁Christmas	-11.3532
▁Ah	-11.3535
tawikuei	-11.3538
cati	-11.3539
▁jupanak	-11.3541
▁honour	-11.3543
▁oquijlij	-11.3544
▁Venezuela	-11.3544
▁spiritually	-11.3547
▁tekatsi	-11.3547
▁Dan	-11.3547
tira	-11.3547
▁kéré	-11.3549
asqui	-11.3551
Se	-11.3551
liwa	-11.3552
yal	-11.3552
ltzin	-11.3554
▁Washington	-11.3559
▁leitexi	-11.3559
wide	-11.3561
▁Budgets	-11.3561
▁itequi	-11.3565
▁connected	-11.3565
melahua	-11.3568
▁pà	-11.3568
▁repara	-11.3569
masa	-11.3569
▁kàne	-11.3571
▁chachax	-11.3571
janiki	-11.3571
spanmi	-11.3572
nacsa	-11.3572
noxikanai	-11.3573
írimala	-11.3573
▁fishermen	-11.3573
▁distress	-11.3573
IS	-11.3575
▁yoan	-11.3575
▁jaskáaxon	-11.3577
▁suya	-11.3577
▁dutu	-11.3581
turn	-11.3583
▁hopes	-11.3585
▁Common	-11.3586
atahuta	-11.3589
▁(20	-11.3591
▁ikainko	-11.3592
▁heading	-11.3593
▁seña	-11.3594
▁guare	-11.3597
▁jupanac	-11.3598
ochi	-11.36
ill	-11.36
▁couldn	-11.3601
CC	-11.3601
▁noTata	-11.3602
▁storm	-11.3602
▁labelling	-11.3603
namaca	-11.3603
ibö	-11.3609
ankin	-11.3611
▁faster	-11.3611
▁adds	-11.3612
llam	-11.3614
▁baptism	-11.3616
▁mercy	-11.3617
kya	-11.3617
▁nulé	-11.362
▁hendive	-11.362
▁impa	-11.362
▁partly	-11.3621
▁ships	-11.3625
gent	-11.3627
nacjja	-11.3628
wili	-11.3629
▁qhepa	-11.3629
▁5:	-11.363
▁Lla	-11.3632
▁quote	-11.3633
ypaq	-11.3635
▁kapö	-11.3637
):	-11.364
▁Sen	-11.3641
▁khitis	-11.3643
ixeiya	-11.3643
▁THE	-11.3645
▁tacame	-11.3646
▁succeeded	-11.3646
kanabo	-11.3646
achasi	-11.3647
▁séba	-11.3648
kasi	-11.3649
▁kollu	-11.3649
▁ebu	-11.3653
▁preso	-11.3655
▁manaraq	-11.3657
▁(6	-11.3658
▁experiment	-11.366
▁wimaritsie	-11.3662
▁fleet	-11.3663
tkër	-11.3664
▁paketa	-11.3665
taxat	-11.3665
▁players	-11.3667
Ko	-11.3668
▁sigui	-11.3668
▁sins	-11.3668
enieka	-11.3669
▁crises	-11.3674
▁wöklö	-11.3675
▁shinanman	-11.3675
wik	-11.3677
araquïnwa	-11.3677
▁programs	-11.3679
▁jabo	-11.3681
If	-11.3685
▁Sometimes	-11.3689
▁qallari	-11.369
▁aparo	-11.369
tlahto	-11.369
añu	-11.3691
▁journalist	-11.3692
▁lurir	-11.3696
▁nami	-11.3696
▁2,	-11.3696
▁tlanahuatili	-11.3696
ular	-11.3697
sqayta	-11.3699
▁mepute	-11.3701
chix	-11.3702
▁incident	-11.3703
▁Barcelona	-11.3703
▁multilateral	-11.3703
▁ñawpa	-11.3705
▁speaker	-11.3709
related	-11.371
▁katuy	-11.3711
▁label	-11.3711
▁mistakes	-11.3711
paqmi	-11.3711
▁patké	-11.3713
▁xeketene	-11.3714
ians	-11.3716
xeiyakai	-11.3717
▁Cruz	-11.3718
▁Lebanon	-11.3719
▁enhance	-11.3725
▁illustrate	-11.3725
reg	-11.3728
iwi	-11.3728
▁República	-11.3733
tiva	-11.3733
▁willaku	-11.3733
▁espiritu	-11.3734
▁hoka	-11.3734
▁accused	-11.3735
▁jʉ	-11.3737
▁yma	-11.374
▁launch	-11.374
▁religions	-11.3741
ywan	-11.3742
töm	-11.3744
sqay	-11.3747
stor	-11.375
▁wider	-11.375
chiq	-11.375
naketian	-11.375
kayotl	-11.3751
▁stocks	-11.3752
▁mexa	-11.3752
▁Paykunaqa	-11.3753
▁residents	-11.3754
▁apparent	-11.3756
▁Ol	-11.3756
▁stra	-11.3757
▁tava	-11.3758
▁expansion	-11.3762
▁occupation	-11.3762
▁senibí	-11.3762
nawa	-11.3762
apóva	-11.3765
▁ñemby	-11.3765
tlā	-11.3766
gor	-11.3766
▁Hatun	-11.3767
anuye	-11.3768
hto	-11.3768
▁describe	-11.3769
jeitaquempi	-11.3769
bb	-11.3771
taw	-11.3771
▁koiran	-11.3771
nkunata	-11.3773
▁sorry	-11.3774
▁iroamere	-11.3776
▁innovative	-11.3776
▁supervision	-11.3777
ties	-11.3778
▁bebonbires	-11.3778
▁Nayax	-11.3779
▁sites	-11.378
▁cohi	-11.3782
▁jabé	-11.3782
▁Pal	-11.3783
reka	-11.3785
iled	-11.3785
▁briefly	-11.3785
▁Jaskáakin	-11.3787
▁ejemplo	-11.3791
▁volume	-11.3791
▁kallpancha	-11.3791
cide	-11.3792
▁bakebaon	-11.3792
kuaáva	-11.3792
cca	-11.3793
tame	-11.3795
▁activists	-11.3797
▁uses	-11.3797
▁mehe	-11.3799
▁Buliwya	-11.3801
äqui	-11.3802
▁illustration	-11.3806
▁yaxeikía	-11.3806
▁1979	-11.3807
▁mekate	-11.3808
▁iron	-11.381
▁essentially	-11.3814
▁cama	-11.3817
▁irnaq	-11.3817
.5	-11.3818
▁1986	-11.3822
▁1960	-11.3822
riba	-11.3823
▁bijí	-11.3826
▁oppose	-11.3827
▁Tlen	-11.3829
▁báque	-11.383
▁zʉ	-11.3831
▁chaynapi	-11.3832
▁hix	-11.3832
▁1974	-11.3836
▁1975	-11.3836
▁clause	-11.3836
▁relationships	-11.3838
▁akí	-11.384
▁secular	-11.3842
ichá	-11.3842
▁uñjas	-11.3843
▁nisqanman	-11.3846
▁nitaq	-11.3846
▁nawi	-11.3846
▁Noah	-11.3847
tzintli	-11.3849
▁watam	-11.3849
▁sky	-11.385
▁mikhu	-11.385
▁naitsarie	-11.385
jata	-11.3852
lök	-11.3853
▁turns	-11.3853
▁Tase	-11.3858
jhua	-11.386
▁ramia	-11.3863
poro	-11.3864
namic	-11.3864
▁thuhme	-11.3865
▁Vo	-11.3865
▁makói	-11.3865
shini	-11.3867
koti	-11.3867
kiekai	-11.3868
▁Hong	-11.3869
▁Arí	-11.3873
▁elqui	-11.3876
stli	-11.388
▁fewer	-11.388
rere	-11.3882
cation	-11.3883
masti	-11.3883
nek	-11.3883
oro	-11.3885
▁collapse	-11.3887
▁fan	-11.3889
yollo	-11.3889
ninra	-11.3889
▁movements	-11.3891
▁machine	-11.3891
▁kallpanchaku	-11.3891
▁ichö	-11.3892
Ba	-11.3894
▁Congress	-11.3895
▁inadequate	-11.3895
▁político	-11.3895
mil	-11.3895
▁Nubyá	-11.3896
▁wawanaka	-11.3899
▁hui	-11.3899
▁Mus	-11.3901
▁jawékia	-11.3901
▁blessings	-11.3901
▁eastern	-11.3902
▁quinequij	-11.3902
▁markax	-11.3908
▁Hina	-11.391
▁restructuring	-11.391
arux	-11.391
imari	-11.391
▁ininhuaya	-11.391
▁Zo	-11.3911
▁ije	-11.3912
▁card	-11.3913
▁nechca	-11.3913
anetsie	-11.3913
▁Allin	-11.3914
▁nzu	-11.3914
tlahtoca	-11.3915
▁ukxa	-11.3916
▁bají	-11.3921
▁bed	-11.3923
▁possess	-11.3924
▁corrupt	-11.3924
▁Ombudsman	-11.3924
▁Communist	-11.3924
▁ñakarontsi	-11.3924
▁gen	-11.3925
▁willingness	-11.3927
▁palacio	-11.3928
▁ukanakax	-11.3928
▁Icamanal	-11.3929
▁Aires	-11.3929
aska	-11.393
yer	-11.3931
▁chkè	-11.3931
agui	-11.3931
▁ikenra	-11.3931
aquero	-11.3933
▁sut	-11.3935
▁quimaca	-11.3936
▁quiseli	-11.3938
▁tiu	-11.394
▁Jorge	-11.394
▁1987	-11.394
▁kori	-11.3941
añäni	-11.3942
▁Xika	-11.3942
▁preparation	-11.3942
▁Sun	-11.3943
ilhuíaj	-11.3944
▁bimi	-11.3945
rim	-11.3947
cto	-11.395
irori	-11.3951
▁Zimbabwe	-11.3954
▁exclusion	-11.3954
▁temperature	-11.3954
▁Justicia	-11.3954
▁Pascua	-11.3954
▁nocoaque	-11.3954
▁genuinely	-11.3955
qi	-11.3957
vá	-11.3958
tzacu	-11.3958
rini	-11.3961
tuahʉ	-11.3962
▁øde	-11.3965
▁sentence	-11.3965
▁tlate	-11.3966
▁repeated	-11.3967
▁Félix	-11.3969
▁Indonesia	-11.3969
▁ehuani	-11.3971
iyarieya	-11.3971
▁Des	-11.3977
Me	-11.3977
bala	-11.3978
▁oikove	-11.3978
▁relatives	-11.3981
▁tanta	-11.3982
ykita	-11.3982
▁doubts	-11.3984
▁Fundamental	-11.3984
▪	-11.3984
▁jahuen	-11.3984
▁paradise	-11.3984
nía	-11.3984
hnozo	-11.3984
guá	-11.3984
▁1973	-11.3985
▁yoixon	-11.3987
namicti	-11.3988
▁occe	-11.3989
▁stressed	-11.3989
▁yéttsa	-11.3989
▁warned	-11.3992
▁Chaypi	-11.3998
▁researchers	-11.3998
▁Alemáña	-11.3999
▁oiméva	-11.3999
antatsiri	-11.4
▁mayi	-11.4
▁introducing	-11.4001
▁operational	-11.4001
▁Oi	-11.4002
▁Mark	-11.4004
▁wino	-11.4006
▁Ten	-11.4011
▁itlaj	-11.4012
:00	-11.4012
▁chichi	-11.4013
muk	-11.4014
rch	-11.4014
▁Control	-11.4014
▁runakunaman	-11.4014
▁Abiena	-11.4016
▁oguerekóva	-11.4016
▁pí	-11.4016
▁consequence	-11.4017
ñap	-11.4017
▁semati	-11.402
▁tekiti	-11.4022
vert	-11.4025
▁humanity	-11.4027
▁ukkhaxa	-11.4029
▁pont	-11.4029
▁Meanwhile	-11.4029
▁Scriptural	-11.4029
▁implications	-11.4029
▁intervene	-11.4029
▁jaweti	-11.4031
quena	-11.4031
▁extraordinary	-11.4031
▁shinanna	-11.4036
▁song	-11.4038
▁cutt	-11.4038
kurqa	-11.4038
▁feature	-11.404
▁Hanja	-11.404
▁features	-11.4041
tim	-11.4042
▁kepi	-11.4043
▁survival	-11.4044
▁Civil	-11.4044
God	-11.4045
▁Good	-11.4045
▁alawala	-11.4047
takero	-11.4049
▁courts	-11.4049
tlachili	-11.4052
etiro	-11.4052
enca	-11.4054
gged	-11.4055
▁root	-11.4055
▁yokabo	-11.4055
pura	-11.4055
avo	-11.4058
▁antech	-11.406
▁exploitation	-11.406
pcäna	-11.406
▁ñemo	-11.4061
▁pya	-11.4061
▁pita	-11.4062
wata	-11.4062
▁raw	-11.4065
▁items	-11.407
▁baji	-11.4071
Pe	-11.4072
waru	-11.4074
▁shepherd	-11.4074
▁Timothy	-11.4074
▁accompanied	-11.4074
▁ṟet	-11.4074
▁tro	-11.4074
hand	-11.4077
▁muti	-11.4078
ptinmi	-11.408
▁Pé	-11.4085
riyani	-11.4086
rô	-11.4086
▁heke	-11.4087
takotero	-11.4088
▁Antioquía	-11.4089
▁qhitinacatejj	-11.4089
▁intense	-11.409
▁collection	-11.4091
▁earn	-11.4091
yambabi	-11.4092
▁temu	-11.4093
pora	-11.4094
▁reinforce	-11.4097
tinemi	-11.4099
Liko	-11.4102
tacari	-11.4103
▁Ima	-11.4104
▁minor	-11.4104
▁HIV	-11.4105
▁māhtlac	-11.4105
▁twice	-11.4105
icni	-11.4106
▁et	-11.4108
RE	-11.411
▁stem	-11.4112
▁reactions	-11.4113
▁runakunapa	-11.4115
▁pikó	-11.4116
▁carta	-11.4119
▁oyéri	-11.4121
anekai	-11.4121
yec	-11.4121
▁Van	-11.4123
▁friendly	-11.4125
tasanotaque	-11.4125
inko	-11.4126
SA	-11.4128
nacwa	-11.4129
▁fears	-11.4129
▁jabora	-11.4129
dá	-11.413
▁thutsi	-11.4134
▁Bosnia	-11.4135
▁Unidos	-11.4135
▁visible	-11.4135
▁koríki	-11.4135
akait	-11.4137
▁narrow	-11.4138
chú	-11.4138
▁jawékiati	-11.4139
▁utapan	-11.4139
ñé	-11.414
▁tlalli	-11.4141
▁piratsipe	-11.4142
▁tiny	-11.4142
ayu	-11.4144
▁appropriations	-11.4145
tacaro	-11.4145
HU	-11.4148
▁sur	-11.4149
▁Jeremiah	-11.415
▁nguɛnda	-11.415
▁innocent	-11.415
▁shop	-11.4152
▁cuhʉ	-11.4155
graph	-11.4156
ht	-11.4157
▁iuhqui	-11.4158
▁fadi	-11.416
▁jichhax	-11.416
riru	-11.4161
▁ur	-11.4163
▁Opa	-11.4163
ñoui	-11.4163
▁contracts	-11.4164
miento	-11.4165
▁Remónisi	-11.4165
▁flock	-11.4166
▁kuieyaritsie	-11.4166
▁1984	-11.4166
▁wákpa	-11.4172
▁abe	-11.4173
▁yoame	-11.4173
▁yant	-11.4175
nayki	-11.4177
▁ená	-11.418
▁diki	-11.418
▁tlajtoua	-11.4181
▁nobody	-11.4181
▁mepu	-11.4182
▁timayetatsiri	-11.4184
▁busy	-11.4185
KA	-11.4185
▁banking	-11.4189
▁compete	-11.4191
▁Alé	-11.4193
▁rec	-11.4194
▁chaymanta	-11.4195
▁kutichi	-11.4195
cker	-11.4197
unda	-11.4199
▁trials	-11.4201
▁feels	-11.4202
kanaki	-11.4206
▁Aya	-11.4206
copa	-11.4207
▁letters	-11.4209
▁Luke	-11.4209
▁Jean	-11.421
▁sincere	-11.421
▁ijcuilijtoc	-11.4211
▁university	-11.4211
▁Instituto	-11.4211
▁studied	-11.4211
ened	-11.4212
▁Ñ	-11.4221
kaman	-11.4222
▁Upéi	-11.4224
kuyta	-11.4225
anke	-11.4226
▁intelligence	-11.4227
▁tonajli	-11.4227
▁muntsi	-11.4228
▁jabaon	-11.423
▁Mel	-11.4231
ainoa	-11.4234
sipk	-11.4234
▁Nice	-11.4234
▁chane	-11.4235
▁cá	-11.4235
yohui	-11.4235
▁mochiwa	-11.4239
ify	-11.4239
▁juez	-11.4241
▁reyipa	-11.4241
▁Tecatsi	-11.4242
▁noia	-11.4242
▁Tayka	-11.4243
▁arunaka	-11.4243
▁flu	-11.4244
wanchis	-11.4245
▁blogs	-11.4248
▁pattern	-11.4248
▁regarded	-11.4249
itsie	-11.4251
Mi	-11.4254
▁affects	-11.4254
▁tsame	-11.4255
▁este	-11.4255
▁indication	-11.4257
▁Ste	-11.4258
ronqui	-11.4259
▁allocated	-11.426
awinaka	-11.426
media	-11.4266
▁winota	-11.4266
▁teno	-11.4268
zu	-11.427
arakini	-11.4272
▁excuse	-11.4273
▁proceedings	-11.4273
▁plain	-11.4273
▁Nican	-11.4276
uha	-11.4278
gram	-11.428
▁News	-11.428
▁arunaca	-11.4281
▁munisipyu	-11.4281
▁Cre	-11.4282
▁watching	-11.4285
▁losses	-11.4286
wama	-11.4286
ýgui	-11.4287
kantsi	-11.4287
▁caballo	-11.4288
▁Protection	-11.4288
▁1985	-11.4289
nkana	-11.429
▁ambuéva	-11.4291
▁masinaka	-11.4292
riyarika	-11.4293
puniw	-11.4293
sime	-11.4295
▁jorio	-11.4296
▁muni	-11.43
▁justify	-11.4301
▁Hor	-11.4302
yaca	-11.4303
Chi	-11.4304
▁Salomón	-11.4305
▁admitted	-11.4305
jje	-11.4308
ipo	-11.4309
poch	-11.4309
▁impi	-11.431
▁deadline	-11.4311
▁mɛti	-11.4311
▁añete	-11.4312
▁nisqanta	-11.4315
▁pish	-11.4316
▁njut	-11.4317
▁Petero	-11.4317
▁disposal	-11.4319
▁aparope	-11.4325
▁quim	-11.4326
▁suggestions	-11.4328
▁sinti	-11.4328
?¿	-11.4328
koye	-11.4329
▁Sala	-11.433
tataq	-11.433
▁Awake	-11.4336
▁herself	-11.4336
▁tewa	-11.4336
éma	-11.4338
ore	-11.4339
ívo	-11.4342
rexeiya	-11.4342
sqankurayku	-11.4344
Christian	-11.4344
blúie	-11.4345
▁failing	-11.4345
negá	-11.4347
▁Antayeteri	-11.4347
▁rikuchi	-11.4348
▁urgently	-11.4348
▁thot	-11.4348
▁keskábo	-11.4348
▁territorial	-11.435
▁chachasti	-11.435
▁Act	-11.4351
▁Silas	-11.4353
jka	-11.4354
▁shinannai	-11.4354
▁percentage	-11.4356
▁expressing	-11.4356
▁v	-11.4358
▁iporã	-11.4359
▁machime	-11.4359
board	-11.4359
▁zɛ	-11.4363
äma	-11.4363
▁wamblök	-11.4364
▁cap	-11.4365
▁opaichagua	-11.4366
apjjäta	-11.4368
▁chakra	-11.4369
set	-11.4375
▁chkà	-11.4376
▁markankir	-11.4376
▁Jesusajj	-11.4377
itiri	-11.4378
antajeari	-11.4379
▁honi	-11.4379
▁ars	-11.438
▁Morocco	-11.4381
▁Alliance	-11.4381
nekai	-11.4385
▁(@	-11.4385
▁kaspa	-11.4387
▁clothing	-11.4388
rán	-11.4391
▁Aman	-11.4391
piwan	-11.4391
▁Constitutional	-11.4391
▁eltoya	-11.4404
▁aynacht	-11.4404
yabo	-11.4405
▁oquimo	-11.4406
lder	-11.4409
▁creatures	-11.441
tlani	-11.4411
▁jaska	-11.4411
ẽpapára	-11.4413
▁enemy	-11.4413
▁Transport	-11.4413
▁weather	-11.4413
▁Levi	-11.4414
▁god	-11.4416
▁resítiri	-11.4416
▁maj	-11.4417
rigame	-11.4419
ons	-11.442
ug	-11.442
▁bayé	-11.4421
▁eli	-11.4422
▁listened	-11.4423
▁quijtohua	-11.4425
▁gods	-11.4425
▁aruma	-11.4427
▁addressing	-11.4427
▁suane	-11.4428
▁elder	-11.4428
▁intelligent	-11.4428
▁ŕarámuri	-11.4428
▁Children	-11.4428
▁forgive	-11.443
rakiwa	-11.4432
impiri	-11.4433
▁aviro	-11.4436
iriw	-11.4439
▁handle	-11.4439
ñataki	-11.444
An	-11.4441
▁condemned	-11.4442
▁baneta	-11.4442
▁yourselves	-11.4444
kamaw	-11.4445
▁net	-11.4445
nanchikpaq	-11.4445
mì	-11.4447
▁aswanpas	-11.4447
Imatam	-11.4448
▁godly	-11.445
▁aceite	-11.445
▁cycle	-11.4452
▁thorough	-11.4453
▁masi	-11.4454
▁jatibi	-11.4458
jjä	-11.4459
▁Messiah	-11.446
▁advertising	-11.446
▁doctrine	-11.446
▁foremost	-11.446
▁Ukhamasti	-11.446
apxaraki	-11.4461
impi	-11.4462
▁ECB	-11.4462
▁kanankupaq	-11.4463
shke	-11.4463
▁juparojj	-11.4464
uyeika	-11.4465
▁yuriwi	-11.4466
▁tlaj	-11.4466
anuti	-11.4468
▁error	-11.4468
▁cheap	-11.447
▁maña	-11.4471
▁Jato	-11.4472
▁gabida	-11.4475
waká	-11.4476
▁dramatic	-11.4476
pachan	-11.4476
▁guehna	-11.4482
▁Jakon	-11.4482
ñippökwakpa	-11.4484
▁sand	-11.4485
▁pillar	-11.4485
▁6:	-11.4487
▁passing	-11.4487
tti	-11.4491
▁aymara	-11.4491
▁dog	-11.4493
tlalis	-11.4494
▁llapan	-11.4496
▁assets	-11.4496
▁8,	-11.4497
meax	-11.4499
▁nx	-11.4499
uyeh	-11.45
shama	-11.45
▁replaced	-11.4501
kakuni	-11.4502
qnin	-11.4504
dro	-11.4506
new	-11.4507
▁Treaties	-11.4507
▁chabé	-11.4507
▁jaonmea	-11.4507
▁jawetianbi	-11.4507
▁chosko	-11.4507
▁Polish	-11.4507
▁1982	-11.4508
▁wöa	-11.4508
▁xehets	-11.4508
▁kawkïr	-11.4508
▁profits	-11.4509
▁huñu	-11.451
▁janïr	-11.4511
▁kuri	-11.4514
▁mijqui	-11.4514
nakamp	-11.4515
▁torture	-11.4516
▁Lastly	-11.4516
▁shortly	-11.4516
▁photo	-11.452
▁miku	-11.4521
▁valid	-11.4521
▁iji	-11.4522
▁describes	-11.4522
▁Artíkuli	-11.4523
▁cunapachatejj	-11.4523
▁sacred	-11.4523
▁square	-11.4523
▁Yupaykuna	-11.4523
ninpi	-11.4525
▁correspond	-11.4526
▁Jatíbi	-11.4528
hanja	-11.4531
▁Maroni	-11.4531
atax	-11.4531
ñapawa	-11.4535
kunataqa	-11.4537
▁depression	-11.4538
ehao	-11.4539
▁responded	-11.4539
▁jerera	-11.454
▁located	-11.454
▁sacerdotepa	-11.454
▁literally	-11.4541
▁imata	-11.4542
eiya	-11.4544
▁iranta	-11.4546
nkin	-11.4546
▁raymi	-11.4548
▁quiijtohuaj	-11.455
teke	-11.4551
kapu	-11.4552
niw	-11.4552
▁housing	-11.4554
▁wambleke	-11.4555
▁mostly	-11.4555
▁Ala	-11.4557
▁advantages	-11.4557
top	-11.4558
▁quena	-11.4559
ntyaro	-11.456
▁Upévare	-11.456
▁kulí	-11.4564
kah	-11.4565
bede	-11.4567
▁Tukuy	-11.4569
▁Institute	-11.457
▁chicahualistli	-11.457
▁nejele	-11.457
▁Nde	-11.4571
tara	-11.4572
▁translated	-11.4575
▁coordinated	-11.4575
▁tlato	-11.4576
kum	-11.4577
▁diosanaca	-11.4577
tkö	-11.4577
queri	-11.4578
▁logical	-11.4578
ltia	-11.458
▁tite	-11.4581
ntana	-11.4583
nmanchu	-11.4584
▁oipytyvõ	-11.4586
▁assurance	-11.4586
▁xahño	-11.4586
▁Freedom	-11.4586
▁opt	-11.4587
▁nayaw	-11.4587
▁Tro	-11.4588
kti	-11.4593
pure	-11.4593
gagui	-11.4594
ants	-11.4596
▁nahui	-11.46
asiñ	-11.46
▁Yeca	-11.4601
▁Palestinians	-11.4601
▁jamasu	-11.4602
lol	-11.4606
asis	-11.4606
poto	-11.4608
▁pakeke	-11.4611
▁tër	-11.4612
▁400	-11.4613
▁boxon	-11.4615
▁hagua	-11.4615
▁Alberto	-11.4616
▁ocse	-11.4616
▁Jereráli	-11.4618
▁invitation	-11.4618
▁salvation	-11.4619
qe	-11.4619
▁onanma	-11.4619
▁ruwí	-11.462
▁jaqinak	-11.462
▁catunt	-11.462
▁42	-11.4622
▁ruyé	-11.4624
▁wiñaypaq	-11.4624
▁nets	-11.4626
nahui	-11.4626
▁assess	-11.4627
nakam	-11.4629
▁tiopan	-11.4633
▁harvest	-11.4634
▁bene	-11.4634
▁friendship	-11.4635
pxiwa	-11.4635
▁Yatiñ	-11.4636
▁Mac	-11.4636
randu	-11.4639
▁Davi	-11.4639
500	-11.4643
piti	-11.4646
▁endure	-11.4647
▁falls	-11.4647
▁Th	-11.4647
lij	-11.4648
▁behaviour	-11.465
lus	-11.465
▁sustainability	-11.465
▁griego	-11.465
▁Kamasqa	-11.465
▁ajtígame	-11.465
▁exert	-11.4651
kuchu	-11.4655
kahe	-11.4655
▁guecjʉ	-11.4656
▁demi	-11.4657
▁sending	-11.4658
don	-11.466
▁maha	-11.4661
▁indicates	-11.4661
tiaque	-11.4662
▁cali	-11.4662
lca	-11.4662
As	-11.4664
▁falling	-11.4666
▁Jaskáa	-11.4666
▁Ministry	-11.4666
▁Baal	-11.4666
▁creative	-11.4666
quetz	-11.4669
▁Hind	-11.4672
▁kipia	-11.4672
▁hñeni	-11.4674
teku	-11.4676
▁eyena	-11.4677
jeitacari	-11.4678
▁ité	-11.4679
cuabi	-11.4681
saw	-11.4681
▁unnecessary	-11.4682
ýre	-11.4682
▁nísaká	-11.4683
kaitsie	-11.4683
▁1988	-11.4683
▁urged	-11.4686
▁poorest	-11.4686
▁omotenonde	-11.4686
ayani	-11.4686
oli	-11.4687
▁Quin	-11.4687
▁xeka	-11.469
ltin	-11.4693
▁flight	-11.4694
▁Brother	-11.4698
▁tremendous	-11.4698
▁troops	-11.4698
▁Cortés	-11.4698
▁wawapa	-11.4698
▁wives	-11.4698
hó	-11.47
▁Iriotaque	-11.47
▁shinki	-11.47
▁Korean	-11.4701
▁(8	-11.4704
▁tlacua	-11.4707
nemilis	-11.4708
▁usual	-11.4709
▁ske	-11.4709
▁Jaqinaka	-11.4711
▁adjust	-11.4713
▁Universidad	-11.4714
▁adults	-11.4717
jeitiro	-11.4718
motla	-11.4719
yoti	-11.4719
▁shares	-11.472
neti	-11.472
▁kaqkunata	-11.472
▁lloqsi	-11.4721
▁CAP	-11.4721
▁march	-11.4722
▁attending	-11.4722
▁voters	-11.4723
▁considers	-11.4724
▁quotas	-11.4724
▁tlanahuati	-11.4725
▁iwökir	-11.4726
tiliz	-11.4727
tlatol	-11.4727
▁mpøhø	-11.4728
▁mainmea	-11.473
▁Munisipyu	-11.473
▁Organisation	-11.473
▁Ucjjarusti	-11.473
▁dangers	-11.473
▁pachak	-11.4731
▁urgency	-11.4731
▁150	-11.4731
▁millay	-11.4733
▁presentation	-11.4735
▁guilty	-11.4737
ayeti	-11.4739
▁quoted	-11.4739
▁uñtata	-11.4741
tlac	-11.4746
▁Eliseo	-11.4747
hasa	-11.4749
▁opaite	-11.475
▁mafi	-11.4751
ele	-11.4752
▁Jaré	-11.4753
saka	-11.4753
ntapini	-11.4753
▁yanqa	-11.4753
▁senador	-11.4753
tyari	-11.4755
▁Jisk	-11.4757
▁Islam	-11.4757
▁jakonha	-11.4758
▁Noé	-11.4758
▁pincatsari	-11.476
▁speaks	-11.476
meli	-11.476
nakuy	-11.4761
▁yot	-11.4762
▁Hungary	-11.4763
▁Bethel	-11.4763
▁mepi	-11.4764
▁virtually	-11.4766
Emi	-11.4766
tabaka	-11.4767
▁ttöke	-11.4767
ional	-11.4767
riet	-11.4769
▁ero	-11.477
karúgame	-11.4771
▁wini	-11.4772
▁tlajtoli	-11.4772
▁runakunaq	-11.4777
wilí	-11.4778
▁empty	-11.4779
▁wenomí	-11.4779
▁fought	-11.4779
▁teachings	-11.4781
▁jumanaca	-11.4782
neniere	-11.4782
▁wasn	-11.4784
▁ixpan	-11.4785
▁camanalti	-11.4785
siñ	-11.4787
▁vy	-11.4789
▁kallpacha	-11.4791
▁kit	-11.4791
yen	-11.4791
itaj	-11.4792
aring	-11.4793
▁quihual	-11.4795
▁Inglatlahtolli	-11.4795
▁IMF	-11.4795
▁Finland	-11.4795
▁akonkin	-11.4795
ampiw	-11.4796
xuawe	-11.4797
▁picanta	-11.4798
tkök	-11.4798
▁alakölpa	-11.4799
ýra	-11.48
▁Manan	-11.4801
sato	-11.4803
Mia	-11.4803
kutsu	-11.4803
▁unit	-11.4805
akate	-11.4806
▁noticed	-11.4807
▁sihuame	-11.4808
▁Belgium	-11.4811
▁Friday	-11.4811
akero	-11.4812
mombe	-11.4812
ook	-11.4814
▁controlled	-11.4815
mentotsi	-11.4816
▁Saudi	-11.4817
▁suyt	-11.4819
▁generate	-11.482
▁tin	-11.4821
▁creates	-11.4823
▁akë	-11.4824
▁Through	-11.4827
▁Moscow	-11.4828
▁Obviously	-11.4828
▁puquy	-11.4828
▁mutaine	-11.4828
▁undertaken	-11.4829
tsin	-11.483
▁chicome	-11.4834
▁competent	-11.4835
▁Paymi	-11.4837
tlaco	-11.4837
fri	-11.4838
▁hinaqa	-11.4838
▁sú	-11.4839
▁(7	-11.4841
pple	-11.4842
jerovia	-11.4843
▁publication	-11.4844
▁possibilities	-11.4844
▁nehetsie	-11.4844
▁jilt	-11.4845
▁joriopee	-11.4845
▁aminá	-11.4845
▁komo	-11.4846
▁fallen	-11.485
arakï	-11.4851
▁Satanas	-11.4852
▁irundy	-11.4853
▁Mia	-11.4854
▁nayrakata	-11.4855
▁Qam	-11.4856
▁Río	-11.4856
▁tsimeri	-11.4857
mus	-11.4857
▁models	-11.4857
▁ohasáva	-11.486
▁Fer	-11.486
ncho	-11.4861
▁Ā	-11.4862
human	-11.4863
▁neuxei	-11.4863
▁missionary	-11.4864
▁sword	-11.4864
▁tetl	-11.4866
yeika	-11.4866
yuta	-11.4866
▁pull	-11.4867
▁divide	-11.487
▁ukjama	-11.487
anaqueri	-11.4871
▁Soon	-11.4871
▁tewiyari	-11.4873
▁debating	-11.4877
▁Mag	-11.4877
▁luräwi	-11.4877
▁resistance	-11.4877
▁1972	-11.4877
▁wasikuna	-11.4877
▁hebreos	-11.4878
▁punishment	-11.4879
▁León	-11.488
xax	-11.488
▁medicines	-11.4883
▁Media	-11.4883
▁younger	-11.4883
▁nocon	-11.4885
▁Tsa	-11.4887
OS	-11.4888
paite	-11.489
▁comparison	-11.4893
▁forum	-11.4893
▁Guasu	-11.4893
▁hutarieka	-11.4894
▁loud	-11.4895
anake	-11.4896
loni	-11.49
▁pia	-11.49
▁bexon	-11.4901
▁kar	-11.4903
▁poi	-11.4903
xeiyat	-11.4905
▁sphere	-11.4906
catayna	-11.4907
▁nabí	-11.4908
▁Protocol	-11.4909
▁worthy	-11.491
▁Ucatwa	-11.491
▁qhitis	-11.491
▁Cooperation	-11.491
dra	-11.4911
rat	-11.4912
▁devoted	-11.4914
▁alawá	-11.4914
▁nii	-11.4914
▁mountains	-11.4915
▁uñtat	-11.4915
▁register	-11.4916
▁Char	-11.4918
▁binói	-11.4918
▁isaiki	-11.492
akiw	-11.492
▁compare	-11.4921
▁sy	-11.4921
ára	-11.4925
▁tribulation	-11.4926
▁enforcement	-11.4927
▁importantly	-11.4929
▁chairman	-11.4932
▁nayraqat	-11.4933
▁itö	-11.4934
ntarori	-11.4935
▁jal	-11.4937
xiti	-11.4938
▁jí	-11.494
▁superior	-11.4942
▁Inolá	-11.4943
asir	-11.4947
▁achievement	-11.4949
▁kapu	-11.4949
▁faces	-11.495
kuil	-11.4956
añax	-11.4957
▁Domingo	-11.4959
▁abortion	-11.4959
▁oquijtoj	-11.4959
▁yuhetsie	-11.496
▁Nocon	-11.496
▁covering	-11.496
▁motenehua	-11.4961
▁fashion	-11.4961
▁filisteo	-11.4965
▁Lot	-11.4967
▁coal	-11.4969
caniti	-11.497
jeitana	-11.4971
▁EC	-11.4972
This	-11.4972
▁kkachoie	-11.4975
▁newárigime	-11.4975
▁tii	-11.4976
mimi	-11.4977
yōtl	-11.4978
▁boys	-11.4979
hẽ	-11.4981
obá	-11.4981
sqanman	-11.4983
tera	-11.4983
cing	-11.4983
▁withdraw	-11.4984
▁ramueka	-11.4986
▁rimay	-11.4986
nger	-11.4987
▁Oh	-11.4987
tirotsi	-11.4988
General	-11.4988
▁legitimacy	-11.4992
▁Education	-11.4992
▁tsie	-11.4999
äjja	-11.5001
▁weirke	-11.5005
cel	-11.5005
▁Angel	-11.5007
▁beauty	-11.5009
▁suicide	-11.5009
▁William	-11.5009
pare	-11.5009
sire	-11.5009
▁productivity	-11.5009
▁correctly	-11.5009
▁huitz	-11.501
▁iama	-11.5011
▁Tiro	-11.5011
puru	-11.5013
▁ns	-11.5013
▁fairly	-11.5014
▁akue	-11.5014
tsiya	-11.5014
▁doors	-11.5015
aquempi	-11.5017
▁xewiti	-11.5018
▁purchase	-11.5018
▁jumanak	-11.5021
–	-11.5021
▁Yacanaqueri	-11.5025
▁disorder	-11.5025
▁iquac	-11.5025
ters	-11.5026
▁suitable	-11.5027
▁believers	-11.5027
▁roads	-11.5028
chö	-11.5028
bad	-11.5029
▁Miki	-11.503
▁jó	-11.5031
▁Ed	-11.5032
▁uksa	-11.5034
COM	-11.5037
▁sales	-11.5042
▁texaxatamete	-11.5042
leg	-11.5043
▁omoĩ	-11.505
▁traditions	-11.505
▁nayat	-11.5051
gal	-11.5053
▁Manam	-11.5055
▁ruray	-11.5057
▁kollke	-11.5059
▁osilí	-11.5059
manda	-11.5064
kunanpaq	-11.5066
ages	-11.5066
▁kuá	-11.5067
▁wì	-11.5067
▁niu	-11.507
▁intech	-11.5071
nakaru	-11.5071
itsikate	-11.5072
ỹre	-11.5072
▁sovereign	-11.5074
▁experiencing	-11.5075
▁incante	-11.5076
▁Its	-11.5076
▁tsonbi	-11.5076
▁lado	-11.5076
▁desert	-11.5077
ttle	-11.5078
▁bio	-11.5078
▁nest	-11.508
▁leg	-11.5082
▁cry	-11.5082
nacasa	-11.5088
huaque	-11.5088
▁Inin	-11.5089
sika	-11.509
▁genetic	-11.5092
▁ciudad	-11.5092
▁ojehu	-11.5092
▁Agenda	-11.5092
kuérape	-11.5092
toria	-11.5095
▁ukkhasti	-11.5095
▁cutting	-11.5096
▁echo	-11.5097
▁forests	-11.5098
▁yó	-11.5098
▁dry	-11.5099
intsiri	-11.5101
▁deserves	-11.5103
utay	-11.5104
ints	-11.5105
hco	-11.5105
▁jalt	-11.5107
▁clergy	-11.5108
Li	-11.5108
▁unusual	-11.5109
▁hatred	-11.5109
▁jaqinakan	-11.5109
mandu	-11.5109
anï	-11.5109
▁1981	-11.5109
▁wat	-11.511
▁Avei	-11.5112
▁Jawe	-11.5113
▁anigá	-11.5114
ykunata	-11.5114
▁traveling	-11.5115
qhi	-11.5116
▁ñan	-11.5116
▁ñè	-11.5117
patsa	-11.5117
▁ō	-11.5117
▁tequitl	-11.5117
ehína	-11.5118
▁38	-11.5118
thing	-11.512
▁yanapawa	-11.512
▁Irio	-11.5122
▁judio	-11.5123
pansti	-11.5124
▁pesos	-11.5124
mera	-11.5124
niyuq	-11.5125
▁coherent	-11.5125
▁executive	-11.5125
▁parallel	-11.5125
▁Question	-11.5126
▁pheska	-11.5126
▁pakóta	-11.5126
▁saving	-11.5126
kotiro	-11.5127
▁etémala	-11.5127
▁intends	-11.5129
▁mist	-11.5129
raine	-11.5132
born	-11.5132
▁ojtli	-11.5132
muy	-11.5133
cantaqueri	-11.5133
▁conventions	-11.5134
keti	-11.5135
▁gathering	-11.5136
ntergovernmental	-11.5138
▁texts	-11.5139
▁Hinan	-11.5139
▁kasha	-11.5139
▁lurañ	-11.514
jeitya	-11.5142
▁ntuhni	-11.5142
▁stuff	-11.5143
▁cool	-11.5145
▁solely	-11.5146
▁dwell	-11.5148
rla	-11.5148
▁teo	-11.515
▁irine	-11.5151
▁kantiri	-11.5152
▁requests	-11.5153
▁Qha	-11.5154
maj	-11.5155
pï	-11.5156
kõi	-11.5157
▁circle	-11.5158
▁sufficiently	-11.5158
▁crops	-11.5159
▁Denmark	-11.5159
▁obliged	-11.5159
▁ruwasqan	-11.5159
▁xoxo	-11.5159
▁jaskaaxon	-11.5159
▁begins	-11.516
▁naimek	-11.516
muni	-11.5161
gla	-11.5161
▁Del	-11.5161
hamat	-11.5161
▁mɛfi	-11.5162
▁barco	-11.5163
▁worry	-11.5164
);	-11.5165
▁oheja	-11.5165
▁yanapaku	-11.5168
▁bow	-11.5168
▁Ukham	-11.5169
▁rape	-11.517
▁qhari	-11.517
▁finished	-11.5171
sunchik	-11.5171
▁oikó	-11.5171
▁Tata	-11.5174
▁Kunapachatix	-11.5176
taquempi	-11.5178
▁apaq	-11.5182
▁bull	-11.5183
▁Diputados	-11.5184
▁oñeha	-11.5184
▁Wall	-11.5186
▁ukkha	-11.5188
iling	-11.5188
▁Siria	-11.5192
cnihuan	-11.5192
▁tlajtlacoli	-11.5193
▁coverage	-11.5194
nkiri	-11.5195
▁jakonhakin	-11.5195
session	-11.5196
▁Provincial	-11.5196
▁sustain	-11.5199
ptinqa	-11.5199
Ar	-11.52
▁mpote	-11.5201
▁ashaninca	-11.5202
▁75	-11.5202
▁bätsi	-11.5202
sted	-11.5202
ose	-11.5202
▁publish	-11.5203
Ari	-11.5204
▁trained	-11.5204
▁ayoc	-11.5205
▁Acatl	-11.5208
▁satisfactory	-11.521
▁tōnalpan	-11.521
▁football	-11.521
▁reiterate	-11.521
yninta	-11.5211
▁ivancoqui	-11.5213
mfri	-11.5215
▁hoped	-11.5216
▁ashaninkape	-11.5217
▁posted	-11.5219
▁Tai	-11.522
yeikakai	-11.522
waik	-11.5222
▁Mis	-11.5222
▁Nigeria	-11.5223
wana	-11.5224
▁Olympic	-11.5227
▁heritage	-11.5227
▁kings	-11.5228
▁chá	-11.5229
▁mexko	-11.5229
jeitake	-11.5231
nacarojj	-11.5232
awet	-11.5233
▁Zan	-11.5234
▁Wetsa	-11.5235
▁naó	-11.5236
▁tak	-11.5237
quero	-11.5238
rda	-11.5239
▁representation	-11.524
▁Libya	-11.5242
▁sábado	-11.5244
▁ucapachasti	-11.5244
dimehai	-11.5244
▁Mateo	-11.5245
▁detect	-11.5245
▁expense	-11.5245
▁appointment	-11.5247
boyabi	-11.5247
tetsie	-11.5249
▁route	-11.5249
▁kusisi	-11.5249
ET	-11.525
▁Corte	-11.525
▁islands	-11.5253
▁anampi	-11.5256
wieka	-11.5257
bari	-11.5258
▁Joab	-11.5259
īl	-11.526
▁éruk	-11.526
▁okó	-11.526
▁Representative	-11.5261
▁saikatsiri	-11.5261
panti	-11.5261
▁†	-11.5262
▁ukaratsi	-11.5263
Wa	-11.5263
▁shock	-11.5264
▁jawebi	-11.5266
üru	-11.5267
▁kankaña	-11.5267
▁seeks	-11.5269
▁Yachay	-11.5273
De	-11.5275
yuri	-11.5276
▁Wal	-11.5277
▁quipixtoya	-11.5278
▁pieces	-11.5278
▁repair	-11.5278
▁iulà	-11.5278
épiri	-11.528
▁1930	-11.528
▁Regá	-11.5282
nuku	-11.5285
▁ikaxbira	-11.5287
▁onanyama	-11.5291
▁commend	-11.5294
▁greenhouse	-11.5295
▁derecho	-11.5295
ixuriki	-11.5295
▁ECU	-11.5296
▁1976	-11.5296
▁foster	-11.5296
▁loans	-11.5299
rawa	-11.5299
▁deals	-11.5301
asipxäna	-11.5303
▁pishi	-11.5304
▁arca	-11.5307
▁merit	-11.5307
ung	-11.5307
▁nirú	-11.531
▁Palestine	-11.5312
▁Mesko	-11.5313
kkö	-11.5314
▁nekani	-11.5315
chili	-11.5315
fil	-11.5317
▁Senado	-11.5318
äp	-11.5318
▁fixed	-11.532
▁nan	-11.532
▁3,	-11.5321
▁iké	-11.5323
NL	-11.5323
▁productive	-11.5323
▁muyunt	-11.5325
▁oinma	-11.5327
▁itin	-11.5327
lay	-11.5327
asta	-11.5327
▁wiña	-11.5331
▁relate	-11.5333
tajero	-11.5335
cajcayahua	-11.5336
gy	-11.5338
▁neighbors	-11.5339
▁sart	-11.534
sqaykita	-11.5342
▁shot	-11.5344
▁Prodi	-11.5344
▁yemeki	-11.5344
▁reveal	-11.5345
▁1971	-11.5347
▁kasqan	-11.5348
▁ainiro	-11.5348
▁ikaxa	-11.5349
etsitarute	-11.535
▁Right	-11.5351
▁mech	-11.5351
▁periods	-11.5351
▁Nelía	-11.5354
▁nayasti	-11.5355
▁interpret	-11.5355
▁Kal	-11.5359
leké	-11.536
nahuatía	-11.5361
risa	-11.5361
▁scar	-11.5363
▁Regard	-11.5363
▁qhit	-11.5363
▁Fisheries	-11.5363
▁Framework	-11.5363
▁defense	-11.5363
▁meskó	-11.5364
▁attractive	-11.5364
▁tuichavéva	-11.5364
kuwau	-11.5365
zon	-11.5367
▁towí	-11.5368
ayata	-11.5368
▁Nobel	-11.5369
▁chachajj	-11.5369
kuépe	-11.537
▁kutsi	-11.5374
▁kwie	-11.5375
apjjani	-11.5375
ñä	-11.5375
▁Hulya	-11.5375
éitö	-11.5376
▁affecting	-11.5379
▁Benjamín	-11.538
ataki	-11.5381
▁pride	-11.5381
bë	-11.5383
tsé	-11.5383
▁rid	-11.5384
maco	-11.5385
▁cateh	-11.5387
cohua	-11.5389
▁juparux	-11.5389
▁schemes	-11.5392
▁assured	-11.5393
▁Rafael	-11.5398
▁Safety	-11.5398
▁trompeta	-11.5398
▁convergence	-11.5398
▁convey	-11.5398
▁underline	-11.5398
▁Monday	-11.5398
▁Ese	-11.5399
▁1945	-11.5399
▁casaraku	-11.5399
▁virus	-11.5399
▁Phil	-11.5401
▁mothers	-11.5401
▁xiqui	-11.5401
▁negotiation	-11.5401
▁Kóva	-11.5403
▁hayk	-11.5404
▁cristiano	-11.5404
▁ide	-11.5407
▁kà	-11.5407
▁tuki	-11.5407
▁seat	-11.5408
▁ignored	-11.5409
▁iye	-11.5409
▁oncaj	-11.5414
▁solar	-11.5418
▁thakhi	-11.542
ih	-11.5422
▁xewa	-11.5428
▁oxa	-11.5429
▁huejca	-11.5429
▁prominent	-11.5432
▁assigned	-11.5432
eterei	-11.5433
▁dɛn	-11.5435
majj	-11.5435
rome	-11.5436
ngle	-11.5436
▁ohual	-11.544
▁timetable	-11.544
ajeitaquempi	-11.5443
tenco	-11.5445
2%	-11.5446
▁guyra	-11.5447
▁drivers	-11.5448
▁Ak	-11.5448
nike	-11.5449
astaboja	-11.545
▁dictatorship	-11.545
▁Marka	-11.545
roga	-11.545
pilhuan	-11.5451
▁enabling	-11.5453
▁oquempetaca	-11.5453
▁symbolic	-11.5456
▁amtäwi	-11.5458
▁emerge	-11.546
pera	-11.546
▁weigh	-11.5462
▁abandoned	-11.5462
▁ndoje	-11.5464
▁shame	-11.5465
▁Madrid	-11.5467
▁execution	-11.5467
ntsipe	-11.5473
tekahu	-11.5473
▁onto	-11.5477
bul	-11.5483
▁kunayman	-11.5485
▁yuheyemek	-11.5485
▁phuch	-11.5489
kué	-11.549
▁exploit	-11.5491
▁una	-11.5491
▁exceed	-11.5492
▁jutir	-11.5495
book	-11.5496
▁itlanahuatil	-11.5496
rage	-11.5496
nikekai	-11.5497
▁temi	-11.5497
▁Jati	-11.5498
▁yachan	-11.5502
▁cuerpo	-11.5502
▁forgotten	-11.5502
▁imitate	-11.5503
▁yoabo	-11.5507
▁saräna	-11.5508
▁resource	-11.5509
▁jamfrihʉ	-11.551
▁consult	-11.5511
▁jumanakar	-11.5511
lito	-11.5514
▁qarqan	-11.5514
▁publicly	-11.5516
iano	-11.5517
▁college	-11.5519
▁controversial	-11.5519
▁tayka	-11.5519
▁ilà	-11.5521
▁quemisantatsiri	-11.5523
tilistli	-11.5525
▁hero	-11.5526
▁memaye	-11.5526
▁iuan	-11.5527
▁ohai	-11.5528
lehui	-11.5528
▁Within	-11.5529
▁pisa	-11.553
▁illness	-11.5534
▁mahtlāctli	-11.5535
▁4,	-11.5537
terinstitutional	-11.5537
▁chhasku	-11.5537
▁equivalent	-11.5537
▁moyol	-11.5538
lent	-11.5539
ox	-11.5541
kanaitian	-11.5542
xima	-11.5543
▁Bake	-11.5543
▁Cue	-11.5544
▁iroori	-11.5545
▁bigger	-11.5545
▁jasypo	-11.5546
tlalli	-11.5547
▁Marta	-11.5549
stan	-11.5554
▁huēytlaōnti	-11.5554
▁wamblë	-11.5554
▁uncertainty	-11.5555
▁jamach	-11.5555
▁Fra	-11.5556
chama	-11.5557
▁oye	-11.5558
kuaá	-11.5558
▁band	-11.5559
▁speeches	-11.5559
vetari	-11.556
atäniwa	-11.5562
▁diet	-11.5563
▁Commissioners	-11.5564
cula	-11.5565
▁Tupãme	-11.5566
▁worrying	-11.5567
▁respeta	-11.5567
▁quintla	-11.5568
ajeitiri	-11.5568
stre	-11.5569
tachu	-11.5569
▁wage	-11.557
▁marine	-11.5571
▁conciliation	-11.5572
▁district	-11.5572
▁Neskara	-11.5572
▁rescue	-11.5572
▁glass	-11.5572
▁Huch	-11.5573
▁commanded	-11.5573
▁Ban	-11.5573
▁siná	-11.5574
sqaykichik	-11.5576
▁winter	-11.5577
▁nice	-11.5578
▁jiwaña	-11.5578
yachi	-11.5579
▁disagree	-11.5581
än	-11.5582
▁quri	-11.5583
tsuabi	-11.5585
▁yanapawasun	-11.5585
Jehovah	-11.5588
émi	-11.5588
▁Nazi	-11.5588
▁Bangladesh	-11.5589
▁injustice	-11.5589
▁ishaninka	-11.5589
▁jupanakan	-11.559
aga	-11.5591
▁payan	-11.5591
▁techilhui	-11.5591
▁finger	-11.5591
▁alongside	-11.5591
▁Bakebo	-11.5592
kuaaty	-11.5594
▁jumanacan	-11.5595
pl	-11.5596
▁purely	-11.5596
▁“¿	-11.5597
rado	-11.5598
kaspati	-11.5599
▁formula	-11.56
ajeitempi	-11.5602
ivo	-11.5603
▁wages	-11.5604
masi	-11.5606
▁Ciudad	-11.5607
▁Proverbs	-11.5607
▁rejoice	-11.5607
▁Chawpi	-11.5607
▁Kyoto	-11.5607
ólogo	-11.5607
▁Díaz	-11.5608
▁silence	-11.5608
▁engine	-11.5608
▁considerably	-11.5609
▁tapichakuéra	-11.561
dict	-11.561
▁bought	-11.561
▁taxpayers	-11.5611
▁Heads	-11.5611
▁Service	-11.5613
▁ucaru	-11.5613
aquena	-11.5615
▁metal	-11.5615
▁reign	-11.5615
istu	-11.5616
▁sharp	-11.5619
AT	-11.562
▁ocho	-11.562
▁tlami	-11.5621
▁gueteri	-11.5623
▁puku	-11.5624
▁Electoral	-11.5625
▁ransom	-11.5625
nontian	-11.5626
▁bariseo	-11.5626
▁secondly	-11.5626
▁contranpi	-11.5626
▁slightly	-11.5627
▁Wo	-11.5628
▁Tre	-11.563
▁acted	-11.563
zer	-11.563
▁Blog	-11.563
▁yehuatzin	-11.5631
paw	-11.5632
pänwa	-11.5634
▁qonqa	-11.5634
▁jakonshaman	-11.5634
▁jonibora	-11.5635
▁Jaskati	-11.5635
▁machimela	-11.5639
jiro	-11.5639
jamaw	-11.5641
▁empresa	-11.5642
▁alcalde	-11.5642
▁necesita	-11.5642
▁disappointed	-11.5644
▁banned	-11.5646
▁blessed	-11.5649
manasqataq	-11.565
▁munasiña	-11.565
▁otsi	-11.565
▁Ebu	-11.5651
▁ote	-11.5655
▁Tunisia	-11.5655
▁acknowledged	-11.5657
=	-11.5658
ttsë	-11.5659
▁incentives	-11.5659
▁temaik	-11.5659
▁bané	-11.5659
▁disabled	-11.566
▁proyecto	-11.566
▁púbiliki	-11.566
▁ministro	-11.566
▁ratification	-11.566
▁bakiá	-11.566
▁onic	-11.5661
▁codecision	-11.5661
takoteri	-11.5661
ajeite	-11.5662
ntya	-11.5662
▁Aña	-11.5663
▁markapi	-11.5663
▁kayu	-11.5663
▁akinti	-11.5666
▁anea	-11.5666
▁Py	-11.5667
▁hide	-11.5668
▁alajjpacha	-11.5668
▁respects	-11.5668
▁cree	-11.5671
▁ikábo	-11.5671
ätawa	-11.5672
nale	-11.5674
qkunata	-11.5674
rey	-11.5675
▁Omo	-11.5675
▁taste	-11.5676
▁bero	-11.5676
▁brutal	-11.5677
asanojeit	-11.5677
▁horse	-11.5677
▁Thursday	-11.5678
▁dedication	-11.5678
▁Surely	-11.5678
akuni	-11.5678
▁bari	-11.5679
▁rebel	-11.5679
incha	-11.568
▁ibon	-11.5681
iö	-11.5683
oui	-11.5685
▁Sta	-11.5688
▁piyo	-11.5689
vu	-11.569
▁reminded	-11.5691
▁pura	-11.5693
▁kuta	-11.5694
▁pace	-11.5694
▁tahuel	-11.5694
▁xä	-11.5695
▁telephone	-11.5696
▁yänaka	-11.5697
▁weká	-11.5697
cuep	-11.5698
▁oyo	-11.5699
▁beings	-11.57
qtin	-11.57
pire	-11.5702
mper	-11.5706
ught	-11.5707
▁llaqtan	-11.5708
▁yantayetiri	-11.571
economic	-11.5712
▁oná	-11.5712
ajeiteari	-11.5713
▁Benítez	-11.5713
▁Whether	-11.5713
▁resort	-11.5713
▁gosthi	-11.5714
▁tonatiuh	-11.5714
tiuy	-11.5715
▁»,	-11.5715
ult	-11.5717
▁nitla	-11.5718
anuta	-11.5719
▁antamiki	-11.5721
nthe	-11.5721
▁mayisi	-11.5724
tō	-11.5728
Que	-11.5728
titsi	-11.5729
▁Satanás	-11.5732
▁Black	-11.5733
▁itina	-11.5737
▁qankuna	-11.5737
▁violation	-11.5739
▁rembe	-11.574
▁hualla	-11.5741
▁messages	-11.5743
axca	-11.5746
▁ucanacasti	-11.5747
▁Arabia	-11.5747
▁alt	-11.5747
▁chose	-11.5748
▁stations	-11.5748
▁lurasi	-11.5749
▁Nocoaque	-11.5749
▁Vietnam	-11.5749
▁decent	-11.5749
▁Internal	-11.5749
▁badly	-11.5752
▁denied	-11.5752
come	-11.5752
▁jot	-11.5753
▁salt	-11.5753
▁7.	-11.5755
▁fariseos	-11.5755
nning	-11.5756
▁Mama	-11.5757
ylla	-11.576
gichi	-11.5761
▁Uru	-11.5762
▁moreover	-11.5763
▁Abel	-11.5764
▁desirable	-11.5767
▁mainstream	-11.5767
▁huchalliku	-11.5768
axe	-11.5771
▁Nayaw	-11.5772
▁Liberal	-11.5775
▁tibú	-11.5776
▁riches	-11.5777
▁nova	-11.5779
▁willakuy	-11.5779
▁predict	-11.5781
▁orak	-11.5783
▁ñak	-11.5785
▁nthandi	-11.5786
▁ikkë	-11.5786
▁plays	-11.5786
▁quiix	-11.5787
▁panos	-11.5787
▁yoavisaco	-11.5788
pjjta	-11.579
▁tukarik	-11.5791
▁tepetl	-11.5792
▁munas	-11.5793
▁Simu	-11.5796
tsè	-11.5798
▁fathers	-11.5799
rele	-11.5799
▁games	-11.58
▁pataca	-11.5801
▁urunaca	-11.5801
▁hñäki	-11.5802
▁Zacarías	-11.5803
▁festival	-11.5803
▁qolqe	-11.5803
▁breast	-11.5803
▁mɛhna	-11.5803
▁manufacturers	-11.5803
▁=	-11.5804
quenque	-11.5806
▁breach	-11.5806
awekai	-11.5809
▁habit	-11.5809
▁juramento	-11.581
▁desires	-11.5814
▁observers	-11.5815
sum	-11.5816
▁chekan	-11.5817
▁kala	-11.5818
queh	-11.5818
▁Employment	-11.5821
▁justicia	-11.5821
▁aminabi	-11.5821
▁tlalticpactli	-11.5821
make	-11.5823
siwa	-11.5824
▁photos	-11.5824
bus	-11.5824
▁Uc	-11.5826
chiya	-11.5829
▁zero	-11.583
hood	-11.5833
▁(10	-11.5837
moc	-11.5837
city	-11.5837
▁informal	-11.5838
▁ikonbiresi	-11.5839
▁gastigo	-11.5839
▁ŕu	-11.5839
▁Danish	-11.5839
▁waqaycha	-11.5839
wígame	-11.5839
▁humble	-11.584
▁kéka	-11.5841
▁hence	-11.5841
▁quitlali	-11.5843
+."	-11.5843
▁yè	-11.5847
▁intentions	-11.5847
tasa	-11.5849
▁kewa	-11.5849
▁applications	-11.585
tanaje	-11.585
▁jichha	-11.585
▁hmää	-11.5851
▁sɛhɛ	-11.5855
Ye	-11.5856
▁Salvador	-11.5857
▁protocol	-11.5857
▁pursuing	-11.5857
▁Organization	-11.5857
▁openly	-11.5858
▁2016	-11.5859
▁quiilhuijque	-11.5861
ukiyarima	-11.5863
▁yes	-11.5863
▁65	-11.5865
▁mésopa	-11.5865
▁reyisti	-11.5865
jó	-11.5865
▁expert	-11.5866
kov	-11.5866
▁jemamea	-11.5867
▁extending	-11.5867
▁exact	-11.5871
ivity	-11.5871
▁ijata	-11.5874
▁mecha	-11.5875
reuyewetse	-11.5875
▁Rodríguez	-11.5875
▁julárigame	-11.5875
▁nainti	-11.5875
kabi	-11.5875
▁midst	-11.5876
▁Syrian	-11.5879
ixmati	-11.588
▁hembi	-11.588
press	-11.5882
▁accepting	-11.5882
▁amending	-11.5883
▁wear	-11.5886
▁Pá	-11.5887
veshireiment	-11.5888
▁miyec	-11.5889
▁sù	-11.589
▁Michael	-11.5893
▁nemilistli	-11.5894
▁1969	-11.5894
▁upévare	-11.5894
olini	-11.5896
▁Bibliata	-11.5899
▁omomba	-11.5899
▁bond	-11.59
▁joxon	-11.5903
nikie	-11.5904
▁Yoi	-11.5904
▁kanki	-11.5904
▁beast	-11.5907
chijqui	-11.5908
▁Haiti	-11.5908
gel	-11.591
▁stars	-11.591
Jisk	-11.5911
▁irashi	-11.5911
▁Love	-11.5911
▁aviation	-11.5911
▁temachti	-11.5911
▁horqo	-11.5913
▁mure	-11.5914
rire	-11.5914
▁Nayajj	-11.5915
▁wave	-11.5916
pohualli	-11.5918
▁jumanakan	-11.592
▁communications	-11.5922
▁Jesusax	-11.5923
▁worker	-11.5923
say	-11.5924
▁bitter	-11.5926
back	-11.5928
lón	-11.5928
▁remónisi	-11.5929
▁attain	-11.5931
▁Ikanta	-11.5934
▁Salmo	-11.5934
inaki	-11.5935
▁Intla	-11.5935
▁Ken	-11.5938
▁height	-11.5939
ñäni	-11.5941
▁yatichäwi	-11.5942
háme	-11.5945
For	-11.5947
▁angry	-11.5948
éttsa	-11.5948
▁Jupanacasti	-11.5948
▁Taiwan	-11.595
▁iquisa	-11.595
▁entering	-11.5951
tapaaca	-11.5953
▁whereby	-11.5954
chkaq	-11.5954
hap	-11.5956
▁urun	-11.5958
pilli	-11.596
▁mill	-11.596
▁ntsaya	-11.5961
iyata	-11.5963
grad	-11.5964
matij	-11.5964
sim	-11.5965
▁gompaniérola	-11.5966
▁Unión	-11.5967
▁tribu	-11.5967
▁1977	-11.5967
lì	-11.5967
▁mosehui	-11.5969
▁App	-11.5969
▁courageous	-11.5972
▁description	-11.5973
▁onpax	-11.5975
▁economically	-11.5976
fle	-11.5977
▁nc	-11.5979
arik	-11.5979
▁Mēxihcatl	-11.5984
Po	-11.5985
▁Rima	-11.5986
▁throw	-11.5986
tapaaque	-11.5991
▁suticha	-11.5992
ME	-11.5994
▁iroba	-11.5996
▁banda	-11.5996
▁Kha	-11.5996
▁division	-11.6
▁Iroñaaka	-11.6002
▁oitsoqui	-11.6002
▁Pukyu	-11.6002
▁Sudan	-11.6003
▁VAT	-11.6003
ípe	-11.6003
▁moneki	-11.6003
▁Cartes	-11.6005
ntakari	-11.6006
▁oño	-11.6006
▁Leon	-11.6007
▁hye	-11.6007
▁confia	-11.6008
▁Democratic	-11.6008
▁obantsi	-11.6008
huia	-11.601
▁iñiq	-11.6012
▁activist	-11.6014
▁reta	-11.6016
▁sach	-11.6017
▁sutip	-11.602
▁compulsory	-11.6021
▁qawachi	-11.6022
▁2017	-11.6023
▁yatiq	-11.6024
▁xepo	-11.6026
pytu	-11.6026
dores	-11.6027
▁ojei	-11.6028
▁Dra	-11.6031
nacat	-11.6032
nix	-11.6034
▁civilian	-11.6035
chiua	-11.6036
▁Pallan	-11.6037
jjat	-11.6038
hold	-11.6039
▁privacy	-11.6039
▁cultivate	-11.6039
▁voices	-11.6039
▁western	-11.6039
▁kitilli	-11.6044
clo	-11.6045
▁l	-11.6045
▁miquis	-11.6045
▁kawsaq	-11.6046
▁xate	-11.6046
▁Alto	-11.6047
etéva	-11.605
▁Lib	-11.605
ätati	-11.6051
rik	-11.6051
jati	-11.6053
avaqueri	-11.6053
▁Mer	-11.6054
pur	-11.6054
▁approaches	-11.6055
▁visiting	-11.6055
bake	-11.6056
shiki	-11.6059
▁distinction	-11.6059
▁ishima	-11.606
pxta	-11.6062
▁targeted	-11.6063
▁Asiria	-11.6064
muq	-11.6064
xä	-11.6072
▁fate	-11.6072
▁slaughter	-11.6076
▁tuta	-11.6076
▁semátiri	-11.6077
▁1967	-11.6077
▁harsh	-11.6077
▁karúa	-11.6078
ball	-11.6078
▁waqa	-11.6079
▁ejercito	-11.608
▁bright	-11.608
irinakax	-11.608
blé	-11.608
▁tteköl	-11.6082
▁holds	-11.6082
anteariri	-11.6083
▁painful	-11.6087
▁rumi	-11.6087
sinjja	-11.6087
ätam	-11.6089
▁neighbours	-11.6091
▁sinchi	-11.6091
asax	-11.6092
▁budgets	-11.6093
wile	-11.6093
▁celebration	-11.6094
▁endeavour	-11.6094
▁namúti	-11.6094
▁aircraft	-11.6095
▁48	-11.6095
▁ethical	-11.6096
▁anywhere	-11.6096
▁dri	-11.6097
▁supporters	-11.6097
▁attract	-11.6098
▁nuiwarite	-11.6099
▁atibo	-11.61
▁pilot	-11.6102
ytapas	-11.6102
kekai	-11.6103
patla	-11.6103
▁kon	-11.6105
▁Okanta	-11.6105
▁plane	-11.6106
▁israelitanaka	-11.6106
ttö	-11.6107
rupi	-11.6108
▁yoiya	-11.611
▁ibua	-11.6111
▁cumpli	-11.6113
▁dying	-11.6113
▁mbarete	-11.6114
▁smart	-11.6114
▁Rural	-11.6115
▁professor	-11.6116
▁Abdo	-11.6117
▁oporo	-11.6118
▁Mic	-11.6119
hayhu	-11.6119
▁sincerely	-11.612
▁reporting	-11.6123
tsí	-11.6126
▁altara	-11.6128
eño	-11.6128
yun	-11.613
▁certainty	-11.6131
▁examination	-11.6132
▁geographical	-11.6132
awie	-11.6132
▁Ajayu	-11.6132
▁1983	-11.6133
▁associations	-11.6133
apaaqueri	-11.6133
arari	-11.6133
yéni	-11.6136
▁oñemoĩ	-11.6136
kaspa	-11.6136
▁Next	-11.6137
▁Air	-11.6137
atayna	-11.6137
lhua	-11.6139
aries	-11.6139
▁camps	-11.6143
▁east	-11.6143
ntzi	-11.6143
▁nuä	-11.6146
lam	-11.6146
▁Tha	-11.6149
▁fifth	-11.615
zen	-11.615
▁Authority	-11.6151
▁pairine	-11.6151
▁accomplish	-11.6151
▁club	-11.6152
▁20%	-11.6152
▁Reform	-11.6152
inbo	-11.6153
teaji	-11.6159
▁gawichí	-11.616
kaq	-11.6162
▁passenger	-11.6163
▁warmin	-11.6164
▁entre	-11.6165
▁watamanta	-11.6166
tage	-11.6169
▁debated	-11.6169
▁piratsipaye	-11.617
▁attitudes	-11.6171
▁Yugoslavia	-11.6172
▁alert	-11.6177
▁serves	-11.6178
nsi	-11.6179
▁Costa	-11.6179
▁nijchihua	-11.6181
warqa	-11.6183
▁boat	-11.6186
ireme	-11.6187
▁Lithuania	-11.6187
ʉtbi	-11.6189
ob	-11.6191
quetza	-11.6192
pho	-11.6193
oquihʉ	-11.6193
▁Say	-11.6195
nierix	-11.6196
▁Bor	-11.6197
▁performed	-11.6202
▁tarip	-11.6202
ngy	-11.6204
▁participants	-11.6205
▁recession	-11.6206
▁protein	-11.6206
▁Cesarea	-11.6206
▁qhiti	-11.6207
▁oipuru	-11.6207
▁Upépe	-11.6207
ología	-11.6207
▁Sul	-11.6208
▁1919	-11.6208
▁remote	-11.6211
▁Atlantic	-11.6211
crib	-11.6215
El	-11.6217
itia	-11.6217
▁terror	-11.6218
▁xekate	-11.6218
▁ñá	-11.6219
▁vehicle	-11.622
ajeitaquee	-11.6221
rios	-11.6221
▁6.	-11.6222
▁complaints	-11.6222
▁examined	-11.6222
mpá	-11.6225
▁nasipa	-11.6226
▁terrorists	-11.6226
tkoie	-11.6226
▁hetave	-11.6227
▁laugh	-11.6227
▁Lei	-11.623
▁nacion	-11.623
▁Davidan	-11.6231
▁complain	-11.6238
katsie	-11.6239
▁haguére	-11.6239
ific	-11.6241
kitame	-11.6242
tlapejpeni	-11.6242
jquetl	-11.6243
▁kanta	-11.6243
▁explore	-11.6244
▁province	-11.6244
▁Westiora	-11.6244
▁somebody	-11.6244
▁pajitachari	-11.6244
▁Altepetl	-11.6244
▁Jaskaaxon	-11.6244
▁temachtli	-11.6244
▁llamka	-11.6244
▁Sir	-11.6245
AY	-11.6245
▁wötëule	-11.6246
vetaca	-11.6248
▁maba	-11.6248
▁ayena	-11.6249
▁amended	-11.625
▁ikatúva	-11.6251
▁uñjiri	-11.6251
▁warma	-11.6252
ough	-11.6252
▁Kar	-11.6252
či	-11.6253
tibi	-11.6254
▁piquemisant	-11.6254
▁walls	-11.6256
▁hyoya	-11.626
▁novel	-11.626
▁ytech	-11.626
▁External	-11.6262
▁confusion	-11.6262
▁Martínez	-11.6263
aite	-11.6264
puku	-11.6264
▁Mount	-11.6265
Jaoca	-11.6266
▁everyday	-11.6266
chhu	-11.6266
▁llaqtakuna	-11.6267
inxon	-11.627
wakait	-11.6271
▁openness	-11.6273
nqachu	-11.6273
tiain	-11.6275
▁quinmaca	-11.6276
▁ucatjja	-11.6277
▁isaika	-11.6279
▁applicant	-11.6281
▁worried	-11.6281
▁iroñaka	-11.6281
▁cheqaq	-11.6281
▁circuit	-11.6281
vacaa	-11.6282
▁iriniro	-11.6282
▁blú	-11.6283
▁soldados	-11.6284
▁puñu	-11.6286
dé	-11.6286
▁protesters	-11.6287
tökicha	-11.6288
aria	-11.6289
kakai	-11.629
▁zønga	-11.6293
▁ends	-11.6296
▁tiyu	-11.6296
▁Austrian	-11.6299
▁Belgian	-11.63
▁combination	-11.63
pōhual	-11.63
▁mañat	-11.6303
ntajeiteri	-11.6303
▁mili	-11.6304
ipai	-11.6306
conehua	-11.6307
ñemba	-11.6308
▁tsaka	-11.6309
▁prevented	-11.6309
mɛdi	-11.6312
▁Marcos	-11.6313
ñampi	-11.6314
▁profession	-11.6314
▁llaqtaman	-11.6314
▁slowly	-11.6316
akaku	-11.6318
mbre	-11.6319
▁fax	-11.632
oie	-11.632
lique	-11.632
▁asagá	-11.6321
▁quinanquili	-11.6322
▁-"	-11.6323
winá	-11.6325
▁yachachisqan	-11.6325
caya	-11.6326
▁Ag	-11.6327
peuh	-11.6328
ypas	-11.6329
dar	-11.6332
▁municipal	-11.6333
äw	-11.6334
▁ipu	-11.6335
wila	-11.6335
▁khepar	-11.6335
rated	-11.6337
▁expand	-11.6338
ŭ	-11.6338
▁wamblé	-11.6338
▁shut	-11.6338
»	-11.6338
▁avoided	-11.6339
▁reserves	-11.634
▁95	-11.634
sinsti	-11.6344
etero	-11.6345
▁sasachakuykuna	-11.6345
▁iwi	-11.6346
arí	-11.6346
ayta	-11.6347
iyak	-11.6351
▁Young	-11.6353
leke	-11.6354
kuini	-11.6357
▁43	-11.6357
▁anniversary	-11.6357
▁prejudice	-11.6357
▁ḇoni	-11.6357
▁Enrique	-11.6357
▁strive	-11.6357
▁Charles	-11.6358
▁silent	-11.6359
▁rank	-11.6359
▁tender	-11.6361
▁deficits	-11.6363
▁12:	-11.6363
▁department	-11.6363
▁manchaku	-11.6365
▁kué	-11.6367
umbabi	-11.6367
oko	-11.6367
ówala	-11.6369
▁ribojo	-11.6372
▁ñoh	-11.6372
nakarux	-11.6372
▁flows	-11.6372
▁Real	-11.6373
▁idol	-11.6375
ldo	-11.6376
▁xehe	-11.6376
▁apóstol	-11.6376
▁yuxexuit	-11.6376
▁Sacerdote	-11.6376
▁eternal	-11.6376
▁kenkishiriantsi	-11.6376
▁cash	-11.6376
▁rua	-11.6376
▁tsinki	-11.6377
▁120	-11.6377
▁insight	-11.6379
▁uphold	-11.6379
Para	-11.638
nautsa	-11.6381
▁reverse	-11.6381
▁zʉdi	-11.6383
▁juj	-11.6383
▁gather	-11.6383
tok	-11.6385
▁imati	-11.6386
May	-11.6386
nkichu	-11.6389
asim	-11.6393
notz	-11.6393
▁accompany	-11.6395
▁iglesia	-11.6395
▁reconstruction	-11.6395
atänwa	-11.6395
vape	-11.6396
▁permitted	-11.6396
▁ueyi	-11.6396
▁kashiri	-11.6397
▁Office	-11.6399
▁favorite	-11.64
▁niji	-11.6404
▁$1	-11.6405
▁proclaim	-11.6405
▁ah	-11.6405
2.	-11.6408
▁cure	-11.6408
▁Burma	-11.6411
▁īca	-11.6411
▁Nga	-11.6412
▁xochi	-11.6412
▁dalöieke	-11.6414
▁Sanquenarentsi	-11.6414
▁distrito	-11.6414
mann	-11.6417
▁presenting	-11.6419
▁utap	-11.6419
tonal	-11.6419
▁oinnax	-11.6419
mission	-11.6419
íchaga	-11.642
▁utjäna	-11.642
▁dewa	-11.642
betsikantyari	-11.6421
▁Europa	-11.6422
pjjänwa	-11.6422
ñatak	-11.6422
▁dress	-11.6424
bale	-11.6428
▁Greens	-11.6429
▁thaya	-11.643
▁kaax	-11.643
▁runata	-11.643
▁sacrifices	-11.6431
▁Arika	-11.6432
mex	-11.6433
▁kablë	-11.6433
▁analyse	-11.6433
▁psalmist	-11.6433
jeitakeri	-11.6435
vid	-11.6435
▁imía	-11.6435
▁1940	-11.6436
▁hín	-11.6437
aracta	-11.644
▁IX	-11.644
jey	-11.6442
▁axeai	-11.6443
▁imperfect	-11.6444
▁oj	-11.6446
▁qhipa	-11.6446
▁saraq	-11.6447
Eiro	-11.6447
▁iaxca	-11.6448
CA	-11.6449
empi	-11.6451
▁generous	-11.6452
▁kempetachari	-11.6452
▁missionaries	-11.6452
▁inequality	-11.6453
burg	-11.6454
▁Part	-11.6454
▁announcement	-11.6455
▁Acts	-11.6455
yoca	-11.6456
inte	-11.6457
▁accord	-11.6459
:“	-11.6461
▁apato	-11.6464
▁readers	-11.6465
Lo	-11.6465
▁Hesu	-11.6468
▁taypit	-11.6469
▁Gabriel	-11.6471
▁adverse	-11.6471
▁Ijcon	-11.6472
bama	-11.6472
▁Mayni	-11.6472
râ	-11.6475
▁Bla	-11.6475
nahmu	-11.6475
umba	-11.6475
stin	-11.6478
▁Win	-11.648
▁yaqa	-11.6481
▁Jesusan	-11.6481
▁reserve	-11.6481
▁sacrificio	-11.6482
▁characteristics	-11.6483
nankuta	-11.6485
▁kamachikuy	-11.6487
weri	-11.6488
▁notion	-11.6488
cuil	-11.6489
hague	-11.649
▁category	-11.6491
patsie	-11.6492
nanmanta	-11.6495
▁Out	-11.6496
ñudi	-11.6497
gú	-11.6499
▁witnessing	-11.65
▁ejiro	-11.6502
▁noiba	-11.6503
▁pico	-11.6503
ayexeiya	-11.6504
nacatejj	-11.6504
▁janra	-11.6507
ltic	-11.6507
ankir	-11.6508
quí	-11.6509
▁stream	-11.651
▁Fernández	-11.651
▁poison	-11.6511
▁lacking	-11.6512
▁newly	-11.6513
▁kikini	-11.6516
▁tie	-11.6516
▁Pen	-11.6518
▁Calli	-11.6518
▁Perú	-11.6522
itanaki	-11.6523
▁pensions	-11.6524
rero	-11.6524
timani	-11.6526
utaine	-11.6528
▁highlights	-11.6528
▁conscious	-11.6528
▁Bill	-11.6529
▁Inijuanti	-11.6529
▁mbytépe	-11.6529
▁devotion	-11.6529
quejja	-11.653
▁Everyone	-11.653
▁ashitarori	-11.653
▁isolated	-11.6531
▁qull	-11.6533
▁quiijtojque	-11.6534
TE	-11.6534
hur	-11.6535
▁assert	-11.6535
Amo	-11.6536
guái	-11.6538
▁qhipar	-11.6541
▁hatuncha	-11.6542
▁tsoabi	-11.6542
cameetsataque	-11.6544
▁Dá	-11.6545
ikuai	-11.6545
teco	-11.6546
▁nuwant	-11.6546
▁discover	-11.6547
canti	-11.6549
▁Wikispecies	-11.6549
▁lisensia	-11.6549
▁unemployed	-11.6549
▁eyé	-11.655
▁distritum	-11.655
▁camera	-11.655
kawi	-11.655
mark	-11.6551
▁baken	-11.6552
lijque	-11.6552
líwa	-11.6553
tanti	-11.6553
▁deny	-11.6554
▁Photo	-11.6555
▁samar	-11.6555
LA	-11.6557
anteari	-11.6558
▁broader	-11.6558
jeitaca	-11.6558
jiva	-11.6559
jeitaquero	-11.6561
▁emotions	-11.6561
gachi	-11.6562
vor	-11.6562
▁39	-11.6562
ychu	-11.6562
▁Diosaw	-11.6563
▁galí	-11.6565
▁ucanacajj	-11.6566
▁tuqit	-11.6567
▁pursuit	-11.6568
▁tupiriya	-11.6568
▁sejco	-11.6568
▁pam	-11.657
▁recover	-11.657
▁impressed	-11.6571
▁distributed	-11.6571
gur	-11.6574
▁tight	-11.6578
▁Xiquin	-11.658
▁th	-11.658
▁Diosasti	-11.6582
éra	-11.6584
yámala	-11.6585
yvy	-11.6586
tajeri	-11.6587
▁Pindorama	-11.6587
▁kunapachatix	-11.6587
▁paraguayo	-11.6587
▁ocsequimej	-11.6588
▁nene	-11.659
ñets	-11.6591
ddle	-11.6592
▁sankiro	-11.6592
▁Nueva	-11.6594
iso	-11.6595
▁kaninu	-11.6596
▁pó	-11.6597
gio	-11.6599
▁yamena	-11.6599
▁convince	-11.6599
unchaw	-11.6601
▁fly	-11.6603
▁talent	-11.6604
▁quiijtos	-11.6604
rurqaku	-11.6606
▁pɛhna	-11.6606
▁betanbi	-11.6608
▁amtasi	-11.6609
▁Teko	-11.6611
kare	-11.6613
▁aye	-11.6616
0.000	-11.6617
great	-11.6618
▁typical	-11.662
▁populations	-11.6622
▁dear	-11.6623
▁puriy	-11.6624
▁eara	-11.6624
▁yoini	-11.6625
▁yawö	-11.6626
▁ratified	-11.6627
▁cheqap	-11.6627
▁kaniu	-11.6629
iwau	-11.663
▁apanki	-11.6631
▁sebári	-11.6631
reuyeh	-11.6631
▁waquich	-11.6631
▁jacaña	-11.6631
▁Ale	-11.6631
▁chaykuna	-11.6632
moni	-11.6634
iru	-11.6634
xonai	-11.6634
▁emerged	-11.6635
▁sap	-11.6635
▁INEI	-11.6635
ncing	-11.6636
▁promoted	-11.6636
▁jump	-11.6637
▁boo	-11.6637
kacha	-11.6638
spawa	-11.6639
ariyari	-11.6641
▁rob	-11.6641
7%	-11.6641
nwan	-11.6641
bert	-11.6642
▁chomo	-11.6642
▁peteĩha	-11.6643
▁depth	-11.6643
▁iquenqueshire	-11.6644
kunku	-11.6645
▁dene	-11.6646
▁evaluate	-11.6646
▁incienso	-11.6646
▁xijchihuaca	-11.6646
▁abril	-11.6646
▁Esteban	-11.6646
▁hualajqui	-11.6646
uda	-11.6647
chiwa	-11.665
▁(11	-11.665
▁wasara	-11.6651
shka	-11.6651
▁jakenac	-11.6652
▁transitional	-11.6652
▁naka	-11.6654
▁kuat	-11.6655
▁Oba	-11.6655
rontsi	-11.6656
▁Iraqi	-11.6657
▁jakenacan	-11.6658
paqqa	-11.6659
iná	-11.666
▁flee	-11.6662
▁ibi	-11.6662
kake	-11.6663
▁kerutsareme	-11.6663
rki	-11.6664
▁Culture	-11.6665
▁universities	-11.6665
▁1968	-11.6667
▁qhititejj	-11.6667
▁permission	-11.6667
▁Center	-11.6667
ngä	-11.6668
▁load	-11.6669
▁employers	-11.6672
▁apabi	-11.6674
có	-11.6675
tere	-11.6677
▁negotiate	-11.6678
▁deeper	-11.6678
xeiyanik	-11.6678
aquenari	-11.6681
▁covers	-11.6681
gos	-11.6682
anenet	-11.6682
▁nayraqatan	-11.6682
véi	-11.6684
▁ndéve	-11.6685
antashiyetachari	-11.6685
▁observation	-11.6686
cē	-11.6686
▁stance	-11.6687
▁employ	-11.6689
▁ogueraha	-11.669
ched	-11.6691
▁sounds	-11.6692
▁mechá	-11.6692
▁Estados	-11.6692
▁chemicals	-11.6692
keta	-11.6692
▁Land	-11.6693
tate	-11.6696
nakapat	-11.6697
ctic	-11.6697
▁ky	-11.6698
▁surprising	-11.6699
▁mbi	-11.6699
▁fra	-11.67
sir	-11.67
▁ibetsika	-11.6701
▁nuwasiña	-11.6701
▁circ	-11.6703
▁Chan	-11.6703
ilpi	-11.6704
▁Remember	-11.6705
▁Sánchez	-11.6705
▁temptation	-11.6705
▁ñorairõ	-11.6705
▁ecological	-11.6705
▁nthuts	-11.6705
▁ut	-11.6705
▁hinachu	-11.6705
▁onanxon	-11.6706
▁yé	-11.6707
▁asks	-11.6709
▁puncu	-11.6712
purqan	-11.6713
▁Mur	-11.6714
plica	-11.6714
▁insufficient	-11.6717
▁oh	-11.6717
tlah	-11.6718
▁ucampisa	-11.6719
▁cate	-11.6719
▁Ob	-11.6723
araquini	-11.6723
apaaque	-11.6724
teroji	-11.6724
▁nḏui	-11.6724
▁kasqa	-11.6725
▁ambition	-11.6726
▁darkness	-11.6726
aniwa	-11.6727
▁llamp	-11.6729
tatzin	-11.6732
flo	-11.6734
▁hark	-11.6734
xatsi	-11.6735
▁chuymampi	-11.6735
▁approximately	-11.6736
load	-11.6738
▁hath	-11.6744
▁viru	-11.6744
mulí	-11.6744
▁territories	-11.6744
▁gross	-11.6744
▁Tecpatl	-11.6745
▁foods	-11.6745
▁Yemen	-11.6745
▁kehate	-11.6745
▁originally	-11.6746
palehuis	-11.6748
▁blo	-11.675
ancha	-11.675
▁tapu	-11.6754
▁Eva	-11.6757
▁teetai	-11.6759
▁alj	-11.676
▁(12	-11.6762
pper	-11.6762
nacapsa	-11.6764
▁Pérez	-11.6764
xhʉ	-11.6765
▁Këköl	-11.6766
enieni	-11.6768
taja	-11.6769
▁walked	-11.6772
igá	-11.6773
raquïna	-11.6773
ARI	-11.6773
▁allicha	-11.6777
iqui	-11.6778
▁apanucu	-11.6779
▁Mato	-11.678
Hu	-11.6781
nanquili	-11.6782
huiyan	-11.6783
CS	-11.6783
There	-11.6784
▁Jerosarequi	-11.6784
▁pueblo	-11.6784
▁Äjuä	-11.6784
▁greed	-11.6784
▁(13	-11.6785
▁Runa	-11.6785
▁(9	-11.6785
▁yuyaymana	-11.6785
▁bera	-11.6786
▁gí	-11.6787
rutix	-11.6788
▁Kunan	-11.6789
▁neighbouring	-11.6789
▁xemeta	-11.679
▁Work	-11.679
inra	-11.6791
▁chic	-11.6791
yetua	-11.6791
▁transform	-11.6792
▁reteanan	-11.6792
▁Teo	-11.6793
araquim	-11.6795
▁wí	-11.6796
▁tseka	-11.6799
▁kasqanrayku	-11.68
bio	-11.6802
US	-11.6802
▁tlachi	-11.6802
▁kikinhakin	-11.6804
nakaruw	-11.6805
tziro	-11.6806
rqanki	-11.6806
▁mochiuas	-11.6807
fund	-11.6808
▁baní	-11.6809
duct	-11.6809
hqueh	-11.681
lec	-11.6811
▁reflection	-11.6811
▁jiri	-11.6812
▁antut	-11.6812
arontsi	-11.6813
▁Chaynaqa	-11.6814
▁oxe	-11.6816
keke	-11.6818
low	-11.6818
▁banana	-11.6819
Let	-11.682
▁kamachisqan	-11.6821
jtinemi	-11.6823
▁scenario	-11.6823
▁Three	-11.6823
ixu	-11.6825
▁warming	-11.6825
▁ashitari	-11.6826
kanketian	-11.6827
▁airport	-11.6828
▁Este	-11.683
▁tahetsie	-11.6831
▁tuayame	-11.6831
▁balë	-11.6831
▁aynach	-11.6834
▁qillqata	-11.6835
▁kura	-11.6836
▁jayt	-11.6838
mà	-11.684
▁Comp	-11.6841
▁yamem	-11.6843
▁offices	-11.6843
raye	-11.6843
▁considerations	-11.6843
iimomachtijcahua	-11.6843
▁yxquich	-11.6844
▁keeps	-11.6844
quise	-11.6846
Co	-11.6847
nner	-11.6848
▁bold	-11.6848
▁rulers	-11.6848
asanotaque	-11.6849
▁tsoa	-11.685
▁moves	-11.685
▁Ximo	-11.6853
nä	-11.6856
▁paye	-11.6856
ranging	-11.6858
jeitavaqueri	-11.6859
▁marketing	-11.686
▁Jaa	-11.6863
▁Efraín	-11.6863
utaneeti	-11.6863
▁yiki	-11.6863
water	-11.6864
▁smooth	-11.6864
tom	-11.6865
▁joining	-11.6865
▁iroka	-11.6865
▁mätsa	-11.6868
▁Pisankenatero	-11.6868
íriga	-11.6871
▁jerovia	-11.6871
dó	-11.6871
kemisant	-11.6873
urge	-11.6874
rico	-11.6874
▁respective	-11.6874
▁Much	-11.6875
▁jawir	-11.6875
acari	-11.6877
▁quimicti	-11.688
▁driven	-11.688
arakta	-11.688
▁ports	-11.6881
▁achtihui	-11.6883
▁underlying	-11.6884
▁xanetsika	-11.6884
▁ceiling	-11.6884
▁Yejhuamej	-11.6885
▁Masque	-11.6885
▁44	-11.6885
▁prepara	-11.6886
▁channel	-11.6886
down	-11.689
▁yeme	-11.689
oge	-11.6891
jkuö	-11.6891
hina	-11.6891
hana	-11.6893
▁Sy	-11.6894
▁ndá	-11.6897
ltis	-11.6899
titewa	-11.6901
▁phokha	-11.6903
▁founded	-11.6903
▁fariseowakpa	-11.6903
▁rewégame	-11.6903
uegue	-11.6904
▁Fac	-11.6905
San	-11.6906
▁jainoa	-11.6906
▁clothes	-11.6907
chijchi	-11.6907
▁cusisi	-11.691
▁benai	-11.691
▁simá	-11.6911
piltzin	-11.6911
xiya	-11.6912
▁liw	-11.6913
▁pitsi	-11.6913
rating	-11.6915
▁burning	-11.6915
▁elect	-11.6917
asanoteri	-11.6918
▁piratsi	-11.6918
Ro	-11.6919
▁differently	-11.692
gaguihʉ	-11.692
▁kinsa	-11.6923
▁marcanquir	-11.6923
▁Ashaninka	-11.6923
▁Slovenia	-11.6923
▁satellite	-11.6923
▁bacteria	-11.6923
▁nibilé	-11.6923
rjamaw	-11.6924
▁organ	-11.6924
▁apanuku	-11.6925
▁viewpoint	-11.6925
▁guwana	-11.6925
▁temaca	-11.6925
▁Wil	-11.6926
▁representing	-11.6927
▁refugee	-11.6928
▁jark	-11.6928
▁biyöchökwakpa	-11.6929
▁petition	-11.6929
▁Hamas	-11.693
▁memanu	-11.6931
enka	-11.6933
▁tulur	-11.6935
read	-11.6936
ruku	-11.6937
▁isihua	-11.6937
aitamet	-11.6938
íba	-11.6939
▁nijaki	-11.6941
▁kha	-11.6943
▁hñuxa	-11.6943
▁threshold	-11.6944
▁Citizens	-11.6944
▁graduate	-11.6944
▁tabiré	-11.6944
▁cultures	-11.6944
▁tendota	-11.6944
matic	-11.6944
▁quihuica	-11.6945
▁omotenondéva	-11.6945
▁miss	-11.6945
▁wording	-11.6945
▁tiquita	-11.6945
▁grass	-11.6947
▁ainbobo	-11.6948
▁akanwe	-11.6948
rigo	-11.6948
▁buying	-11.6949
▁yotantsipankoki	-11.6949
huaca	-11.695
chika	-11.695
bɛp	-11.6952
room	-11.6952
▁41	-11.6953
▁jemanko	-11.6953
khu	-11.6955
▁mochiua	-11.6957
neme	-11.6957
áma	-11.6963
yarixi	-11.6963
▁injured	-11.6964
▁likewise	-11.6964
▁qanchis	-11.6964
▁driver	-11.6965
▁ketine	-11.6965
▁criminals	-11.6966
▁textile	-11.6966
▁yami	-11.6966
wáame	-11.6967
neli	-11.6967
▁xoc	-11.6968
wele	-11.6968
tëne	-11.6976
▁600	-11.6977
▁kamachiq	-11.6979
▁ayec	-11.6979
shani	-11.6979
▁sampa	-11.6979
▁mixed	-11.6981
▁miqui	-11.6981
▁panuk	-11.6981
mbra	-11.6982
▁cihua	-11.6983
enta	-11.6983
▁Abakojetiro	-11.6984
▁applicable	-11.6984
▁artificial	-11.6984
▁majtlactli	-11.6984
▁oikéva	-11.6984
▁healthcare	-11.6984
▁mpɛfi	-11.6984
▁software	-11.6984
▁racism	-11.6985
shing	-11.6985
So	-11.699
▁guy	-11.6992
▁nayaru	-11.6992
yana	-11.6993
▁isanquenare	-11.6994
▁quineltocaj	-11.6996
▁î	-11.6996
uts	-11.6997
▁Taytan	-11.7001
▁holiday	-11.7004
▁nsɛqui	-11.7004
xatat	-11.7008
[...]
